#include"uec_alarm_model.h"

const unsigned char uec_alarm_model[] DATA_ALIGN_ATTRIBUTE= {
  0x18, 0x00, 0x00, 0x00, 0x54, 0x46, 0x4c, 0x33, 0x00, 0x00, 0x0e, 0x00,
  0x18, 0x00, 0x0c, 0x00, 0x08, 0x00, 0x04, 0x00, 0x10, 0x00, 0x14, 0x00,
  0x0e, 0x00, 0x00, 0x00, 0x38, 0x00, 0x00, 0x00, 0x3c, 0x00, 0x00, 0x00,
  0x03, 0x00, 0x00, 0x00, 0x08, 0x00, 0x00, 0x00, 0x98, 0x00, 0x00, 0x00,
  0x1c, 0x00, 0x00, 0x00, 0x54, 0x69, 0x6e, 0x79, 0x4e, 0x65, 0x75, 0x72,
  0x61, 0x6c, 0x4e, 0x65, 0x74, 0x77, 0x6f, 0x72, 0x6b, 0x20, 0x43, 0x6f,
  0x6e, 0x76, 0x65, 0x72, 0x74, 0x65, 0x64, 0x2e, 0x00, 0x00, 0x00, 0x00,
  0x01, 0x00, 0x00, 0x00, 0xf4, 0x00, 0x00, 0x00, 0x19, 0x00, 0x00, 0x00,
  0xcc, 0x2c, 0x02, 0x00, 0xb0, 0x2c, 0x02, 0x00, 0xa0, 0x2c, 0x02, 0x00,
  0x90, 0x2c, 0x02, 0x00, 0x80, 0x2c, 0x02, 0x00, 0x70, 0x2c, 0x02, 0x00,
  0x60, 0x2c, 0x02, 0x00, 0x50, 0x2c, 0x02, 0x00, 0x40, 0x2c, 0x02, 0x00,
  0x30, 0x2c, 0x02, 0x00, 0x20, 0x2c, 0x02, 0x00, 0x10, 0x2c, 0x02, 0x00,
  0x00, 0x2c, 0x02, 0x00, 0xf0, 0x2b, 0x02, 0x00, 0xe0, 0x2b, 0x02, 0x00,
  0xd0, 0x2b, 0x02, 0x00, 0xc0, 0x2b, 0x02, 0x00, 0xb0, 0x2b, 0x02, 0x00,
  0xa0, 0x2b, 0x02, 0x00, 0x90, 0x2b, 0x02, 0x00, 0x80, 0x2b, 0x02, 0x00,
  0x70, 0x2b, 0x02, 0x00, 0x60, 0x2b, 0x02, 0x00, 0x50, 0x2b, 0x02, 0x00,
  0x40, 0x2b, 0x02, 0x00, 0x1d, 0x00, 0x00, 0x00, 0x34, 0x2b, 0x02, 0x00,
  0x1c, 0x2b, 0x02, 0x00, 0x04, 0x2b, 0x02, 0x00, 0x8c, 0xbf, 0x01, 0x00,
  0x20, 0xbf, 0x01, 0x00, 0xe0, 0xbe, 0x01, 0x00, 0xcc, 0xbe, 0x01, 0x00,
  0x7c, 0xbe, 0x01, 0x00, 0x5c, 0xb9, 0x01, 0x00, 0x44, 0xb9, 0x01, 0x00,
  0xc0, 0xb8, 0x01, 0x00, 0x98, 0x7f, 0x01, 0x00, 0xd8, 0x64, 0x01, 0x00,
  0x0c, 0x64, 0x01, 0x00, 0xd8, 0x63, 0x01, 0x00, 0x48, 0x63, 0x01, 0x00,
  0xd0, 0x61, 0x01, 0x00, 0x3c, 0x61, 0x01, 0x00, 0x3c, 0x54, 0x01, 0x00,
  0x28, 0x53, 0x01, 0x00, 0x6c, 0x85, 0x00, 0x00, 0x3c, 0x82, 0x00, 0x00,
  0x18, 0x82, 0x00, 0x00, 0x54, 0x81, 0x00, 0x00, 0xbc, 0x24, 0x00, 0x00,
  0x58, 0x24, 0x00, 0x00, 0x38, 0x24, 0x00, 0x00, 0x48, 0x23, 0x00, 0x00,
  0x90, 0x01, 0x00, 0x00, 0x00, 0x00, 0x0e, 0x00, 0x18, 0x00, 0x08, 0x00,
  0x14, 0x00, 0x10, 0x00, 0x04, 0x00, 0x0c, 0x00, 0x0e, 0x00, 0x00, 0x00,
  0x00, 0x01, 0x00, 0x00, 0x20, 0x00, 0x00, 0x00, 0x0c, 0x00, 0x00, 0x00,
  0x5c, 0x01, 0x00, 0x00, 0x60, 0x01, 0x00, 0x00, 0x0a, 0x00, 0x00, 0x00,
  0x6d, 0x61, 0x69, 0x6e, 0x5f, 0x67, 0x72, 0x61, 0x70, 0x68, 0x00, 0x00,
  0x36, 0x00, 0x00, 0x00, 0xd0, 0x44, 0x02, 0x00, 0x64, 0x44, 0x02, 0x00,
  0x28, 0x44, 0x02, 0x00, 0xb0, 0x43, 0x02, 0x00, 0x4c, 0x43, 0x02, 0x00,
  0x20, 0x43, 0x02, 0x00, 0xc8, 0x42, 0x02, 0x00, 0x54, 0x42, 0x02, 0x00,
  0xec, 0x41, 0x02, 0x00, 0x94, 0x41, 0x02, 0x00, 0x30, 0x41, 0x02, 0x00,
  0xc8, 0x40, 0x02, 0x00, 0x64, 0x40, 0x02, 0x00, 0xf8, 0x3f, 0x02, 0x00,
  0xa0, 0x3f, 0x02, 0x00, 0x38, 0x3f, 0x02, 0x00, 0xe0, 0x3e, 0x02, 0x00,
  0x7c, 0x3e, 0x02, 0x00, 0x14, 0x3e, 0x02, 0x00, 0xa8, 0x3d, 0x02, 0x00,
  0x3c, 0x3d, 0x02, 0x00, 0xe4, 0x3c, 0x02, 0x00, 0x88, 0x3c, 0x02, 0x00,
  0x24, 0x3c, 0x02, 0x00, 0xc0, 0x3b, 0x02, 0x00, 0x58, 0x3b, 0x02, 0x00,
  0x00, 0x3b, 0x02, 0x00, 0x98, 0x3a, 0x02, 0x00, 0x34, 0x3a, 0x02, 0x00,
  0xd0, 0x39, 0x02, 0x00, 0x78, 0x39, 0x02, 0x00, 0x10, 0x39, 0x02, 0x00,
  0xc4, 0x38, 0x02, 0x00, 0x6c, 0x38, 0x02, 0x00, 0x48, 0x38, 0x02, 0x00,
  0xe0, 0x37, 0x02, 0x00, 0x88, 0x37, 0x02, 0x00, 0x2c, 0x37, 0x02, 0x00,
  0xc8, 0x36, 0x02, 0x00, 0x6c, 0x36, 0x02, 0x00, 0x08, 0x36, 0x02, 0x00,
  0xa0, 0x35, 0x02, 0x00, 0x40, 0x35, 0x02, 0x00, 0xd8, 0x34, 0x02, 0x00,
  0x80, 0x34, 0x02, 0x00, 0x1c, 0x34, 0x02, 0x00, 0xb8, 0x33, 0x02, 0x00,
  0x54, 0x33, 0x02, 0x00, 0x24, 0x33, 0x02, 0x00, 0xcc, 0x32, 0x02, 0x00,
  0x64, 0x32, 0x02, 0x00, 0x04, 0x32, 0x02, 0x00, 0x9c, 0x31, 0x02, 0x00,
  0x38, 0x31, 0x02, 0x00, 0x19, 0x00, 0x00, 0x00, 0x04, 0x31, 0x02, 0x00,
  0xa4, 0x30, 0x02, 0x00, 0x50, 0x30, 0x02, 0x00, 0xfc, 0x2f, 0x02, 0x00,
  0xc8, 0x2f, 0x02, 0x00, 0x78, 0x2f, 0x02, 0x00, 0x34, 0x2f, 0x02, 0x00,
  0xf0, 0x2e, 0x02, 0x00, 0xac, 0x2e, 0x02, 0x00, 0x68, 0x2e, 0x02, 0x00,
  0x24, 0x2e, 0x02, 0x00, 0xe0, 0x2d, 0x02, 0x00, 0x9c, 0x2d, 0x02, 0x00,
  0x58, 0x2d, 0x02, 0x00, 0x14, 0x2d, 0x02, 0x00, 0xd0, 0x2c, 0x02, 0x00,
  0x8c, 0x2c, 0x02, 0x00, 0x48, 0x2c, 0x02, 0x00, 0x04, 0x2c, 0x02, 0x00,
  0xb0, 0x2b, 0x02, 0x00, 0x6c, 0x2b, 0x02, 0x00, 0x20, 0x2b, 0x02, 0x00,
  0xe8, 0x2a, 0x02, 0x00, 0xb8, 0x2a, 0x02, 0x00, 0x84, 0x2a, 0x02, 0x00,
  0x01, 0x00, 0x00, 0x00, 0x22, 0x00, 0x00, 0x00, 0x01, 0x00, 0x00, 0x00,
  0x05, 0x00, 0x00, 0x00, 0xd2, 0xd4, 0xfd, 0xff, 0x04, 0x00, 0x00, 0x00,
  0xa5, 0x21, 0x00, 0x00, 0x7c, 0xaf, 0x85, 0x62, 0x82, 0x68, 0x81, 0x7f,
  0x60, 0x88, 0x81, 0x68, 0x7d, 0x7f, 0x7d, 0x62, 0x67, 0x7d, 0x65, 0x4b,
  0x84, 0x63, 0x7c, 0x7f, 0x7d, 0x7f, 0x85, 0x66, 0x7f, 0x6c, 0xb0, 0x7f,
  0x84, 0x7d, 0x7f, 0x6f, 0x82, 0x81, 0x63, 0x7d, 0x7d, 0x7f, 0x82, 0x81,
  0x7d, 0x7e, 0x64, 0x7e, 0x5c, 0x5f, 0x7f, 0x63, 0xa8, 0x82, 0x7f, 0x7d,
  0x7e, 0x7d, 0x9f, 0x8a, 0x84, 0x7d, 0x81, 0x83, 0x7b, 0x85, 0x7d, 0x50,
  0x5f, 0x81, 0x81, 0x81, 0x65, 0x5c, 0x94, 0x82, 0x81, 0x7c, 0x7d, 0x7e,
  0x7c, 0x81, 0x80, 0xb5, 0x7e, 0x7b, 0x83, 0x66, 0x91, 0x98, 0x68, 0xad,
  0x8a, 0x97, 0x81, 0x7f, 0x83, 0x7e, 0x82, 0x7e, 0x83, 0x83, 0x80, 0x84,
  0x7c, 0x69, 0x66, 0x63, 0x87, 0x66, 0x65, 0x62, 0x7f, 0x7c, 0x7f, 0x85,
  0x7b, 0x81, 0x7c, 0x83, 0x65, 0x7e, 0x80, 0x7f, 0x80, 0x84, 0x64, 0x7e,
  0x6c, 0x7f, 0x7d, 0x7f, 0x7d, 0x54, 0xb7, 0x85, 0x83, 0x7b, 0x7d, 0x7c,
  0x7c, 0x81, 0x7f, 0x81, 0x7f, 0x5b, 0x7c, 0x62, 0x85, 0x90, 0x81, 0xad,
  0x65, 0x7b, 0x7e, 0x80, 0x7e, 0x7b, 0x89, 0x82, 0x7c, 0x80, 0xa0, 0x79,
  0x97, 0x9f, 0x63, 0x9f, 0x83, 0x82, 0x80, 0x7b, 0x7c, 0x7b, 0x80, 0x7e,
  0x80, 0x7d, 0x7e, 0x7d, 0x95, 0x69, 0xaa, 0x7e, 0x9b, 0x6e, 0x7f, 0x7e,
  0xb2, 0x82, 0x79, 0x87, 0x95, 0x7e, 0x7e, 0x7f, 0x7c, 0x82, 0x7f, 0x85,
  0x86, 0x80, 0x89, 0x9c, 0x66, 0x67, 0x7c, 0x83, 0x68, 0x5c, 0x63, 0x80,
  0x7c, 0x7f, 0x67, 0x80, 0x82, 0x99, 0x81, 0x82, 0x80, 0x80, 0x6a, 0x86,
  0x86, 0x69, 0x82, 0x7e, 0x7e, 0x82, 0x82, 0x7d, 0xa5, 0xb1, 0x87, 0x8b,
  0x81, 0x7e, 0x7f, 0x7b, 0x7e, 0x7f, 0x7d, 0x6b, 0x61, 0x7b, 0x63, 0x86,
  0x7e, 0x81, 0x62, 0x81, 0x7d, 0x7e, 0x80, 0x7f, 0x7b, 0x8b, 0x81, 0x7f,
  0x7d, 0x81, 0x7d, 0x85, 0x7e, 0x87, 0x9b, 0x81, 0x6e, 0x84, 0x7e, 0xb3,
  0x79, 0x7e, 0x7f, 0x7e, 0x81, 0x7f, 0x7d, 0x80, 0x82, 0x80, 0x7b, 0x5c,
  0x80, 0x7d, 0x7e, 0x9b, 0x7f, 0x5c, 0x83, 0x7e, 0x81, 0x7c, 0x7f, 0x7e,
  0x80, 0x7e, 0x7f, 0x80, 0x7f, 0x7f, 0x81, 0x81, 0x82, 0x71, 0x90, 0x81,
  0x80, 0x7e, 0x6a, 0x65, 0x7f, 0x98, 0x60, 0x80, 0x81, 0x80, 0x7f, 0x7f,
  0x81, 0x80, 0x33, 0x97, 0x82, 0x82, 0x80, 0x85, 0x82, 0x80, 0x8e, 0x7f,
  0x82, 0x81, 0x7f, 0x84, 0x82, 0xa2, 0x82, 0x97, 0x82, 0x81, 0x7f, 0x69,
  0x83, 0x7e, 0x82, 0x82, 0x81, 0x92, 0x81, 0x7e, 0x80, 0x81, 0x7f, 0x40,
  0x7e, 0x82, 0x83, 0x80, 0x83, 0x83, 0x81, 0x8f, 0x92, 0x94, 0x81, 0x7f,
  0x85, 0x82, 0x94, 0x81, 0x81, 0x82, 0x90, 0x81, 0x6f, 0x6f, 0x80, 0x6f,
  0x6f, 0x82, 0x82, 0x81, 0x7f, 0x80, 0x82, 0x7c, 0x61, 0x81, 0x82, 0x82,
  0x80, 0x73, 0x84, 0x80, 0xa4, 0x80, 0x7e, 0x7f, 0x64, 0x6b, 0x68, 0x66,
  0x82, 0x7e, 0x81, 0x7e, 0x80, 0x5f, 0x61, 0x7e, 0x7f, 0x7f, 0x80, 0x81,
  0x7f, 0x96, 0x92, 0x80, 0x7f, 0x6b, 0x7e, 0x80, 0x80, 0x7f, 0x70, 0x6e,
  0x80, 0xa9, 0x6e, 0x81, 0x81, 0x59, 0x4d, 0x92, 0x82, 0x84, 0x83, 0x80,
  0x80, 0x7f, 0x60, 0x81, 0x7d, 0x80, 0x80, 0x82, 0x80, 0x7e, 0x7f, 0x93,
  0x6d, 0x7e, 0x80, 0x7e, 0x6c, 0x81, 0x81, 0x9a, 0x81, 0x80, 0x97, 0x80,
  0x82, 0x6b, 0x50, 0x52, 0x82, 0x82, 0x82, 0x81, 0x80, 0x7d, 0xa1, 0x65,
  0x6f, 0x7f, 0x7f, 0x7f, 0x84, 0x6b, 0x7f, 0x6e, 0x82, 0x53, 0x7c, 0x80,
  0x64, 0x83, 0x6b, 0x81, 0x82, 0x84, 0x6d, 0xad, 0x7b, 0x67, 0x7e, 0x80,
  0x6d, 0x86, 0x58, 0x7f, 0x7e, 0x82, 0x80, 0x7f, 0x68, 0x6d, 0x62, 0x94,
  0x92, 0x81, 0x80, 0x80, 0x7e, 0x7f, 0x7f, 0x81, 0xb0, 0x7d, 0x7f, 0x82,
  0x7e, 0x84, 0x7f, 0x7e, 0xac, 0x7b, 0x80, 0x80, 0x81, 0x71, 0x8a, 0x81,
  0x80, 0x83, 0x83, 0x6d, 0x7e, 0x5e, 0x94, 0x7e, 0x7e, 0x8e, 0x82, 0x99,
  0x7f, 0x80, 0x81, 0x7f, 0x80, 0x96, 0x7e, 0x6a, 0x84, 0x6b, 0xa7, 0x80,
  0x7e, 0x7e, 0x7b, 0x81, 0x7f, 0x81, 0x81, 0x8b, 0x69, 0x80, 0x6d, 0x82,
  0x7f, 0xa6, 0x69, 0x81, 0x7f, 0x7d, 0x7a, 0x85, 0x66, 0x81, 0x7f, 0x9b,
  0x60, 0x66, 0x93, 0xa0, 0x81, 0x63, 0x6e, 0x84, 0x6f, 0x6a, 0x80, 0x83,
  0x84, 0x7e, 0x68, 0x7f, 0x7c, 0x83, 0x83, 0x64, 0x80, 0x82, 0x82, 0x81,
  0x7f, 0x43, 0x6b, 0x6e, 0x82, 0x84, 0x86, 0x7a, 0x80, 0x81, 0xae, 0x9c,
  0x6a, 0x80, 0x7b, 0x80, 0x90, 0x82, 0x83, 0x81, 0x82, 0x81, 0x7f, 0x7d,
  0x7c, 0x7f, 0x84, 0x82, 0x81, 0x95, 0x80, 0x73, 0x81, 0x95, 0x67, 0x6f,
  0x69, 0x80, 0x82, 0x6b, 0x7c, 0x82, 0x80, 0xa2, 0x7f, 0x7f, 0x82, 0x7f,
  0x80, 0x7d, 0x82, 0x82, 0x81, 0x95, 0x6b, 0x7e, 0x7d, 0x81, 0x7f, 0x82,
  0x84, 0x81, 0x93, 0x93, 0x5c, 0x7b, 0x7a, 0x83, 0x81, 0x55, 0x81, 0xa3,
  0xaa, 0x7f, 0x82, 0x81, 0x84, 0x50, 0x68, 0x82, 0x7f, 0x80, 0x54, 0x80,
  0x82, 0x82, 0x82, 0x83, 0x80, 0x63, 0x7f, 0x7e, 0x81, 0x82, 0x6d, 0x7f,
  0x7e, 0x58, 0x81, 0x7e, 0x3d, 0x85, 0x7b, 0x6e, 0x95, 0x89, 0x7b, 0x7f,
  0x80, 0x85, 0x81, 0x81, 0x81, 0x80, 0x80, 0x80, 0x7e, 0x82, 0x82, 0x83,
  0x80, 0x81, 0x6d, 0x84, 0x81, 0xa2, 0x80, 0x7f, 0x80, 0x7c, 0x84, 0x81,
  0x81, 0x65, 0x83, 0x6a, 0x6c, 0x91, 0x84, 0x7b, 0x82, 0x81, 0x9a, 0x92,
  0x7f, 0x80, 0x80, 0x7f, 0x7e, 0x66, 0x82, 0x82, 0x7f, 0x5f, 0x7f, 0x7e,
  0x85, 0x82, 0x82, 0x83, 0x83, 0xb1, 0x98, 0x5e, 0xb6, 0x7e, 0x6e, 0x82,
  0x5a, 0x81, 0x7e, 0xb1, 0x80, 0x6e, 0x80, 0x84, 0xa3, 0x7d, 0x82, 0x80,
  0x7f, 0x5c, 0x5f, 0x81, 0x80, 0x99, 0x83, 0x80, 0x6a, 0x7c, 0x79, 0x80,
  0x81, 0x6d, 0x7e, 0x7e, 0x84, 0x99, 0x7c, 0x3d, 0x85, 0x80, 0x68, 0x82,
  0x9a, 0x80, 0x80, 0x66, 0x82, 0x6f, 0x81, 0x7e, 0x7d, 0x81, 0x91, 0x7f,
  0x6e, 0x81, 0x87, 0x80, 0x80, 0x6e, 0x80, 0x78, 0x9b, 0x7f, 0x7e, 0x7d,
  0x79, 0x83, 0x7f, 0x7e, 0x65, 0x83, 0x82, 0x64, 0x84, 0x81, 0x7a, 0x80,
  0x81, 0x7d, 0x68, 0x81, 0x7e, 0x90, 0x7f, 0x7b, 0x80, 0x83, 0x81, 0x84,
  0x69, 0x6b, 0x6b, 0x70, 0x7b, 0x7e, 0x81, 0x82, 0xa2, 0x9e, 0x81, 0x7d,
  0x61, 0x84, 0x81, 0x6a, 0x6b, 0x5f, 0x9b, 0xa1, 0x7f, 0x81, 0x94, 0xc5,
  0x7d, 0x7f, 0x7c, 0x7e, 0x5e, 0x65, 0x80, 0x81, 0x7f, 0x6c, 0x7f, 0x7f,
  0x81, 0x7f, 0x80, 0x82, 0x7f, 0x70, 0x99, 0x7e, 0x81, 0x81, 0x7f, 0x6f,
  0x86, 0x7b, 0x81, 0x7d, 0x98, 0x82, 0x81, 0x7e, 0x6b, 0x82, 0x82, 0x81,
  0x84, 0x81, 0x81, 0x83, 0x81, 0x7e, 0x83, 0x7e, 0x6d, 0x7f, 0x6d, 0x80,
  0x83, 0x69, 0x73, 0x82, 0x81, 0x7f, 0x7e, 0x80, 0x6e, 0x74, 0x7c, 0x82,
  0x7e, 0x82, 0x82, 0x81, 0x7e, 0x82, 0x82, 0x82, 0x80, 0x82, 0x82, 0x80,
  0x83, 0x81, 0x7f, 0x82, 0x7f, 0x66, 0x7e, 0x64, 0x73, 0x82, 0x7f, 0x80,
  0x83, 0x68, 0x82, 0x80, 0x71, 0x6e, 0x73, 0x6d, 0x7f, 0x80, 0x81, 0x81,
  0x80, 0x7e, 0x57, 0x83, 0x80, 0x80, 0x82, 0x83, 0x6d, 0x83, 0x81, 0x7c,
  0x9e, 0x7f, 0x5b, 0x9f, 0x7f, 0x81, 0x93, 0x7c, 0x61, 0x82, 0x7e, 0x81,
  0x80, 0x81, 0x7e, 0x81, 0x88, 0x70, 0x66, 0x7d, 0x97, 0x7f, 0x6d, 0x7e,
  0x7f, 0x85, 0x71, 0x84, 0x6d, 0x92, 0x81, 0x81, 0x7b, 0xad, 0x7e, 0x5f,
  0x7e, 0x7f, 0x71, 0x85, 0x69, 0x63, 0x82, 0x72, 0x80, 0x7f, 0x82, 0x7f,
  0x7f, 0x7a, 0x81, 0x7f, 0x7f, 0x81, 0x7f, 0x81, 0x6f, 0x92, 0x95, 0x7f,
  0x83, 0x6d, 0x81, 0x81, 0x82, 0x7c, 0x98, 0x7e, 0x61, 0x7e, 0x80, 0x6a,
  0x83, 0x7f, 0x66, 0x83, 0x6a, 0x82, 0x80, 0x7f, 0x81, 0x7f, 0x7d, 0x7e,
  0x80, 0x7f, 0x81, 0x7e, 0x98, 0x70, 0x80, 0x80, 0x7f, 0x81, 0x7f, 0x82,
  0x82, 0x80, 0x82, 0x83, 0x7d, 0x80, 0x7e, 0x7e, 0x83, 0x82, 0x7f, 0x7e,
  0x80, 0x7e, 0x83, 0x80, 0x9b, 0x81, 0x83, 0x7b, 0x6c, 0x7f, 0x6e, 0x7f,
  0x7f, 0x7e, 0x7e, 0x7f, 0x83, 0x7d, 0x82, 0x80, 0x98, 0x72, 0x80, 0x80,
  0x82, 0x7c, 0x80, 0x7e, 0x7e, 0x82, 0x83, 0x83, 0x7e, 0x80, 0x82, 0x82,
  0x7e, 0x84, 0x7f, 0x82, 0x7d, 0x95, 0x7f, 0x72, 0x7f, 0x80, 0x8e, 0x62,
  0x7d, 0x81, 0x7d, 0x80, 0x83, 0x80, 0x82, 0x81, 0x81, 0x80, 0x7e, 0x80,
  0x80, 0x80, 0xc3, 0x82, 0x82, 0x7f, 0x7f, 0x82, 0x82, 0x7f, 0x63, 0x81,
  0x83, 0x80, 0x59, 0x81, 0x7e, 0x80, 0x7f, 0xb8, 0x70, 0x80, 0x80, 0x7e,
  0x7f, 0x94, 0x81, 0x82, 0x7f, 0x83, 0x7e, 0x82, 0x80, 0x81, 0x78, 0x69,
  0x82, 0x80, 0x7c, 0x81, 0x82, 0x83, 0x78, 0x7e, 0x81, 0x7f, 0x80, 0x91,
  0x84, 0x80, 0x7f, 0x7e, 0x83, 0x82, 0x7d, 0x7f, 0x7e, 0x7f, 0xcd, 0x80,
  0x81, 0x81, 0x81, 0x7c, 0x82, 0x80, 0x2b, 0x7d, 0x9e, 0x67, 0x80, 0x7e,
  0x61, 0x84, 0x7c, 0x7e, 0x82, 0x66, 0xa2, 0x83, 0x7e, 0x7c, 0x83, 0x9b,
  0x7e, 0x81, 0x7b, 0x7e, 0x7e, 0x7e, 0x7f, 0xa6, 0x83, 0x5f, 0x84, 0x80,
  0x82, 0x7d, 0x7c, 0x5e, 0x78, 0x86, 0x82, 0x66, 0x7e, 0x7c, 0x68, 0x96,
  0x7c, 0x87, 0x61, 0x89, 0x80, 0xa3, 0x7f, 0x5d, 0x81, 0x7e, 0x84, 0x83,
  0x84, 0x7f, 0x60, 0x80, 0x84, 0x66, 0x7c, 0x83, 0x7f, 0x7d, 0x7e, 0x9b,
  0x7f, 0x76, 0x67, 0x81, 0x9f, 0x80, 0x64, 0x7e, 0xa4, 0x92, 0x7d, 0x80,
  0x4e, 0x7e, 0x7b, 0x7e, 0x7c, 0x80, 0x80, 0xad, 0x85, 0x7e, 0x81, 0x7e,
  0x80, 0xb3, 0x81, 0x80, 0x81, 0x7c, 0x7c, 0x81, 0x7b, 0x41, 0x98, 0x56,
  0x56, 0x7b, 0x5d, 0x7e, 0x7d, 0x7d, 0x9f, 0x83, 0x64, 0xad, 0x81, 0x7a,
  0x60, 0x81, 0x81, 0x80, 0x7c, 0x7b, 0x98, 0x80, 0x7b, 0x80, 0x82, 0x82,
  0x60, 0x81, 0x7e, 0x83, 0x7b, 0x76, 0x4a, 0x9e, 0x82, 0x80, 0x7b, 0x7b,
  0x7d, 0x7f, 0x7d, 0x9d, 0x85, 0x81, 0xd5, 0x81, 0xa4, 0x60, 0x7e, 0x84,
  0x7f, 0x7b, 0x7f, 0x87, 0x80, 0x5a, 0x81, 0x61, 0x83, 0x7b, 0x81, 0x7f,
  0x81, 0x80, 0x80, 0xb4, 0x61, 0x7e, 0x80, 0x7c, 0x67, 0x64, 0x98, 0x81,
  0x79, 0x7c, 0x7e, 0x5c, 0x7c, 0x7c, 0x7f, 0x7f, 0x7e, 0x7f, 0x99, 0xac,
  0x7e, 0x82, 0x80, 0x80, 0x7f, 0x80, 0x7e, 0x81, 0x7d, 0x7d, 0x7f, 0x63,
  0x7a, 0x7e, 0x54, 0x5a, 0x7d, 0x57, 0x7d, 0x81, 0x7c, 0x7c, 0x82, 0x7c,
  0x6b, 0x7e, 0x7d, 0x79, 0x83, 0x80, 0x7f, 0x81, 0x52, 0x7e, 0x7f, 0x7b,
  0x80, 0x56, 0x80, 0x75, 0x82, 0x9b, 0x81, 0x7e, 0x62, 0x4a, 0x7b, 0xa1,
  0x7e, 0x7c, 0x7e, 0x9b, 0x80, 0x7a, 0x79, 0x9d, 0x7d, 0x82, 0x80, 0x7f,
  0x7c, 0x86, 0x84, 0x7f, 0x7d, 0x7d, 0x85, 0x7d, 0x7c, 0x80, 0x67, 0x7e,
  0x7a, 0x9d, 0x82, 0x80, 0x59, 0x5e, 0x7c, 0x7b, 0x7d, 0x82, 0x86, 0x79,
  0x7f, 0x7d, 0x5d, 0x7d, 0x83, 0x80, 0x69, 0x81, 0x7f, 0x85, 0x83, 0x7f,
  0x7f, 0x7f, 0xac, 0x81, 0x80, 0x7a, 0x7c, 0x7f, 0x7e, 0x5d, 0x7f, 0x81,
  0x7d, 0x7d, 0x67, 0x80, 0x74, 0x7c, 0x82, 0x80, 0x79, 0x7f, 0x5d, 0x61,
  0x56, 0x81, 0x60, 0x82, 0x7f, 0x9d, 0xa0, 0x5c, 0x7e, 0x80, 0x82, 0x80,
  0x82, 0x83, 0x78, 0x7f, 0x80, 0x80, 0x80, 0x98, 0x64, 0x7f, 0x7e, 0x64,
  0x58, 0x73, 0xb1, 0x82, 0x83, 0x7c, 0x7f, 0x7a, 0x5c, 0x7b, 0x49, 0x7d,
  0x85, 0x7d, 0xa0, 0x83, 0x7e, 0x7f, 0x7e, 0x82, 0x52, 0x7f, 0x9f, 0x7b,
  0x81, 0xad, 0x7f, 0x7e, 0x83, 0x83, 0x7d, 0x65, 0x66, 0x81, 0x7f, 0x5b,
  0x7d, 0x83, 0x7f, 0x7b, 0x7f, 0x5f, 0x7d, 0x82, 0x81, 0x50, 0x83, 0x57,
  0x84, 0x84, 0x81, 0x7f, 0x60, 0xb1, 0x7e, 0x7e, 0x7f, 0x7c, 0x82, 0x7e,
  0x7d, 0x67, 0x86, 0x7e, 0x98, 0x7d, 0x7e, 0x7a, 0x7c, 0x7d, 0x7e, 0x97,
  0x7c, 0x59, 0x80, 0x56, 0x81, 0x68, 0x7c, 0x82, 0x7f, 0x85, 0x83, 0x81,
  0x7e, 0x83, 0x63, 0x83, 0x81, 0x80, 0x7f, 0x5c, 0x69, 0x7e, 0xa9, 0x59,
  0x80, 0x7c, 0x7b, 0x7d, 0x7e, 0x7e, 0x7e, 0x81, 0x81, 0x7b, 0xb2, 0x66,
  0x7b, 0x83, 0x7f, 0x66, 0x7c, 0x65, 0x6e, 0x82, 0x7f, 0x7d, 0x85, 0x62,
  0x6b, 0x88, 0x62, 0x7f, 0x80, 0x5b, 0x7d, 0x84, 0x82, 0x96, 0x68, 0x81,
  0x7f, 0x7a, 0x59, 0x7d, 0x81, 0x79, 0x7f, 0x82, 0x65, 0x7d, 0x80, 0x7f,
  0x5b, 0x80, 0x84, 0x83, 0x79, 0x83, 0x7f, 0x6c, 0xa5, 0x84, 0x7c, 0x5e,
  0x7c, 0x7f, 0x7e, 0x7e, 0x80, 0x99, 0x82, 0xa3, 0x84, 0x7f, 0x73, 0x7e,
  0x7d, 0x7e, 0x95, 0x83, 0x80, 0x82, 0x5c, 0x83, 0x7f, 0x82, 0x7f, 0x67,
  0x81, 0x9a, 0x83, 0x7e, 0x83, 0x7d, 0x8a, 0x80, 0x7a, 0x7f, 0x50, 0x7f,
  0x7f, 0x95, 0x81, 0x84, 0x7e, 0x80, 0x7e, 0x75, 0x7e, 0x7d, 0x85, 0x78,
  0x7f, 0x7c, 0x59, 0x7d, 0x83, 0x7e, 0x85, 0x7a, 0x7e, 0x83, 0x7b, 0x81,
  0x9b, 0x84, 0x9f, 0x89, 0x85, 0x7b, 0x7f, 0x82, 0x7d, 0x7c, 0x65, 0x80,
  0x81, 0x80, 0x7e, 0x7c, 0x65, 0x6b, 0x6c, 0x81, 0x7f, 0x83, 0xaf, 0x7f,
  0x66, 0xcb, 0x94, 0x98, 0x7e, 0x81, 0x7f, 0x80, 0x7f, 0x7f, 0x66, 0x72,
  0xa9, 0x7f, 0x6c, 0x7f, 0x7e, 0x85, 0x85, 0x82, 0x7e, 0x87, 0x7e, 0x7d,
  0x81, 0x7a, 0x9d, 0x81, 0x85, 0x7f, 0x7f, 0x7d, 0x7f, 0x6c, 0x8e, 0x7e,
  0x80, 0x7c, 0x6a, 0x81, 0x7e, 0x7c, 0x7f, 0x81, 0x81, 0x7f, 0x80, 0x81,
  0x7e, 0x83, 0x87, 0x84, 0x84, 0x6e, 0x86, 0x83, 0x7e, 0x80, 0x7b, 0x84,
  0x81, 0x82, 0x70, 0x7f, 0x82, 0x7e, 0x60, 0x87, 0x62, 0x85, 0x81, 0x61,
  0x62, 0x7e, 0x7f, 0x7e, 0x82, 0x7d, 0x89, 0x7e, 0x6b, 0x7d, 0x82, 0x6a,
  0x84, 0x6e, 0x7c, 0x9e, 0x83, 0x83, 0x7e, 0x7c, 0x7c, 0x80, 0x81, 0x80,
  0x82, 0x96, 0x7e, 0x7b, 0xff, 0x7e, 0x83, 0x83, 0x80, 0x79, 0x80, 0x7f,
  0x93, 0x80, 0x65, 0xb6, 0x84, 0x81, 0x82, 0x5c, 0xa7, 0x82, 0x7f, 0x7c,
  0x8a, 0x7d, 0x81, 0x80, 0x95, 0x7e, 0x7d, 0x86, 0x82, 0x80, 0x6e, 0x80,
  0x7d, 0x94, 0x7c, 0x81, 0x6f, 0x81, 0x7a, 0x7e, 0x7d, 0x7e, 0x81, 0x82,
  0x88, 0x84, 0x84, 0x7f, 0x81, 0x91, 0x7e, 0x82, 0x68, 0x87, 0x84, 0x6b,
  0x85, 0x82, 0x6d, 0x7d, 0x83, 0x6f, 0x7f, 0x84, 0x7d, 0x69, 0x9b, 0x69,
  0x9c, 0x71, 0x96, 0x77, 0x69, 0x8f, 0x7f, 0x83, 0x7a, 0x8e, 0x82, 0x83,
  0x7f, 0x82, 0x82, 0x82, 0x80, 0x97, 0x9e, 0x82, 0x87, 0x7b, 0x7f, 0x98,
  0x80, 0x81, 0x7f, 0x83, 0x82, 0x7d, 0x7c, 0xbd, 0x8b, 0x7e, 0x7f, 0x68,
  0x7b, 0x81, 0x80, 0x8e, 0x7f, 0x4c, 0xa6, 0x81, 0x7c, 0x80, 0x4f, 0x9d,
  0x7b, 0x81, 0x82, 0x8b, 0x7d, 0x71, 0x80, 0x9e, 0x9d, 0x7e, 0x85, 0x7f,
  0x83, 0x81, 0x80, 0x7f, 0x78, 0x79, 0x7f, 0x7b, 0x7c, 0x7b, 0x91, 0x7e,
  0x81, 0x81, 0x6c, 0x87, 0x82, 0x7e, 0x80, 0x80, 0x7c, 0x6e, 0x82, 0x83,
  0x86, 0x83, 0x71, 0x83, 0x7e, 0x7f, 0x7d, 0x71, 0x7d, 0x80, 0x86, 0x7e,
  0x65, 0x84, 0x7b, 0x81, 0x82, 0x71, 0x7a, 0x7b, 0x7d, 0x81, 0x81, 0x77,
  0x90, 0x80, 0x7b, 0x80, 0x82, 0x7e, 0x81, 0x83, 0x80, 0x7e, 0x7d, 0x7d,
  0x7e, 0x78, 0x7d, 0x7b, 0x7c, 0x7d, 0x92, 0x81, 0x7e, 0x7d, 0x7e, 0x5d,
  0x88, 0x7c, 0x82, 0x63, 0xaa, 0x82, 0x80, 0x7e, 0x68, 0x7b, 0x7c, 0x69,
  0x7f, 0x7e, 0x84, 0x81, 0x82, 0x80, 0x5e, 0x7b, 0x7e, 0x7e, 0x7b, 0x7f,
  0x7f, 0x7e, 0x7d, 0xa4, 0x80, 0x97, 0x81, 0x7b, 0x65, 0x87, 0x7c, 0x7b,
  0x81, 0xac, 0x81, 0x80, 0x80, 0x81, 0x62, 0x7a, 0x60, 0x9b, 0x7f, 0x87,
  0x7f, 0x82, 0x80, 0x66, 0x7d, 0x7c, 0x7d, 0x83, 0x7f, 0x81, 0x7e, 0x7d,
  0xa1, 0x81, 0x9a, 0x6b, 0x80, 0x80, 0x82, 0x7e, 0x6a, 0x85, 0x88, 0x7e,
  0x97, 0x7f, 0x81, 0x79, 0x9e, 0x7d, 0x83, 0x67, 0x88, 0x81, 0x83, 0x7f,
  0x96, 0x7c, 0x7f, 0x7e, 0x7f, 0x81, 0x7e, 0x7a, 0x7e, 0x7d, 0x80, 0x7e,
  0x7b, 0x7d, 0x62, 0x85, 0x7a, 0x64, 0x7d, 0x7c, 0xa4, 0x66, 0x7d, 0x81,
  0x7b, 0x7c, 0x7e, 0x7f, 0x7f, 0x84, 0x7f, 0x83, 0x7f, 0x7f, 0x7d, 0x80,
  0x69, 0x7e, 0x82, 0x81, 0x7c, 0x7e, 0x81, 0x7f, 0x7f, 0x7d, 0x7a, 0x63,
  0x85, 0x7b, 0x7d, 0x7a, 0x8f, 0x81, 0x80, 0x7d, 0x96, 0x7a, 0x7b, 0x81,
  0x82, 0x7f, 0x85, 0x69, 0x81, 0x7f, 0x81, 0x7f, 0x80, 0x68, 0x83, 0x81,
  0x83, 0x7d, 0x7e, 0x83, 0x7f, 0xa1, 0x66, 0x7d, 0x69, 0x80, 0x7d, 0x55,
  0x7f, 0x6a, 0x80, 0x80, 0x7d, 0x84, 0x79, 0x9b, 0x81, 0x82, 0x7b, 0x82,
  0x7c, 0x83, 0x7e, 0x83, 0x7e, 0x80, 0x7e, 0x7d, 0x7e, 0x81, 0x7c, 0x7f,
  0x7d, 0x7e, 0x7e, 0x8e, 0x7a, 0x7c, 0x85, 0x7b, 0x82, 0x7e, 0x90, 0x9c,
  0x69, 0x7f, 0x6a, 0x80, 0x6d, 0x80, 0x7e, 0x82, 0x83, 0x7d, 0x81, 0x7f,
  0x84, 0x7c, 0x6c, 0x7c, 0x7d, 0x6c, 0x84, 0x69, 0x7f, 0x81, 0x7f, 0x7d,
  0x7d, 0x78, 0x6b, 0x87, 0x7a, 0x83, 0x7e, 0x94, 0x80, 0x81, 0x80, 0x9d,
  0x7f, 0x80, 0x84, 0x81, 0x83, 0x82, 0x7a, 0x80, 0x7f, 0x89, 0x80, 0x6b,
  0x7d, 0x83, 0x67, 0x85, 0x7f, 0x7f, 0x95, 0x80, 0x91, 0x82, 0x67, 0x7e,
  0x67, 0x7d, 0x83, 0x80, 0x6d, 0x80, 0x7f, 0x80, 0x83, 0x7d, 0x9c, 0x84,
  0x80, 0x7d, 0x82, 0x79, 0x66, 0x7e, 0x83, 0x7f, 0x7e, 0x7e, 0x80, 0x91,
  0x82, 0x80, 0x7f, 0x7b, 0x7c, 0x7f, 0x7b, 0x7a, 0x7f, 0x7f, 0x80, 0x82,
  0x7d, 0x7b, 0x80, 0x7f, 0x7d, 0x80, 0x7e, 0x7e, 0x80, 0x7f, 0x7c, 0x9b,
  0x80, 0x7f, 0x7f, 0x82, 0x80, 0x7f, 0x81, 0x7e, 0x98, 0x81, 0x82, 0x7e,
  0x7c, 0x7f, 0x96, 0x7f, 0x7d, 0x80, 0x81, 0x81, 0xa2, 0x60, 0x7a, 0x7f,
  0x80, 0x7e, 0x8f, 0x7f, 0x7c, 0x7f, 0x7d, 0x92, 0xa5, 0x93, 0x6f, 0x6e,
  0x86, 0x8b, 0x7c, 0x80, 0x81, 0xac, 0x9a, 0x6d, 0x7e, 0x92, 0x81, 0x7b,
  0x6d, 0x80, 0x81, 0x81, 0x81, 0x80, 0x66, 0x7f, 0x81, 0x7f, 0x7f, 0x97,
  0x7f, 0x7c, 0x7e, 0x81, 0x7e, 0xa1, 0x83, 0x60, 0x7e, 0x82, 0x7f, 0x7b,
  0x78, 0x88, 0x7f, 0x92, 0x8e, 0x7e, 0x7f, 0x6e, 0x80, 0x7d, 0x7c, 0x7d,
  0x79, 0x7e, 0x60, 0x7e, 0x7b, 0x80, 0x6a, 0x65, 0x6b, 0x7f, 0x80, 0x7a,
  0x81, 0x7c, 0x7d, 0x7c, 0x68, 0x7e, 0x7f, 0x81, 0x7c, 0x7d, 0x79, 0x96,
  0x99, 0x80, 0x7d, 0x7f, 0x7e, 0x90, 0x7f, 0x7c, 0x8f, 0x7c, 0x7e, 0x7d,
  0x7f, 0x7a, 0x7f, 0x65, 0x6c, 0x7c, 0x81, 0x7f, 0x69, 0x81, 0x7c, 0x90,
  0x8f, 0x66, 0x7e, 0x82, 0x8d, 0x7a, 0x7e, 0x8c, 0xa5, 0xa2, 0x7f, 0x7e,
  0x7e, 0x92, 0x7c, 0x6d, 0x7e, 0x82, 0x7d, 0x81, 0x65, 0x6a, 0x7e, 0x81,
  0x7c, 0x69, 0x70, 0x94, 0x80, 0x5d, 0x82, 0x80, 0x7f, 0x7f, 0x66, 0x81,
  0x7f, 0x7e, 0x82, 0x95, 0x88, 0x7d, 0x7f, 0x7c, 0x5f, 0x7e, 0x93, 0x82,
  0x7f, 0x6b, 0x7e, 0x7e, 0x7b, 0x7c, 0x7e, 0x80, 0x81, 0x7f, 0x69, 0x6f,
  0x7f, 0x7e, 0x6d, 0x80, 0x7d, 0x7d, 0x7a, 0x66, 0x81, 0x7f, 0x81, 0x82,
  0x80, 0x8c, 0x7c, 0x97, 0x7e, 0x68, 0x7e, 0x7c, 0x80, 0x82, 0x7b, 0x7f,
  0x7d, 0x8e, 0x7c, 0x7e, 0x6d, 0x7f, 0x7f, 0x6c, 0x7e, 0x82, 0x93, 0x67,
  0x7f, 0x7e, 0x7f, 0x7c, 0x6e, 0x83, 0x80, 0x90, 0x6c, 0x7f, 0xa5, 0x91,
  0x91, 0x7c, 0x6d, 0x7d, 0x81, 0x7c, 0x80, 0x69, 0x82, 0x80, 0x96, 0x64,
  0x7e, 0x65, 0x6f, 0x7d, 0x6a, 0x6c, 0x83, 0x7c, 0x64, 0x81, 0x80, 0x7d,
  0x7c, 0x7e, 0x80, 0x80, 0x81, 0x83, 0x65, 0x77, 0x82, 0x7f, 0x82, 0x83,
  0x67, 0x65, 0x81, 0x7f, 0x83, 0x7d, 0x5d, 0x83, 0x5c, 0x7a, 0x59, 0x81,
  0x82, 0x7a, 0x9c, 0x87, 0x97, 0x60, 0x7e, 0x64, 0x82, 0x87, 0x7e, 0x7f,
  0x81, 0x80, 0x85, 0x81, 0x5a, 0x7e, 0x7c, 0x83, 0x83, 0x5d, 0x7d, 0x80,
  0x7e, 0x80, 0x7e, 0x84, 0x84, 0x83, 0x7d, 0x7c, 0x81, 0x82, 0x7d, 0x82,
  0x83, 0x5c, 0x7f, 0x7c, 0xa2, 0x67, 0x83, 0xa8, 0x68, 0xd5, 0x83, 0x85,
  0x81, 0x75, 0x7f, 0x7e, 0x82, 0x82, 0x80, 0x7c, 0x67, 0x7f, 0x7e, 0x7f,
  0x86, 0x85, 0x81, 0x7d, 0x9b, 0x80, 0x81, 0x99, 0x7d, 0x84, 0x82, 0x7e,
  0x7d, 0xa7, 0x62, 0x82, 0x7f, 0x7e, 0x85, 0x82, 0x7d, 0x82, 0x74, 0x81,
  0x7e, 0x82, 0x81, 0x66, 0x82, 0x82, 0x7e, 0x80, 0x7e, 0x82, 0x6e, 0x80,
  0x7d, 0x7b, 0x7f, 0x80, 0x7e, 0x7e, 0x84, 0x80, 0x7e, 0x7e, 0x5c, 0x85,
  0x8b, 0x7e, 0x7f, 0x86, 0x62, 0x7c, 0x62, 0x75, 0x62, 0x65, 0x82, 0x80,
  0x62, 0x7d, 0x80, 0x7e, 0x7e, 0x82, 0x80, 0x5f, 0x9c, 0x80, 0x79, 0x80,
  0x80, 0x52, 0x57, 0x80, 0x5d, 0x7f, 0x7e, 0x84, 0x68, 0x59, 0x9e, 0x80,
  0x85, 0x83, 0x7e, 0x80, 0x71, 0x81, 0x7f, 0xa3, 0x80, 0x7e, 0x7e, 0x6c,
  0x7f, 0x64, 0x82, 0x82, 0x84, 0x4c, 0x7f, 0x4b, 0x80, 0x81, 0x7d, 0x64,
  0x82, 0x82, 0x7f, 0x80, 0x83, 0x53, 0x89, 0x81, 0x84, 0x88, 0x83, 0x81,
  0x83, 0x73, 0x83, 0x7c, 0x82, 0x7f, 0x7e, 0x82, 0x82, 0x80, 0x82, 0x80,
  0xa4, 0x86, 0x82, 0x7a, 0x9c, 0x81, 0x80, 0x7f, 0x80, 0x8b, 0x7e, 0x7e,
  0x7d, 0xac, 0x85, 0x89, 0x80, 0x87, 0x88, 0x68, 0x80, 0x83, 0x71, 0x82,
  0x7e, 0x82, 0x80, 0x7d, 0x81, 0x82, 0x81, 0x80, 0x6c, 0x84, 0x84, 0xb7,
  0x7e, 0x96, 0x82, 0x80, 0x58, 0x86, 0x8a, 0x7f, 0x65, 0x7e, 0x83, 0x82,
  0x71, 0x80, 0xaf, 0x5f, 0x82, 0x80, 0x82, 0x84, 0xb2, 0x7e, 0x85, 0x80,
  0x7e, 0x5c, 0x83, 0x7e, 0x7e, 0x82, 0x85, 0x83, 0x68, 0x7e, 0x55, 0x82,
  0x80, 0x7f, 0x51, 0x87, 0x80, 0x63, 0x7f, 0x5a, 0x82, 0x89, 0x70, 0x80,
  0x81, 0x7d, 0x7b, 0x82, 0x7d, 0x72, 0x80, 0x7e, 0x81, 0x7f, 0x80, 0x80,
  0x80, 0x7b, 0x7f, 0x99, 0x7b, 0x68, 0x7e, 0x7f, 0x82, 0x7e, 0x71, 0x7e,
  0x6e, 0x8d, 0x84, 0x81, 0x7d, 0x82, 0x81, 0x7e, 0x81, 0x81, 0x81, 0x7b,
  0x82, 0x7d, 0x80, 0x7f, 0x7d, 0x80, 0x80, 0x80, 0x7d, 0x81, 0x7f, 0x7f,
  0x98, 0x7c, 0x6f, 0x7f, 0x7f, 0x81, 0x7e, 0x80, 0x70, 0x81, 0x8c, 0x82,
  0x81, 0x7c, 0x81, 0x82, 0x7d, 0x81, 0x80, 0x7e, 0x7d, 0x86, 0x7f, 0x82,
  0x7f, 0x7e, 0x80, 0x80, 0x7d, 0x7e, 0x81, 0x8d, 0x91, 0x83, 0x7c, 0x6b,
  0x80, 0x7e, 0x81, 0x7e, 0x80, 0x70, 0x7f, 0x8b, 0x84, 0x80, 0x7b, 0x91,
  0x80, 0x64, 0x7d, 0x83, 0x7f, 0x7f, 0x73, 0x83, 0x84, 0x82, 0x7e, 0x74,
  0x7b, 0x80, 0x80, 0x7f, 0x89, 0x80, 0x8b, 0x7f, 0x90, 0x7c, 0x7a, 0x81,
  0x80, 0x6a, 0x80, 0x67, 0x80, 0x75, 0x7d, 0x81, 0x9b, 0x7e, 0x69, 0x7c,
  0x82, 0x81, 0x7e, 0x82, 0x82, 0x81, 0x82, 0x7c, 0x72, 0x8c, 0x81, 0x8d,
  0x7d, 0x7e, 0x7f, 0x7e, 0x80, 0x82, 0x7c, 0x7e, 0x81, 0x7f, 0x71, 0x81,
  0x69, 0x80, 0x83, 0x7f, 0x80, 0xa1, 0x7e, 0x72, 0x7d, 0x80, 0x7d, 0x7e,
  0x82, 0x8f, 0x83, 0x83, 0x7d, 0x83, 0x92, 0x7e, 0x7f, 0x7e, 0x79, 0x81,
  0x7d, 0x7e, 0x82, 0x7d, 0x7f, 0x81, 0x81, 0x7e, 0x81, 0x69, 0x7f, 0x83,
  0x90, 0x8c, 0xa6, 0x8d, 0x6f, 0x81, 0x95, 0x80, 0x81, 0x7b, 0x89, 0x80,
  0x82, 0x7f, 0x81, 0x7f, 0x82, 0x7f, 0x7d, 0x7c, 0x7e, 0x7d, 0x7e, 0x80,
  0x7c, 0x7e, 0x7f, 0x80, 0x80, 0x6e, 0x94, 0x92, 0x67, 0x94, 0x80, 0x82,
  0x7d, 0x6e, 0x81, 0x8d, 0x82, 0x80, 0x77, 0x86, 0x7f, 0x82, 0x7e, 0x7f,
  0x81, 0x6f, 0x8a, 0x7c, 0x6e, 0x7d, 0x72, 0x7e, 0x82, 0x7d, 0x80, 0x80,
  0x80, 0x7f, 0x7c, 0x83, 0x80, 0x7d, 0x82, 0x7e, 0x81, 0x7d, 0x6f, 0x92,
  0x94, 0x7d, 0x72, 0x75, 0x86, 0x7f, 0x83, 0x7e, 0x80, 0x83, 0x7e, 0x7e,
  0x7e, 0x89, 0x7f, 0x7f, 0x89, 0x80, 0x7e, 0x81, 0x7f, 0x80, 0x7f, 0x6e,
  0x95, 0x93, 0x7e, 0x97, 0x92, 0x83, 0x7b, 0x84, 0x80, 0x7b, 0x7f, 0x7e,
  0x78, 0x86, 0x7b, 0x7e, 0x7f, 0x7c, 0x96, 0x84, 0x7e, 0x84, 0x7d, 0x82,
  0x84, 0x7c, 0xaf, 0x69, 0x82, 0x85, 0x7e, 0x85, 0x80, 0x83, 0x7c, 0x7d,
  0x7e, 0x7d, 0x67, 0x7e, 0x86, 0x7f, 0x7f, 0x7c, 0x7e, 0x76, 0xa6, 0x79,
  0x7f, 0x7f, 0x7b, 0x91, 0x88, 0x7f, 0x84, 0x82, 0x7e, 0x84, 0x7f, 0x85,
  0x65, 0x84, 0x84, 0x80, 0x87, 0x85, 0x6a, 0x7e, 0x78, 0x7e, 0x7d, 0x5e,
  0x80, 0x85, 0x81, 0x7f, 0x81, 0x7e, 0x78, 0x8c, 0x9f, 0x7e, 0x7f, 0x7e,
  0xac, 0x84, 0x82, 0x89, 0x7c, 0x80, 0x84, 0x7e, 0x84, 0x69, 0x80, 0x81,
  0x7d, 0x87, 0x89, 0x7b, 0x90, 0x7b, 0x7f, 0x7b, 0x55, 0x80, 0xae, 0x60,
  0x97, 0x7b, 0x7f, 0x81, 0x85, 0x7e, 0x83, 0x60, 0x61, 0x7a, 0x83, 0x7d,
  0x85, 0x94, 0x83, 0x85, 0x66, 0x7f, 0x55, 0x7f, 0x80, 0x7c, 0x82, 0x7e,
  0x80, 0x7f, 0x80, 0x82, 0x80, 0x80, 0x7d, 0x9f, 0x65, 0x91, 0x79, 0x7d,
  0x82, 0x81, 0x7b, 0x84, 0x7d, 0x60, 0x79, 0x86, 0x80, 0x87, 0x9d, 0x82,
  0x85, 0x6c, 0x80, 0x5c, 0x5c, 0x80, 0x7c, 0x54, 0x82, 0x7f, 0x80, 0x7f,
  0x83, 0x80, 0x68, 0x81, 0x82, 0x63, 0xa3, 0x7d, 0x80, 0x8b, 0x88, 0xac,
  0x9d, 0x80, 0x7e, 0x7a, 0x82, 0x80, 0x8b, 0x7f, 0x81, 0x82, 0x5c, 0x7f,
  0x83, 0x67, 0x7f, 0x7d, 0x5e, 0x89, 0x91, 0x7e, 0x64, 0x85, 0x81, 0x5b,
  0x82, 0xa0, 0x7f, 0x80, 0x7b, 0x7f, 0x82, 0x76, 0x80, 0x85, 0x7d, 0x62,
  0x77, 0x80, 0x7f, 0x7a, 0x81, 0x7e, 0x85, 0x7f, 0x7c, 0x5c, 0x7c, 0x81,
  0x7f, 0x76, 0x7b, 0x7e, 0x7f, 0x64, 0x7e, 0x85, 0x87, 0x80, 0x80, 0x80,
  0x84, 0x7d, 0x7e, 0x81, 0x72, 0x7e, 0x87, 0x7a, 0x79, 0x78, 0x81, 0x80,
  0x7a, 0x85, 0x7f, 0x86, 0x80, 0x7b, 0x67, 0x7d, 0x81, 0x83, 0x75, 0x7d,
  0x69, 0x82, 0x5e, 0x82, 0x82, 0x71, 0x80, 0x66, 0x9b, 0x85, 0x80, 0x7f,
  0x84, 0x79, 0x94, 0x9c, 0x7d, 0x7b, 0x77, 0x78, 0x81, 0x80, 0x7f, 0x82,
  0x83, 0x7f, 0x56, 0x7e, 0x80, 0x80, 0x82, 0x5c, 0x83, 0x78, 0x80, 0x7e,
  0x83, 0x67, 0x89, 0x81, 0x7d, 0x91, 0x94, 0x80, 0x7e, 0x7e, 0x82, 0x99,
  0x93, 0x82, 0x7d, 0x82, 0x91, 0x8f, 0x74, 0x92, 0x80, 0x72, 0x82, 0x69,
  0x7d, 0x7e, 0x7f, 0x7e, 0x7e, 0x7f, 0x73, 0x83, 0x8c, 0x7f, 0x82, 0xa6,
  0x80, 0x7e, 0x7e, 0x7f, 0x7f, 0x7e, 0x7f, 0x73, 0x7e, 0x82, 0x82, 0x7d,
  0x82, 0x7f, 0x7f, 0x80, 0x7f, 0x81, 0x71, 0x80, 0x81, 0x7d, 0x7e, 0x7f,
  0x7e, 0x7f, 0x7e, 0x83, 0x91, 0x7f, 0x80, 0x82, 0x91, 0x7f, 0x8e, 0x7f,
  0x81, 0x7f, 0x7e, 0x7d, 0x67, 0x92, 0x81, 0x73, 0x7d, 0x82, 0x7f, 0x80,
  0x80, 0x82, 0x80, 0x97, 0x80, 0x6d, 0x6f, 0x7d, 0x80, 0x8e, 0x90, 0x7f,
  0x76, 0x83, 0x7e, 0x80, 0x81, 0x91, 0x7f, 0x6d, 0x7f, 0xaa, 0x84, 0x80,
  0x66, 0x82, 0x6f, 0x7f, 0x81, 0x82, 0x7e, 0x93, 0x80, 0x71, 0x83, 0x82,
  0x73, 0x84, 0x6d, 0x7d, 0x7d, 0x80, 0x6a, 0x57, 0x7e, 0x86, 0x7f, 0x87,
  0x7d, 0x80, 0x81, 0x6f, 0x7f, 0x7f, 0x82, 0x82, 0x7f, 0x83, 0x80, 0x82,
  0x7f, 0x80, 0x82, 0x7e, 0x80, 0x7d, 0x72, 0x61, 0x81, 0x6f, 0x81, 0x96,
  0x7d, 0x5d, 0x80, 0x73, 0x7e, 0x69, 0x91, 0x81, 0x85, 0x7e, 0x7f, 0x71,
  0x7e, 0x80, 0x80, 0x84, 0x81, 0x7f, 0x80, 0x7f, 0x81, 0x7f, 0x7f, 0x80,
  0x7f, 0x7f, 0x80, 0x6b, 0x52, 0x90, 0x81, 0x7f, 0x80, 0x7f, 0x7e, 0x80,
  0x80, 0x7d, 0x59, 0x83, 0x81, 0x83, 0x7e, 0x7e, 0x81, 0x7d, 0x80, 0x7f,
  0x84, 0x74, 0xa4, 0x66, 0x82, 0x6c, 0x7e, 0x81, 0x80, 0x81, 0x73, 0x80,
  0x80, 0x82, 0x60, 0x7d, 0x84, 0x7f, 0x80, 0x94, 0x81, 0x81, 0x62, 0x8a,
  0x83, 0x6b, 0x7f, 0x7f, 0x91, 0x6c, 0x6e, 0x81, 0x80, 0x6f, 0x82, 0xa0,
  0x83, 0x80, 0x80, 0x70, 0x81, 0x80, 0x81, 0x80, 0x7e, 0x7f, 0x68, 0x6b,
  0x80, 0x82, 0x80, 0x6e, 0x7f, 0x81, 0x80, 0x7f, 0x7e, 0x82, 0x81, 0x7f,
  0x80, 0x7e, 0x61, 0x7f, 0x81, 0x80, 0x73, 0x7f, 0x94, 0x7e, 0x73, 0x80,
  0x80, 0x80, 0x80, 0x6e, 0x6a, 0x7f, 0x7e, 0x56, 0x7f, 0x7d, 0x81, 0x82,
  0x6e, 0x71, 0x81, 0x80, 0x80, 0x7f, 0x82, 0x6f, 0x7f, 0x80, 0x7d, 0x6f,
  0x7e, 0x9d, 0x81, 0x80, 0x81, 0x81, 0x64, 0x84, 0x69, 0x83, 0x6b, 0x7f,
  0x86, 0x63, 0x80, 0x80, 0x68, 0x81, 0x81, 0x83, 0x7f, 0x81, 0x83, 0x81,
  0x7f, 0x7f, 0x9c, 0x63, 0x84, 0x81, 0x84, 0x82, 0x83, 0x81, 0x80, 0x81,
  0x80, 0x6f, 0x66, 0x7e, 0x86, 0x81, 0x96, 0x81, 0x7f, 0x88, 0x81, 0x9a,
  0x84, 0x6d, 0x81, 0x5f, 0x97, 0x7f, 0x97, 0x7e, 0x7f, 0x80, 0x81, 0x9b,
  0x7e, 0x73, 0x81, 0x85, 0x6c, 0x83, 0x80, 0x80, 0x81, 0x7e, 0x87, 0x80,
  0x82, 0x6c, 0x81, 0x83, 0x82, 0x7f, 0x85, 0x84, 0x7f, 0x70, 0x5f, 0x83,
  0x81, 0x7f, 0x7e, 0x7d, 0x69, 0x7f, 0x80, 0x7f, 0x96, 0x82, 0x84, 0x83,
  0x97, 0x90, 0x84, 0x83, 0x80, 0x80, 0x80, 0x80, 0x5c, 0x6e, 0x8b, 0x7f,
  0x83, 0x6c, 0x81, 0x82, 0x59, 0x80, 0x80, 0x64, 0x7f, 0x7e, 0x82, 0x7f,
  0x80, 0x83, 0x80, 0x80, 0x7c, 0x7e, 0x65, 0x83, 0x6a, 0x82, 0x82, 0x85,
  0x6a, 0x66, 0x80, 0x82, 0x6e, 0x55, 0x84, 0x8c, 0x7f, 0x84, 0x7f, 0x82,
  0x81, 0x80, 0x9a, 0x83, 0x61, 0x69, 0x53, 0x82, 0x62, 0xa2, 0x6a, 0x7f,
  0x80, 0x61, 0x9f, 0x7f, 0x86, 0x84, 0x6f, 0x7f, 0x85, 0x6b, 0x63, 0x80,
  0x6d, 0x85, 0x81, 0x84, 0x8f, 0x81, 0x82, 0x80, 0x83, 0x80, 0x67, 0x7e,
  0x66, 0x68, 0x82, 0x80, 0x81, 0x82, 0x8f, 0x60, 0x6c, 0x95, 0x7d, 0x80,
  0x95, 0x83, 0x87, 0x95, 0x80, 0x87, 0x7f, 0x81, 0x80, 0x9d, 0x7f, 0x7f,
  0x70, 0x83, 0x80, 0x83, 0x7a, 0x7e, 0x81, 0x67, 0x6d, 0x7e, 0x63, 0x7f,
  0x7e, 0x80, 0x7e, 0x95, 0x97, 0x80, 0x80, 0x7f, 0x70, 0x84, 0x82, 0x80,
  0x81, 0x80, 0x72, 0x65, 0x6b, 0x9a, 0x94, 0x80, 0x80, 0x81, 0x9a, 0x59,
  0x84, 0x7c, 0x7e, 0x81, 0x7c, 0x97, 0x81, 0x57, 0x80, 0x4a, 0x80, 0x7f,
  0xa9, 0x84, 0x7f, 0x7f, 0x68, 0x7e, 0x83, 0x85, 0x82, 0x70, 0x7f, 0x6f,
  0x5b, 0x7f, 0x96, 0x72, 0x9f, 0xa8, 0x7f, 0x6e, 0x82, 0x6e, 0x7e, 0x7e,
  0x81, 0x68, 0x7e, 0x63, 0x6e, 0x83, 0x8c, 0x7e, 0x60, 0x94, 0x83, 0x7f,
  0x9f, 0x93, 0x66, 0x87, 0x83, 0x84, 0x82, 0x80, 0x83, 0x7e, 0x7e, 0x83,
  0x93, 0x7d, 0x80, 0x7f, 0x74, 0x80, 0x83, 0x81, 0x6a, 0x7e, 0x7d, 0x84,
  0x7f, 0x81, 0x7f, 0x7d, 0x7c, 0x75, 0x85, 0x7f, 0x7f, 0x81, 0x9b, 0x5f,
  0x78, 0x82, 0x6b, 0x80, 0x80, 0x7c, 0x87, 0x7f, 0x83, 0x7e, 0x82, 0x81,
  0x81, 0x7b, 0x82, 0x82, 0x80, 0x6b, 0x7f, 0x7e, 0x84, 0x7f, 0x7d, 0x82,
  0x94, 0x7d, 0x81, 0x98, 0x6b, 0x7e, 0x81, 0x85, 0x7d, 0x7a, 0x82, 0x70,
  0x7f, 0x80, 0x7c, 0x88, 0x63, 0x82, 0x7a, 0x83, 0x81, 0x7f, 0x78, 0x81,
  0x81, 0x82, 0x5f, 0x81, 0x80, 0x68, 0x7c, 0x9d, 0x84, 0x6d, 0x7d, 0x80,
  0xb3, 0x83, 0x6b, 0x69, 0x86, 0x58, 0x61, 0x81, 0x80, 0x80, 0x80, 0x7c,
  0x8a, 0x7f, 0x7f, 0x82, 0x7b, 0x7d, 0x7e, 0x7d, 0x82, 0x83, 0x7f, 0x81,
  0x80, 0x7c, 0x83, 0x90, 0x66, 0x7f, 0x7c, 0x7c, 0x85, 0x85, 0x7f, 0x7f,
  0x82, 0x82, 0x83, 0x7f, 0x82, 0x7e, 0x81, 0x82, 0x7a, 0x86, 0x80, 0x7f,
  0x7f, 0x83, 0x7f, 0x80, 0x81, 0x6b, 0x82, 0x80, 0x81, 0x81, 0x64, 0xa3,
  0x7e, 0x80, 0x81, 0x7f, 0x7e, 0x9b, 0x94, 0x6c, 0x7f, 0x81, 0x83, 0x8d,
  0x7f, 0x82, 0x80, 0x80, 0x81, 0x7a, 0x88, 0x65, 0x7e, 0x7c, 0x83, 0x80,
  0x82, 0x62, 0x68, 0x81, 0x83, 0x82, 0x81, 0x64, 0x95, 0x90, 0x81, 0x82,
  0x86, 0x7f, 0x81, 0xb6, 0x82, 0x80, 0x80, 0x82, 0x82, 0x5e, 0x7f, 0x7e,
  0x92, 0x83, 0x7d, 0x8b, 0x7e, 0x82, 0x80, 0x7d, 0x7e, 0x7c, 0x92, 0x86,
  0x82, 0x83, 0x63, 0x7f, 0x7f, 0x83, 0x94, 0x54, 0x7e, 0x7d, 0x7a, 0x80,
  0x9f, 0x7d, 0x7e, 0x81, 0x97, 0x84, 0x6f, 0x82, 0x7b, 0x82, 0x7f, 0x98,
  0x83, 0x7f, 0x82, 0x7d, 0x85, 0x6b, 0x80, 0x98, 0x71, 0x81, 0x81, 0x65,
  0x7d, 0x7e, 0x9f, 0x91, 0x82, 0x7f, 0x80, 0x7e, 0x93, 0x7e, 0x7d, 0x80,
  0x81, 0x83, 0x7f, 0x7e, 0x83, 0x7e, 0x81, 0x7e, 0x93, 0x85, 0x7e, 0x98,
  0x69, 0x86, 0x81, 0x84, 0x7a, 0x70, 0x81, 0x85, 0x7f, 0x7d, 0x68, 0x99,
  0x7b, 0x80, 0x9e, 0x6d, 0x80, 0x63, 0xb3, 0x83, 0x6d, 0x6c, 0x80, 0xc0,
  0x60, 0x81, 0x7e, 0x81, 0x83, 0x97, 0x89, 0x80, 0x81, 0x6e, 0x98, 0x7e,
  0x80, 0x7a, 0x81, 0x81, 0x68, 0x7e, 0x7d, 0x81, 0x80, 0x6f, 0x7d, 0x8c,
  0x83, 0x7d, 0x81, 0x82, 0x91, 0x80, 0x7f, 0x8e, 0x84, 0x7f, 0x7e, 0x80,
  0x7d, 0x80, 0x82, 0x83, 0x8e, 0x80, 0x6e, 0x80, 0x80, 0x6d, 0x79, 0x97,
  0x81, 0x7e, 0x7e, 0x7c, 0x7f, 0x7f, 0x7e, 0x7e, 0x7f, 0x82, 0x6f, 0x82,
  0x82, 0x6d, 0x80, 0x80, 0x99, 0x99, 0x7e, 0x81, 0x7f, 0x7e, 0x9b, 0x81,
  0x83, 0x80, 0x80, 0x67, 0x7e, 0x7e, 0x82, 0x67, 0x84, 0x82, 0x80, 0x7e,
  0x7c, 0x81, 0x80, 0x7d, 0x7d, 0x7f, 0x96, 0x7c, 0x81, 0x81, 0x7d, 0x7f,
  0x8e, 0x91, 0x83, 0x7e, 0x80, 0x80, 0x7e, 0x9a, 0x84, 0x82, 0x80, 0x6d,
  0x82, 0x80, 0x70, 0x81, 0x85, 0x81, 0x80, 0x6d, 0x82, 0x80, 0x80, 0x71,
  0x7d, 0x7c, 0x80, 0x72, 0x83, 0x93, 0x7f, 0x81, 0x81, 0x7e, 0x7f, 0x6f,
  0x72, 0x71, 0x7f, 0x80, 0x81, 0x82, 0x81, 0x80, 0x7f, 0x85, 0x81, 0x6b,
  0x7d, 0x82, 0x82, 0x81, 0x7e, 0x81, 0x8d, 0x71, 0x7e, 0x7d, 0x7d, 0x70,
  0x7f, 0x83, 0x81, 0x7f, 0x68, 0x82, 0x7f, 0x7e, 0x82, 0x73, 0x74, 0x67,
  0x81, 0x80, 0x81, 0x81, 0x7f, 0x80, 0x70, 0x80, 0x7e, 0x7f, 0x82, 0x83,
  0x81, 0x7f, 0x81, 0x7f, 0x7e, 0x7e, 0x7d, 0x8d, 0x82, 0x80, 0x81, 0x82,
  0x7f, 0x81, 0x80, 0x7e, 0x7f, 0x7f, 0x83, 0x72, 0x80, 0x81, 0x90, 0x83,
  0x7f, 0x80, 0x82, 0x9b, 0x7f, 0x66, 0x99, 0x81, 0x7c, 0x80, 0x6f, 0x7c,
  0x73, 0x80, 0x7f, 0x7d, 0x7c, 0x7d, 0x75, 0x7f, 0x70, 0x7e, 0x80, 0x80,
  0x7f, 0x7e, 0x81, 0x83, 0x81, 0x79, 0x81, 0x81, 0x7d, 0x7e, 0x80, 0x93,
  0xa8, 0x91, 0x62, 0x89, 0x7e, 0x7c, 0x81, 0x7f, 0x7c, 0x6a, 0x7d, 0x7d,
  0x7c, 0x7c, 0x7d, 0x81, 0x90, 0x70, 0x92, 0x81, 0x80, 0x80, 0x7c, 0x83,
  0x96, 0x83, 0x79, 0x82, 0x80, 0x7d, 0x80, 0x80, 0x82, 0xae, 0x7d, 0x64,
  0x91, 0x82, 0x7c, 0x81, 0x7f, 0x7d, 0x6e, 0x7e, 0x7e, 0x7d, 0x7b, 0x7d,
  0x82, 0x90, 0x71, 0x7f, 0x80, 0x7e, 0x80, 0x7d, 0x81, 0x93, 0x83, 0x7c,
  0x81, 0x82, 0x7e, 0x7c, 0x9d, 0x82, 0x80, 0x7c, 0x84, 0x7c, 0x73, 0x81,
  0x80, 0x7c, 0x67, 0x80, 0x65, 0xa1, 0x90, 0x80, 0x80, 0x7d, 0x7d, 0x81,
  0x88, 0x7f, 0x7d, 0x80, 0x9f, 0xa4, 0x81, 0x81, 0x7c, 0x80, 0x7f, 0x7c,
  0x94, 0x81, 0x81, 0x7d, 0x7f, 0x83, 0x95, 0x76, 0x81, 0x7f, 0x81, 0x65,
  0x7d, 0x7d, 0x80, 0x94, 0x7f, 0x82, 0x7d, 0x7b, 0x80, 0x86, 0x83, 0x7e,
  0x80, 0x7d, 0xa3, 0x7c, 0x81, 0x67, 0x7e, 0x7e, 0x7c, 0x82, 0x84, 0x81,
  0x7f, 0x7e, 0x82, 0x7d, 0x74, 0x69, 0x80, 0x83, 0x5b, 0x94, 0x9b, 0x82,
  0x7b, 0x82, 0x81, 0x80, 0x7c, 0x79, 0x6c, 0xa2, 0x80, 0x6b, 0x68, 0x98,
  0x7f, 0x7e, 0x7b, 0x7c, 0x7d, 0x7d, 0x82, 0x80, 0x80, 0x83, 0x7f, 0x7e,
  0x7c, 0x79, 0x7e, 0x81, 0x7c, 0x7e, 0x82, 0x69, 0x7b, 0x78, 0x83, 0x81,
  0x7e, 0x7c, 0x7f, 0x87, 0x84, 0x7c, 0x81, 0x7f, 0x98, 0x5f, 0x82, 0x7e,
  0x85, 0x7c, 0x81, 0x9f, 0x80, 0x80, 0x7f, 0x7e, 0x7f, 0x8f, 0x7d, 0x80,
  0x7f, 0x81, 0x7f, 0x80, 0x7c, 0x95, 0x7e, 0x81, 0x83, 0x7c, 0x79, 0x83,
  0x86, 0x86, 0x7d, 0x7d, 0x7e, 0xae, 0x79, 0x7f, 0x80, 0x83, 0x7b, 0x81,
  0x82, 0x82, 0x7e, 0x5f, 0x7c, 0x7f, 0x5e, 0x7b, 0x57, 0x80, 0x81, 0x7f,
  0x81, 0x7d, 0x7f, 0x7c, 0x84, 0x7f, 0x81, 0x7b, 0x5c, 0x7f, 0x86, 0x7f,
  0x98, 0x81, 0xb7, 0x7a, 0x7f, 0x67, 0x82, 0x62, 0x81, 0x86, 0x7d, 0x97,
  0x82, 0x7d, 0x7d, 0x7e, 0x7c, 0xae, 0x80, 0x7a, 0x90, 0x7f, 0x80, 0x7b,
  0x64, 0xa0, 0x7f, 0x80, 0x7b, 0x68, 0x86, 0x80, 0x7d, 0x82, 0x80, 0x55,
  0x82, 0x83, 0x7c, 0x81, 0x7f, 0xa0, 0x81, 0x7f, 0x9a, 0x98, 0x7d, 0x7d,
  0x7e, 0x7e, 0x97, 0x7e, 0x80, 0x7d, 0x7f, 0x7c, 0x7e, 0x68, 0x80, 0x85,
  0x63, 0x78, 0x83, 0x9a, 0x67, 0x7e, 0x81, 0x80, 0x84, 0x7d, 0x82, 0x80,
  0x7f, 0x7c, 0x7f, 0x81, 0x80, 0x7b, 0x7e, 0x7a, 0x7c, 0x7e, 0x80, 0x7e,
  0x7d, 0x81, 0x7e, 0x82, 0x7e, 0x63, 0x64, 0x81, 0x83, 0x86, 0x7a, 0x84,
  0xa9, 0x7e, 0x7f, 0xa3, 0x83, 0x83, 0xa4, 0x80, 0x80, 0x7f, 0x8f, 0x7f,
  0x83, 0x7f, 0x81, 0x81, 0x82, 0x7f, 0x7f, 0x82, 0x61, 0x80, 0x7f, 0x80,
  0x82, 0x80, 0x81, 0x82, 0x52, 0x6c, 0x56, 0x81, 0x6c, 0x81, 0x7e, 0x7f,
  0x80, 0x7e, 0xa9, 0x5f, 0x6c, 0x6b, 0x80, 0x7e, 0x6c, 0x80, 0x7f, 0x80,
  0x66, 0x85, 0x81, 0x68, 0x7f, 0x65, 0x7e, 0x7f, 0x80, 0x7f, 0x80, 0x7f,
  0x7e, 0x57, 0x84, 0x80, 0x83, 0x81, 0x93, 0x59, 0x80, 0x81, 0x7f, 0x63,
  0xa1, 0x6a, 0x5e, 0x67, 0xad, 0x84, 0x82, 0x80, 0x7f, 0x81, 0x7f, 0x7f,
  0x6b, 0x67, 0x7f, 0x7e, 0x81, 0x80, 0x7f, 0x86, 0x9e, 0x7e, 0x69, 0x7f,
  0x9f, 0x80, 0x7e, 0x80, 0x83, 0x80, 0x81, 0x7f, 0x62, 0xac, 0x8f, 0x80,
  0x7f, 0x67, 0x83, 0x7d, 0x7f, 0x81, 0x99, 0x6e, 0x7f, 0x67, 0x84, 0x6b,
  0x80, 0x7d, 0x80, 0x81, 0x7e, 0x80, 0x81, 0x5e, 0x68, 0x5e, 0x82, 0x80,
  0x80, 0x7f, 0x7f, 0x6c, 0x80, 0x7f, 0x6c, 0x82, 0x6d, 0x80, 0x80, 0x69,
  0x7e, 0x7f, 0x82, 0x7d, 0x84, 0x82, 0x70, 0x54, 0x81, 0x7f, 0x7f, 0x80,
  0x7f, 0x7f, 0x7f, 0x7e, 0x5f, 0x84, 0x7e, 0x82, 0x6f, 0x9a, 0x59, 0x80,
  0x80, 0x80, 0x65, 0x82, 0x6d, 0x65, 0x6b, 0xa1, 0x82, 0x7f, 0x93, 0x7f,
  0x81, 0x7f, 0x7f, 0x80, 0x7f, 0x80, 0x7e, 0x81, 0x92, 0x7f, 0x85, 0xa0,
  0x80, 0x84, 0x80, 0x81, 0x6b, 0x65, 0x6d, 0x82, 0x80, 0x7f, 0x9c, 0x63,
  0x7f, 0x7d, 0x80, 0x7f, 0x62, 0x82, 0x7c, 0x80, 0x83, 0xa3, 0x6e, 0x82,
  0x7e, 0x82, 0x6d, 0x81, 0x7d, 0x80, 0x81, 0x7e, 0x80, 0x81, 0x6a, 0x65,
  0x65, 0x67, 0x7f, 0x7f, 0x81, 0x7f, 0x81, 0x7f, 0x80, 0x6b, 0x82, 0x81,
  0x80, 0x80, 0x80, 0x7c, 0x80, 0x9e, 0x68, 0x9b, 0x83, 0x81, 0x50, 0x80,
  0x80, 0x7f, 0x80, 0x6a, 0x7f, 0x9c, 0x65, 0x5f, 0x80, 0x7e, 0x81, 0x65,
  0x94, 0x5b, 0x80, 0x69, 0x7f, 0x7f, 0x7f, 0x69, 0x68, 0x6c, 0x7e, 0x81,
  0x7b, 0x80, 0x83, 0x80, 0x81, 0x7f, 0x81, 0x7e, 0x94, 0x7f, 0x81, 0x7f,
  0x80, 0x84, 0x9e, 0x82, 0x81, 0x80, 0x81, 0x70, 0x61, 0x68, 0x85, 0x80,
  0x7f, 0x7f, 0x7d, 0x7e, 0x7e, 0x80, 0x7f, 0x6c, 0x81, 0x7d, 0x82, 0x83,
  0x68, 0x65, 0x81, 0x7e, 0x7e, 0x84, 0x82, 0x5c, 0x7e, 0x7f, 0x82, 0xa7,
  0x7e, 0x85, 0x87, 0x85, 0x98, 0x7e, 0x86, 0x7e, 0x82, 0x7e, 0x84, 0x85,
  0x84, 0x83, 0x7f, 0x82, 0x6e, 0x83, 0x85, 0x80, 0x81, 0x6b, 0x84, 0xa7,
  0x81, 0x7c, 0x60, 0x82, 0x6f, 0x7f, 0x80, 0x66, 0x7f, 0x80, 0x80, 0xaa,
  0x84, 0xb8, 0x80, 0x83, 0x81, 0x80, 0x7f, 0x62, 0x52, 0x89, 0x86, 0x7f,
  0x84, 0x87, 0x80, 0xa2, 0x80, 0x83, 0x88, 0x82, 0x82, 0x7d, 0x50, 0x81,
  0x81, 0x84, 0x7e, 0x80, 0x82, 0x65, 0x82, 0x86, 0x86, 0x89, 0x7d, 0x7e,
  0x85, 0x66, 0x81, 0x7f, 0x82, 0x7c, 0x8e, 0x87, 0x7d, 0x82, 0x84, 0x81,
  0x84, 0x96, 0x81, 0x61, 0x6b, 0x86, 0x82, 0x82, 0x5e, 0x7e, 0x53, 0x7f,
  0xa0, 0x6b, 0xa6, 0x7c, 0x84, 0x82, 0x80, 0x81, 0x7e, 0x7f, 0x7c, 0x81,
  0x80, 0x7f, 0x5b, 0x87, 0x7e, 0x7d, 0x82, 0x81, 0x83, 0x81, 0x80, 0x7f,
  0x88, 0x83, 0x8b, 0x7e, 0x82, 0x7f, 0x80, 0x85, 0x80, 0x82, 0x64, 0x7f,
  0x7b, 0x81, 0x83, 0x7d, 0x7f, 0x5c, 0x62, 0x7e, 0x80, 0x81, 0x7b, 0x4c,
  0x8b, 0x83, 0x7f, 0x83, 0x81, 0x7f, 0x6b, 0x66, 0x82, 0x8e, 0x82, 0x83,
  0x7b, 0x7d, 0x7f, 0x7f, 0x69, 0x7e, 0x82, 0x7e, 0x6a, 0x7d, 0x87, 0x83,
  0x7f, 0x7d, 0x7c, 0x7f, 0x7a, 0x80, 0x81, 0x7e, 0x7b, 0x8e, 0x83, 0x7d,
  0x81, 0x7f, 0x80, 0x80, 0x9c, 0x86, 0x5a, 0x82, 0x85, 0x86, 0x7d, 0x7f,
  0x7f, 0x52, 0x7e, 0x7d, 0x81, 0x99, 0x7b, 0x7f, 0x83, 0x83, 0x7f, 0x7f,
  0x7f, 0x83, 0x82, 0x80, 0x7d, 0x84, 0x85, 0x81, 0x7e, 0x81, 0x83, 0x80,
  0x5f, 0x80, 0x84, 0x70, 0x81, 0xc9, 0xa3, 0x7c, 0x64, 0x81, 0x82, 0x69,
  0x7f, 0x61, 0x7f, 0x7a, 0x82, 0x80, 0x81, 0x7b, 0x5e, 0x64, 0x83, 0x7f,
  0x81, 0x7e, 0x7f, 0x87, 0x86, 0x7f, 0x82, 0x5e, 0x7d, 0x7a, 0x81, 0x89,
  0xb5, 0xa5, 0x83, 0x80, 0x7b, 0x7d, 0x81, 0x80, 0x7e, 0x7e, 0x4f, 0x69,
  0x7a, 0x85, 0x7f, 0x80, 0x7b, 0x78, 0x7e, 0xa8, 0x7e, 0x80, 0x7c, 0x63,
  0x8a, 0x85, 0x63, 0x80, 0x64, 0x7c, 0x97, 0x8b, 0x73, 0x7d, 0x81, 0x83,
  0x7f, 0x7d, 0x81, 0x7f, 0x82, 0x7f, 0x7f, 0x71, 0x70, 0x7f, 0x7f, 0x7f,
  0x80, 0x82, 0x7f, 0x81, 0x80, 0x7f, 0xa9, 0x7f, 0x80, 0x7d, 0x81, 0x7f,
  0x80, 0x80, 0x7f, 0x81, 0x7e, 0x80, 0x7e, 0x6f, 0x83, 0x80, 0x7d, 0x81,
  0x7f, 0x83, 0x80, 0x80, 0x7e, 0x69, 0x6e, 0x7e, 0x80, 0x6e, 0x82, 0x6d,
  0x8e, 0x81, 0x7f, 0xa2, 0x71, 0x80, 0x7c, 0x81, 0x80, 0x80, 0x82, 0x7f,
  0x82, 0x7e, 0x80, 0x7e, 0x82, 0x83, 0x74, 0x6d, 0x90, 0x7f, 0x82, 0x80,
  0x80, 0x70, 0x7f, 0x7f, 0x7f, 0x81, 0x80, 0x82, 0x7f, 0x81, 0x80, 0x80,
  0xa4, 0x7e, 0x7f, 0x7f, 0x80, 0x80, 0x8d, 0x82, 0x71, 0x84, 0x7e, 0x80,
  0x82, 0x81, 0x81, 0x7f, 0x7c, 0x80, 0x7f, 0x81, 0x7f, 0x7e, 0x7c, 0x6d,
  0x7d, 0x7e, 0x80, 0x6c, 0x72, 0x6f, 0x74, 0x7f, 0x7f, 0x6f, 0x7e, 0x6f,
  0x80, 0x7f, 0x80, 0x7e, 0x81, 0x80, 0x76, 0x7d, 0x7f, 0x64, 0x6d, 0x82,
  0x71, 0x7c, 0x69, 0x63, 0x82, 0x7f, 0x7e, 0x7d, 0x6d, 0x7e, 0x8d, 0x81,
  0x68, 0x6e, 0x7d, 0x80, 0x7f, 0x7e, 0x6b, 0x7d, 0x82, 0x63, 0x69, 0x6b,
  0x7e, 0x81, 0x80, 0x69, 0x7e, 0x80, 0x66, 0x82, 0x74, 0x81, 0x7d, 0x70,
  0x6a, 0x75, 0x7f, 0x7e, 0xa0, 0x80, 0x72, 0x7f, 0x6a, 0x80, 0x71, 0x7e,
  0x7e, 0x7f, 0x7f, 0x66, 0x7e, 0x81, 0x70, 0x6d, 0x71, 0x7e, 0x94, 0x72,
  0x70, 0x7e, 0x82, 0x94, 0x82, 0x91, 0x8c, 0x81, 0x8e, 0x7f, 0x80, 0x82,
  0x81, 0x7d, 0x6d, 0x7f, 0x7e, 0x80, 0x92, 0x83, 0x80, 0x80, 0x94, 0x80,
  0x81, 0x82, 0x80, 0x94, 0x80, 0x81, 0x7f, 0x72, 0x7f, 0x83, 0x7e, 0x82,
  0x96, 0x82, 0x84, 0x7d, 0x82, 0x73, 0x7f, 0x8e, 0x81, 0x81, 0x7f, 0x80,
  0x7f, 0x7e, 0x81, 0x97, 0x83, 0xa7, 0x7f, 0x81, 0x8f, 0x80, 0x6f, 0x80,
  0x84, 0x6e, 0x81, 0x7f, 0x72, 0x69, 0x76, 0x7e, 0x82, 0x9f, 0x82, 0x84,
  0x7f, 0x71, 0x73, 0x7f, 0x81, 0x82, 0x72, 0x7f, 0x7e, 0x7f, 0x80, 0x71,
  0x95, 0x83, 0xad, 0x7e, 0x72, 0x8f, 0x80, 0x81, 0x72, 0x9d, 0x7f, 0x70,
  0x80, 0x7f, 0x6e, 0x83, 0x81, 0x80, 0x7d, 0x7e, 0x82, 0x7e, 0x67, 0x92,
  0x80, 0x86, 0x7f, 0x7f, 0x7e, 0x80, 0x7f, 0x7e, 0x82, 0x9b, 0x98, 0x51,
  0x62, 0x7e, 0x80, 0x7f, 0x6e, 0x84, 0x7f, 0x7d, 0x7e, 0x80, 0x81, 0x81,
  0x83, 0x81, 0x80, 0x7c, 0x6a, 0x82, 0x7b, 0x65, 0xab, 0x7f, 0x99, 0x80,
  0x7f, 0xa1, 0x5e, 0x7d, 0x5c, 0x82, 0x7f, 0x7f, 0x7f, 0x7f, 0x7f, 0x7f,
  0x6b, 0x81, 0x7e, 0x7f, 0x80, 0x7e, 0x80, 0x83, 0x80, 0x81, 0x80, 0x7f,
  0x7e, 0x7e, 0x7f, 0x63, 0x7b, 0x80, 0x7e, 0x80, 0x80, 0x7f, 0x95, 0x7c,
  0x7d, 0x68, 0x7f, 0x80, 0x7b, 0x5e, 0x7d, 0x80, 0x7e, 0x7f, 0x82, 0x7e,
  0x90, 0x7e, 0x7f, 0x7f, 0x9b, 0x80, 0x80, 0x7f, 0x6b, 0x7f, 0x80, 0x84,
  0x49, 0x6d, 0x5f, 0x81, 0x85, 0x80, 0x80, 0x7f, 0x80, 0x7f, 0x80, 0x83,
  0x82, 0x80, 0x7e, 0x80, 0x5f, 0x7f, 0x7f, 0x80, 0x82, 0x87, 0x80, 0x80,
  0x81, 0x80, 0x80, 0x82, 0x80, 0x7e, 0x81, 0x80, 0x83, 0x5b, 0x7e, 0x7b,
  0x80, 0x7d, 0x80, 0x80, 0x69, 0x61, 0x7e, 0x61, 0x98, 0x7d, 0x7f, 0x7e,
  0x67, 0x7c, 0x7e, 0x68, 0x7f, 0x92, 0x86, 0x82, 0x7c, 0x81, 0x7f, 0xa2,
  0x7f, 0x7f, 0x7d, 0x9b, 0x7e, 0x80, 0x7e, 0x7d, 0x91, 0x7f, 0x80, 0x80,
  0x7f, 0x9a, 0x7c, 0x7d, 0x66, 0x7f, 0x80, 0x7c, 0x7f, 0x7d, 0x9b, 0x7f,
  0x7f, 0xa3, 0x7d, 0x84, 0x66, 0x7c, 0x7f, 0xa6, 0x7c, 0x81, 0x7f, 0x6d,
  0x82, 0x82, 0xac, 0x7c, 0x81, 0x66, 0x80, 0x6e, 0x7f, 0x82, 0x80, 0x80,
  0x65, 0x82, 0x82, 0x80, 0x80, 0x9b, 0x98, 0x7f, 0x7f, 0x81, 0x6a, 0x9d,
  0x84, 0x80, 0x80, 0x81, 0x7f, 0x80, 0x6d, 0x7f, 0x80, 0x82, 0x81, 0x85,
  0x7b, 0x7f, 0x7c, 0x7f, 0x7f, 0x7e, 0x7e, 0x67, 0x62, 0x7f, 0x6a, 0x81,
  0x7d, 0x7e, 0x5d, 0x80, 0x7c, 0x7d, 0x81, 0x80, 0x7c, 0x83, 0x81, 0x7d,
  0x7f, 0x65, 0x7e, 0x81, 0x7f, 0x7e, 0x81, 0x7f, 0x82, 0x7c, 0x94, 0x7e,
  0x7e, 0x7f, 0x7f, 0x7d, 0xb5, 0x7d, 0x7f, 0x8a, 0x80, 0x7f, 0x7a, 0x62,
  0x91, 0x99, 0x7d, 0x6c, 0xa9, 0x7c, 0x81, 0x7e, 0x7d, 0x7d, 0x9a, 0x7d,
  0x82, 0x8e, 0x7e, 0x95, 0x8f, 0x7f, 0x94, 0x80, 0x6b, 0x80, 0x81, 0x7c,
  0x82, 0x96, 0x80, 0x80, 0x84, 0x7f, 0x84, 0x81, 0x84, 0x7d, 0x95, 0x82,
  0x82, 0x6d, 0x9b, 0x81, 0x7f, 0x8e, 0x81, 0x81, 0x81, 0x7f, 0x80, 0x7e,
  0x8e, 0x81, 0x7f, 0x92, 0x7c, 0x71, 0x80, 0x73, 0x8f, 0x83, 0x80, 0x8f,
  0x7f, 0x71, 0x7f, 0x82, 0x82, 0x67, 0x7f, 0x8f, 0x90, 0x83, 0x69, 0xb1,
  0x8b, 0x7f, 0x94, 0x81, 0x6a, 0x81, 0x7e, 0x80, 0x7f, 0x92, 0x7f, 0x7f,
  0x90, 0x7f, 0x70, 0x80, 0x80, 0x90, 0x82, 0x94, 0x81, 0x82, 0x81, 0x80,
  0x82, 0x81, 0x82, 0x72, 0x7a, 0x81, 0x82, 0x5d, 0xa2, 0x7f, 0x80, 0x8d,
  0x80, 0x7f, 0x82, 0x7e, 0x80, 0x7d, 0x81, 0x7f, 0x6e, 0x65, 0x7e, 0x83,
  0x82, 0x6d, 0x7e, 0x80, 0x80, 0x7f, 0x71, 0x86, 0x80, 0x83, 0x70, 0x96,
  0x7d, 0x80, 0x73, 0x80, 0x6b, 0x80, 0x81, 0x81, 0x6e, 0x81, 0x7f, 0x83,
  0x81, 0x7f, 0x6f, 0x8e, 0x7f, 0x7b, 0x7e, 0x7c, 0x82, 0x81, 0x6d, 0x7d,
  0x7f, 0x80, 0x7f, 0x7f, 0x82, 0x70, 0x80, 0x69, 0x80, 0x7f, 0x7e, 0x7f,
  0x81, 0x7f, 0x80, 0x8d, 0x81, 0x7f, 0x80, 0x81, 0x6d, 0x7f, 0x7f, 0x7e,
  0x83, 0x7f, 0x7b, 0x69, 0x7d, 0x81, 0x82, 0x6d, 0x7d, 0x7f, 0x6e, 0x80,
  0x82, 0x80, 0x80, 0x80, 0x63, 0x92, 0x80, 0x7d, 0x80, 0x81, 0x67, 0x8f,
  0x81, 0x82, 0x7f, 0x81, 0x91, 0x6a, 0x72, 0x70, 0x80, 0x82, 0x80, 0x75,
  0x73, 0x7f, 0x82, 0x81, 0x81, 0x73, 0x81, 0x80, 0x80, 0x7f, 0x84, 0x80,
  0x8f, 0x81, 0x94, 0x7e, 0x83, 0x81, 0x8d, 0x7e, 0x7f, 0x8f, 0x81, 0x5b,
  0x80, 0x82, 0x73, 0x80, 0x7e, 0x80, 0x82, 0x7f, 0x80, 0x7e, 0x7e, 0x82,
  0x81, 0x81, 0x80, 0x80, 0x82, 0x80, 0x7f, 0x81, 0x80, 0x8e, 0x73, 0x80,
  0x7f, 0x82, 0x80, 0x81, 0x80, 0x81, 0x81, 0x81, 0x6a, 0x80, 0x82, 0x6e,
  0x7f, 0x7e, 0x80, 0x82, 0x80, 0x80, 0x7f, 0x7e, 0x81, 0x81, 0x81, 0x7f,
  0x80, 0x74, 0x81, 0x81, 0x7f, 0x80, 0x92, 0x71, 0x98, 0x8e, 0x71, 0x8f,
  0x81, 0x8e, 0x82, 0x82, 0x81, 0x6f, 0x80, 0x81, 0x6a, 0x80, 0xa8, 0x7f,
  0x7f, 0x82, 0x60, 0x7c, 0x7d, 0x61, 0x50, 0x81, 0x65, 0x4c, 0x9f, 0xa2,
  0x7a, 0x4c, 0x81, 0x88, 0x86, 0xc1, 0x80, 0x56, 0x82, 0x82, 0x98, 0x80,
  0x6a, 0x7c, 0x7d, 0x7e, 0xbf, 0x81, 0x84, 0x81, 0x7f, 0x7d, 0x7f, 0x5b,
  0x7e, 0x81, 0x9b, 0x7e, 0x61, 0x7f, 0x83, 0xb1, 0x91, 0x7e, 0x68, 0x64,
  0xb9, 0x81, 0x67, 0x7c, 0x7f, 0xb7, 0x5d, 0x7c, 0x83, 0x7e, 0x64, 0x7d,
  0x82, 0x7a, 0x88, 0x69, 0x81, 0x7d, 0x86, 0x7f, 0x67, 0x80, 0xa9, 0x81,
  0x83, 0x7f, 0x6b, 0x87, 0x7f, 0x7a, 0x7b, 0x80, 0x49, 0x86, 0x7c, 0xa6,
  0x4d, 0x67, 0x94, 0x81, 0x80, 0xa4, 0x7f, 0x99, 0x5d, 0x85, 0x50, 0x83,
  0x81, 0xbe, 0x7e, 0x7f, 0x83, 0x7e, 0x7a, 0x7d, 0x69, 0x62, 0x7e, 0x5a,
  0x64, 0x83, 0xae, 0x76, 0x7d, 0x7e, 0x7d, 0x87, 0x7a, 0x7c, 0x65, 0x83,
  0x81, 0xa3, 0x5b, 0x7b, 0x7e, 0x7e, 0x83, 0x9e, 0x85, 0x7f, 0x9c, 0x7e,
  0x7d, 0x6c, 0x7e, 0x7a, 0x7e, 0x64, 0x82, 0x78, 0x7d, 0x84, 0x7e, 0x7e,
  0x7b, 0x7d, 0x81, 0x85, 0x82, 0x7b, 0x79, 0x85, 0x87, 0x61, 0x60, 0x61,
  0x7d, 0x6e, 0x7e, 0x88, 0x7b, 0x8d, 0x7d, 0x83, 0x7e, 0x8b, 0x7c, 0x7e,
  0x5f, 0x97, 0x88, 0x9d, 0x7d, 0x7f, 0x82, 0x65, 0x7c, 0x79, 0x81, 0x66,
  0x7b, 0x7c, 0x98, 0x5c, 0x6e, 0x7f, 0x83, 0x65, 0x81, 0x7d, 0x9c, 0x59,
  0xa6, 0x7a, 0x88, 0x7b, 0x98, 0x99, 0x7d, 0x84, 0x81, 0x85, 0x87, 0x7f,
  0x7f, 0x7b, 0x64, 0x81, 0x8a, 0x9f, 0x7c, 0x68, 0x7f, 0x61, 0x87, 0x7d,
  0x68, 0x85, 0x82, 0x81, 0x80, 0x78, 0x6b, 0x7c, 0x6d, 0x7d, 0x88, 0x82,
  0x7f, 0x82, 0x7d, 0x7c, 0x7f, 0x61, 0x80, 0x89, 0x81, 0x80, 0x78, 0x88,
  0x88, 0x85, 0x7d, 0x7f, 0x7e, 0x7f, 0x89, 0x80, 0x7f, 0x78, 0x8f, 0x87,
  0x7e, 0x68, 0x64, 0x86, 0x80, 0x89, 0x83, 0x84, 0x89, 0x7a, 0x80, 0x80,
  0x9f, 0x7d, 0x6b, 0x7a, 0xa3, 0x80, 0x87, 0x7d, 0x87, 0x6f, 0x67, 0x7b,
  0x7b, 0x7d, 0x7d, 0x80, 0x7d, 0x9b, 0x7f, 0x8d, 0x82, 0x7f, 0x7c, 0x7e,
  0x85, 0x83, 0x88, 0xa6, 0x5a, 0x70, 0x79, 0x80, 0x81, 0x7f, 0x81, 0x9a,
  0x62, 0x89, 0x95, 0x7f, 0x68, 0x87, 0x99, 0x7b, 0x7c, 0x7e, 0x81, 0x7f,
  0x7c, 0x62, 0x7f, 0x81, 0x92, 0x7f, 0x80, 0x81, 0x8e, 0x82, 0x90, 0xb2,
  0x82, 0x68, 0x7d, 0x7e, 0x80, 0x82, 0x70, 0x81, 0x81, 0x77, 0x89, 0xa5,
  0x7b, 0x63, 0x8b, 0x80, 0x7c, 0x7f, 0x7f, 0x82, 0x81, 0x7e, 0x59, 0x7f,
  0x7f, 0x83, 0x7e, 0x81, 0x80, 0x8d, 0x82, 0x7c, 0xa7, 0x81, 0x66, 0x7c,
  0x7e, 0x80, 0x81, 0x63, 0x7e, 0x81, 0x68, 0x89, 0xb2, 0x7c, 0x6c, 0x78,
  0x7f, 0x9e, 0x7e, 0x7f, 0x9f, 0x7e, 0x81, 0x5a, 0x7f, 0x7d, 0x83, 0x7e,
  0x7f, 0x81, 0x7d, 0x94, 0x7b, 0x8e, 0x82, 0x7f, 0x7d, 0x7f, 0x80, 0x7f,
  0x7f, 0x80, 0x97, 0x77, 0x82, 0x6b, 0x7f, 0x7c, 0x8f, 0x7d, 0x7a, 0x7a,
  0x7f, 0x80, 0x7e, 0x81, 0x66, 0x80, 0x82, 0x81, 0x7f, 0x81, 0x6d, 0x7c,
  0x80, 0x7c, 0x7b, 0x80, 0x7a, 0x7d, 0x8e, 0x80, 0x7f, 0x7f, 0x81, 0x9a,
  0x75, 0x7e, 0x7f, 0x7d, 0x7f, 0x9c, 0x7b, 0x7b, 0x7d, 0x80, 0x81, 0x6c,
  0x82, 0x5d, 0x6d, 0x7f, 0x81, 0x7e, 0x80, 0x7f, 0x7b, 0x80, 0x7b, 0x79,
  0x80, 0x79, 0x67, 0x7c, 0x81, 0x80, 0x80, 0x7e, 0x7d, 0x79, 0x7c, 0x81,
  0x7e, 0x80, 0x94, 0x8e, 0x7f, 0x7d, 0x80, 0x9d, 0x67, 0x86, 0x60, 0x7f,
  0x7f, 0x7f, 0x7f, 0x80, 0x80, 0x65, 0x82, 0x7b, 0x7a, 0x7f, 0x7a, 0x69,
  0x7d, 0x80, 0x81, 0x7d, 0x80, 0x86, 0x78, 0x9e, 0x6b, 0x7e, 0x7c, 0x6c,
  0x83, 0x7b, 0x7c, 0x7f, 0x81, 0x80, 0x7e, 0x7e, 0x7e, 0x81, 0x8a, 0x7f,
  0x7f, 0x81, 0x7e, 0x67, 0x7e, 0x80, 0x81, 0x7d, 0x7f, 0x7c, 0x70, 0x82,
  0x7d, 0x81, 0x85, 0x8d, 0x84, 0x80, 0x7e, 0x7d, 0x6f, 0x81, 0x7d, 0x7e,
  0x7e, 0x81, 0x80, 0x7e, 0x7e, 0x7f, 0x7f, 0x88, 0x7f, 0x80, 0x80, 0x7d,
  0x6a, 0x7e, 0x80, 0x80, 0x7d, 0x6f, 0x7c, 0x81, 0x82, 0x60, 0x7f, 0x83,
  0x78, 0x7f, 0x7f, 0x7e, 0x7e, 0x7e, 0x81, 0x95, 0x7d, 0x7b, 0x81, 0x81,
  0x9e, 0x7e, 0x7e, 0x7f, 0x87, 0x80, 0x80, 0x6b, 0x7e, 0x7f, 0x7e, 0x7f,
  0x80, 0x7f, 0x6e, 0x7e, 0x7d, 0x7f, 0x7d, 0x7f, 0x7d, 0x80, 0x83, 0x65,
  0x80, 0x7f, 0x80, 0x7e, 0x81, 0x81, 0x7f, 0x7f, 0x6d, 0x85, 0x80, 0x81,
  0x81, 0x7d, 0x83, 0x80, 0x68, 0x65, 0x7f, 0x7e, 0x82, 0x7e, 0x80, 0x67,
  0x81, 0x8f, 0x7f, 0x8e, 0x7d, 0x7d, 0x7f, 0x82, 0x69, 0x83, 0x7c, 0x81,
  0xa3, 0x97, 0x90, 0x80, 0x8e, 0x80, 0x84, 0x81, 0x72, 0x83, 0x7c, 0x82,
  0x80, 0x83, 0x86, 0x80, 0x7f, 0x82, 0x7f, 0x7f, 0x72, 0x81, 0x7f, 0x80,
  0x81, 0x7f, 0x7d, 0x92, 0x87, 0x6b, 0x82, 0x7e, 0x81, 0x7e, 0x7e, 0x82,
  0x84, 0x7e, 0x80, 0x81, 0x7f, 0x84, 0x85, 0x78, 0x80, 0x82, 0x67, 0x86,
  0x80, 0x81, 0x83, 0x7e, 0x80, 0x81, 0x7f, 0x7c, 0x7d, 0x7f, 0x7e, 0x68,
  0x81, 0x80, 0x70, 0x80, 0x7e, 0x80, 0x7f, 0x63, 0x80, 0x71, 0x7f, 0x81,
  0x82, 0x82, 0x80, 0x7f, 0x7c, 0x82, 0x7d, 0x81, 0x80, 0x7e, 0x70, 0x6d,
  0x7b, 0x82, 0x80, 0x7f, 0x7c, 0x7e, 0x9b, 0x7f, 0x6d, 0x81, 0x7e, 0x81,
  0x95, 0x6a, 0x6d, 0x80, 0x66, 0x93, 0x80, 0x7b, 0x81, 0x80, 0x81, 0x81,
  0x81, 0x7c, 0x82, 0x7f, 0x80, 0x99, 0x7f, 0x81, 0x6c, 0x7f, 0x81, 0x83,
  0x7d, 0x7e, 0x7e, 0xa4, 0x7f, 0x66, 0x80, 0x81, 0x82, 0x84, 0x7e, 0x6a,
  0x7f, 0x5e, 0x83, 0x83, 0x6c, 0x81, 0x7d, 0x7f, 0x81, 0x83, 0x7c, 0x80,
  0x7f, 0x81, 0x81, 0x7e, 0x82, 0x70, 0x7f, 0x6d, 0x83, 0x7d, 0x8f, 0x81,
  0x6f, 0x7d, 0x71, 0x81, 0x82, 0x83, 0x83, 0x68, 0x7e, 0x7f, 0x82, 0x80,
  0x7f, 0x80, 0x80, 0x96, 0x81, 0x81, 0x7d, 0x6b, 0x92, 0x6f, 0x7f, 0x7f,
  0x81, 0x7f, 0x7d, 0x80, 0x84, 0x84, 0x7f, 0x7f, 0x82, 0x7f, 0x7e, 0x7f,
  0x80, 0x83, 0x81, 0x96, 0x6b, 0x7e, 0x7f, 0x7e, 0x7e, 0x7e, 0x7d, 0x6f,
  0x81, 0x80, 0x82, 0x7f, 0x82, 0x82, 0x80, 0x7f, 0x81, 0x80, 0x82, 0x7e,
  0x7f, 0x85, 0x9f, 0x7f, 0x7f, 0x83, 0x83, 0x80, 0x6f, 0x8d, 0x86, 0x81,
  0x85, 0x80, 0x7f, 0x67, 0x6d, 0x83, 0x83, 0x69, 0x70, 0x7f, 0x80, 0x83,
  0x80, 0x64, 0x80, 0x7f, 0x7f, 0x85, 0x7e, 0x81, 0x7e, 0x80, 0x82, 0x93,
  0x7d, 0x5b, 0xa0, 0x80, 0x95, 0x81, 0x7c, 0x5e, 0xaf, 0x6a, 0x7f, 0x82,
  0x7d, 0x81, 0x83, 0x7e, 0x6b, 0x88, 0xba, 0x81, 0x7d, 0x83, 0x7b, 0x7d,
  0x81, 0x84, 0x7c, 0x87, 0x6b, 0x7e, 0x81, 0x82, 0x82, 0x85, 0x7f, 0x59,
  0x99, 0x7b, 0x7f, 0x7a, 0x67, 0x82, 0x80, 0x85, 0x83, 0x7f, 0x9f, 0x7d,
  0x7d, 0x45, 0x64, 0x7d, 0x7d, 0xb7, 0x7f, 0x7e, 0x7e, 0x80, 0x81, 0x8d,
  0x81, 0x81, 0x7f, 0x81, 0x82, 0x82, 0x83, 0x7f, 0x5c, 0x86, 0x7d, 0x7d,
  0x7a, 0x7a, 0x83, 0x82, 0x80, 0x83, 0x7d, 0x7f, 0x7e, 0x7a, 0x68, 0x67,
  0x7e, 0x7f, 0x80, 0x6b, 0x80, 0x7e, 0x99, 0x9c, 0x7c, 0x86, 0x81, 0x7e,
  0x7f, 0x9a, 0x81, 0x86, 0x58, 0x84, 0x83, 0xad, 0x9c, 0x82, 0x7c, 0x67,
  0x64, 0x7e, 0x67, 0x81, 0x83, 0x81, 0x80, 0x67, 0xac, 0x99, 0x80, 0x83,
  0x7f, 0x7b, 0x7f, 0x7e, 0x7e, 0x55, 0x8d, 0x7d, 0x83, 0x80, 0x7f, 0x7e,
  0x9f, 0x7c, 0x66, 0xb5, 0x7d, 0x86, 0x7e, 0x76, 0x7f, 0x7c, 0x83, 0x80,
  0x81, 0x95, 0x7f, 0x7d, 0x5d, 0x67, 0x81, 0x62, 0x82, 0x7e, 0x94, 0x7f,
  0x93, 0x99, 0x78, 0x85, 0x82, 0x80, 0x7f, 0x80, 0x7c, 0x82, 0x97, 0x83,
  0x85, 0x7f, 0x86, 0x81, 0x88, 0x96, 0x7c, 0x7f, 0x7f, 0x7f, 0x82, 0x7c,
  0x7a, 0x88, 0x81, 0x82, 0x82, 0x7f, 0x7f, 0x67, 0x7f, 0x7e, 0x80, 0x7b,
  0x88, 0x7f, 0x7d, 0x7d, 0x7e, 0x7b, 0x85, 0x68, 0xa0, 0x84, 0xaa, 0x9a,
  0x84, 0x7d, 0x62, 0x7d, 0x7e, 0x81, 0x7f, 0x63, 0x80, 0x7a, 0x6c, 0x86,
  0x7c, 0x7c, 0x4f, 0x7f, 0x9a, 0x7d, 0x81, 0x7d, 0x64, 0x83, 0x7d, 0x6c,
  0x7e, 0x7d, 0x7e, 0x7f, 0x7f, 0x80, 0x9e, 0x7e, 0x62, 0x85, 0x79, 0x80,
  0x7b, 0x7f, 0x80, 0x7c, 0x7e, 0x80, 0x79, 0x48, 0x68, 0x7d, 0x65, 0x65,
  0x7e, 0x90, 0x7c, 0x81, 0xaa, 0x7b, 0x7d, 0x7c, 0x69, 0x7d, 0x7e, 0x80,
  0x7f, 0x7f, 0x83, 0x83, 0x7f, 0x7f, 0x87, 0x90, 0x80, 0x7b, 0x7c, 0x80,
  0x7a, 0x80, 0x7c, 0x79, 0x65, 0x83, 0x7d, 0x80, 0x7f, 0x80, 0x65, 0x7f,
  0x80, 0x7e, 0x7a, 0x84, 0x7b, 0x7f, 0x7c, 0x7e, 0x7f, 0x82, 0x80, 0x7f,
  0x81, 0x8a, 0x8a, 0x80, 0x83, 0x7e, 0x8a, 0x7f, 0x82, 0x91, 0x83, 0x7f,
  0x80, 0x7f, 0x7f, 0x92, 0x81, 0x7f, 0x7d, 0x8e, 0x80, 0x77, 0x79, 0x87,
  0x81, 0x7f, 0x77, 0x82, 0x7f, 0x83, 0x81, 0x80, 0x7f, 0x82, 0x80, 0x81,
  0x81, 0x84, 0x7e, 0x7f, 0x73, 0x8b, 0x81, 0x81, 0x7f, 0x80, 0x7f, 0x75,
  0x8a, 0x7f, 0x81, 0x76, 0x8c, 0x80, 0x81, 0x80, 0x8d, 0x75, 0x7e, 0x82,
  0x82, 0x72, 0x83, 0x80, 0x7f, 0x80, 0x82, 0x80, 0x81, 0x7f, 0x87, 0x75,
  0x80, 0x7f, 0x8a, 0x8e, 0x81, 0x81, 0x82, 0x7f, 0x80, 0x8d, 0x7f, 0x80,
  0x7f, 0x82, 0x80, 0x80, 0x80, 0x88, 0x80, 0x7f, 0x81, 0x82, 0x88, 0x83,
  0x80, 0x80, 0x76, 0x7f, 0x80, 0x80, 0x81, 0x96, 0x77, 0x7f, 0x7e, 0x8f,
  0x81, 0x77, 0x7e, 0x7e, 0x7f, 0x78, 0x79, 0x7f, 0x89, 0x7f, 0x8c, 0x80,
  0x81, 0x71, 0x71, 0x81, 0x7d, 0x81, 0x81, 0x8f, 0x78, 0x80, 0x7f, 0x80,
  0x80, 0x7e, 0x80, 0x80, 0x92, 0x8b, 0x7f, 0x71, 0x8e, 0x81, 0x7f, 0x7e,
  0x80, 0x75, 0x80, 0x7f, 0x7f, 0x8c, 0x80, 0x81, 0x7f, 0x82, 0x7d, 0x7d,
  0x7e, 0x7d, 0x82, 0x81, 0x82, 0x81, 0x80, 0x7f, 0x80, 0x80, 0x80, 0x77,
  0x7f, 0x8a, 0x82, 0x80, 0x7f, 0x83, 0x83, 0x70, 0x80, 0x83, 0x73, 0x80,
  0x75, 0x7e, 0x7f, 0x7f, 0x81, 0x7f, 0x81, 0x7f, 0x72, 0x88, 0x7d, 0x82,
  0x81, 0x90, 0x81, 0x7f, 0x7f, 0x80, 0x77, 0x81, 0x80, 0x81, 0x80, 0x7f,
  0x81, 0x7e, 0x80, 0x81, 0x80, 0x76, 0x7e, 0x80, 0x7f, 0x84, 0x7f, 0x8a,
  0x7f, 0x82, 0x81, 0x80, 0x7c, 0x6a, 0x8c, 0x80, 0x76, 0x84, 0x80, 0x70,
  0x7e, 0x7f, 0x8b, 0x81, 0x80, 0x80, 0x81, 0x81, 0x89, 0x80, 0x7d, 0x75,
  0x81, 0x7e, 0x80, 0x7f, 0x80, 0x7e, 0x82, 0x7f, 0x7f, 0x7f, 0x82, 0x80,
  0x81, 0x88, 0x6a, 0x7f, 0x81, 0x82, 0x85, 0x80, 0x6f, 0x7c, 0x80, 0x82,
  0x73, 0x81, 0x81, 0x8d, 0x81, 0x89, 0x81, 0x7f, 0x73, 0x83, 0x7f, 0x80,
  0x7f, 0x7e, 0x80, 0x82, 0x7e, 0x7f, 0x7f, 0x82, 0x81, 0x81, 0x8a, 0x76,
  0x8a, 0x81, 0x7b, 0x84, 0x81, 0x72, 0x7c, 0x7f, 0x81, 0x6d, 0x80, 0x7e,
  0x81, 0x69, 0x82, 0x7f, 0x81, 0x80, 0x7f, 0x7f, 0x80, 0x6d, 0x7d, 0x81,
  0x5c, 0x81, 0x7f, 0x95, 0x7e, 0x80, 0x7f, 0x95, 0x7e, 0x80, 0x7f, 0x80,
  0x7e, 0x80, 0x7f, 0x82, 0x91, 0x81, 0x7f, 0x80, 0x7f, 0x80, 0x80, 0x82,
  0x80, 0x82, 0x80, 0x7f, 0x7e, 0x52, 0x81, 0x61, 0x80, 0x7d, 0x6e, 0x7f,
  0x6d, 0x7d, 0x80, 0x80, 0x9c, 0x5c, 0x80, 0x81, 0x81, 0x7e, 0x6f, 0x81,
  0x81, 0x7f, 0x81, 0x80, 0x81, 0x7f, 0x56, 0x80, 0x81, 0x80, 0x83, 0x80,
  0x7e, 0x7e, 0x80, 0x7f, 0x80, 0x80, 0x68, 0x6a, 0x7f, 0x81, 0x7e, 0x7f,
  0x80, 0x93, 0x7d, 0x82, 0x6c, 0x6d, 0x7f, 0x81, 0x80, 0x83, 0x80, 0x82,
  0x7e, 0x81, 0x6d, 0x81, 0x69, 0x92, 0x7f, 0x81, 0x80, 0x81, 0x6c, 0x80,
  0x7f, 0x7d, 0x65, 0x7d, 0x82, 0x80, 0x93, 0x80, 0x80, 0x92, 0x81, 0x80,
  0x82, 0x81, 0x81, 0x7f, 0x80, 0x7e, 0x82, 0x7f, 0x81, 0x7e, 0x81, 0x80,
  0x80, 0x6e, 0x7f, 0x80, 0x82, 0x80, 0x81, 0x80, 0x53, 0x80, 0x7d, 0x82,
  0x7d, 0x81, 0x80, 0x81, 0x80, 0x7f, 0x7f, 0x82, 0x50, 0x82, 0x83, 0x81,
  0x80, 0x82, 0x7f, 0x81, 0x7f, 0x81, 0x7f, 0x82, 0x80, 0x5e, 0x81, 0x96,
  0x81, 0x84, 0x6c, 0x80, 0x6a, 0x82, 0x80, 0x81, 0x81, 0x7d, 0x82, 0x7e,
  0x83, 0x80, 0x7e, 0x92, 0x83, 0x7f, 0x84, 0x81, 0x80, 0x7f, 0x80, 0x7e,
  0x82, 0x6d, 0x95, 0x80, 0x81, 0x82, 0x81, 0x69, 0x7f, 0x91, 0x7f, 0x82,
  0x81, 0x7f, 0x80, 0x7f, 0x7f, 0x9b, 0xa4, 0x80, 0x83, 0x81, 0x7f, 0x80,
  0x80, 0x94, 0x82, 0x82, 0x7c, 0x7f, 0x7e, 0x7f, 0x7e, 0x81, 0x97, 0x83,
  0x82, 0x81, 0x82, 0x80, 0x6e, 0x80, 0x7e, 0x9a, 0x81, 0x7f, 0x7e, 0x61,
  0x6c, 0x80, 0x81, 0x97, 0x7f, 0x80, 0x7f, 0x80, 0x7f, 0x7f, 0x81, 0x83,
  0x80, 0x94, 0x80, 0x7e, 0x81, 0x7f, 0x81, 0x7f, 0x81, 0x82, 0x82, 0x6e,
  0x68, 0x7e, 0x62, 0x7e, 0x83, 0x80, 0x7f, 0xc3, 0x81, 0x90, 0x82, 0x80,
  0x7e, 0x82, 0x63, 0x81, 0x7f, 0x7f, 0x7f, 0x82, 0x83, 0x82, 0x7d, 0x63,
  0x7e, 0x7f, 0x7f, 0x84, 0x80, 0x64, 0x81, 0x7d, 0x7e, 0x79, 0x7f, 0x9c,
  0x9d, 0x7f, 0x7e, 0x80, 0x7e, 0x6d, 0x80, 0x6e, 0x82, 0x70, 0x7e, 0x95,
  0x86, 0x7f, 0x7f, 0x7f, 0x84, 0x81, 0x7f, 0x90, 0x7e, 0x81, 0x7e, 0x6f,
  0x94, 0x80, 0x7e, 0x62, 0x7e, 0x7e, 0x7c, 0x68, 0x90, 0x80, 0x7f, 0x7e,
  0x6d, 0x7d, 0xa0, 0x81, 0x81, 0x80, 0x80, 0x7e, 0x7f, 0x82, 0x64, 0x7d,
  0x7f, 0x87, 0xb4, 0x7f, 0x69, 0x7e, 0x80, 0x91, 0x6d, 0x96, 0x81, 0x7e,
  0x7d, 0x7f, 0x7f, 0x97, 0x54, 0x81, 0x7f, 0x80, 0x7d, 0x7e, 0x7f, 0x7f,
  0x7f, 0x80, 0x80, 0x83, 0x7e, 0x7f, 0x7e, 0x69, 0x80, 0x9e, 0x82, 0xc3,
  0x81, 0x7f, 0x92, 0x7f, 0x7f, 0x82, 0x81, 0x98, 0x81, 0x81, 0x7d, 0x5e,
  0x7f, 0x81, 0x6c, 0x82, 0x7f, 0x80, 0x80, 0x68, 0x82, 0x7f, 0x81, 0x82,
  0x4b, 0x7e, 0x8f, 0x82, 0x81, 0x80, 0x7f, 0x81, 0x5f, 0x6c, 0x80, 0x6e,
  0x81, 0xa1, 0x6a, 0x7d, 0x7f, 0x82, 0x6c, 0x80, 0x47, 0x81, 0x81, 0x65,
  0x82, 0x7f, 0x67, 0x80, 0x7d, 0x92, 0x80, 0x81, 0x84, 0x8d, 0x9e, 0x7f,
  0x83, 0x51, 0x7d, 0x6e, 0x5c, 0x83, 0x95, 0x7f, 0x63, 0x6e, 0xa6, 0x85,
  0x98, 0x7f, 0x6f, 0x95, 0x80, 0x7f, 0x9d, 0x6e, 0x97, 0x80, 0x6e, 0x7e,
  0x7f, 0x5b, 0x7e, 0x59, 0x90, 0x6f, 0x9a, 0x80, 0x94, 0x7e, 0x67, 0x7f,
  0x98, 0x80, 0xaf, 0xa1, 0x81, 0x81, 0x81, 0x63, 0x87, 0x80, 0x99, 0x81,
  0x70, 0x66, 0x6e, 0x69, 0x82, 0x5b, 0x80, 0x82, 0x82, 0x8f, 0x81, 0x82,
  0x7f, 0x81, 0x81, 0x5f, 0x72, 0x7b, 0x82, 0x81, 0x80, 0x62, 0x83, 0x85,
  0x80, 0x7f, 0x7f, 0x81, 0xa2, 0x82, 0x7e, 0x7f, 0xa3, 0x6a, 0x94, 0x80,
  0x82, 0x83, 0x39, 0x81, 0x7f, 0x69, 0x7f, 0x65, 0x7f, 0x7f, 0x80, 0x82,
  0x7e, 0x84, 0x5c, 0x84, 0x66, 0x7f, 0x6d, 0x56, 0x61, 0x94, 0x7f, 0x80,
  0x81, 0x99, 0x82, 0x67, 0x7f, 0x83, 0x7f, 0x82, 0x81, 0x95, 0x62, 0x81,
  0x7e, 0x6e, 0x7f, 0x6c, 0x56, 0x7f, 0x63, 0x82, 0x6e, 0x80, 0x81, 0x81,
  0x7e, 0x8e, 0x7f, 0x94, 0x93, 0x7b, 0x9f, 0x7f, 0x9e, 0x90, 0x4c, 0x95,
  0x7f, 0x00, 0x00, 0x00, 0x86, 0xf6, 0xfd, 0xff, 0x04, 0x00, 0x00, 0x00,
  0xe0, 0x00, 0x00, 0x00, 0xba, 0x1c, 0x00, 0x00, 0x91, 0x11, 0x00, 0x00,
  0xe2, 0xd3, 0xff, 0xff, 0x3f, 0xfa, 0xff, 0xff, 0x7e, 0xf2, 0xff, 0xff,
  0x70, 0xd5, 0xff, 0xff, 0xba, 0x04, 0x00, 0x00, 0x01, 0xff, 0xff, 0xff,
  0x49, 0x04, 0x00, 0x00, 0xf0, 0x05, 0x00, 0x00, 0xde, 0xe2, 0xff, 0xff,
  0x35, 0x0b, 0x00, 0x00, 0x55, 0xee, 0xff, 0xff, 0xb4, 0x0c, 0x00, 0x00,
  0x0f, 0xf6, 0xff, 0xff, 0x9f, 0x0e, 0x00, 0x00, 0x08, 0x12, 0x00, 0x00,
  0x28, 0x12, 0x00, 0x00, 0x2d, 0x0f, 0x00, 0x00, 0xf9, 0x02, 0x00, 0x00,
  0xef, 0xfe, 0xff, 0xff, 0x88, 0xe2, 0xff, 0xff, 0x59, 0xfe, 0xff, 0xff,
  0x0b, 0x06, 0x00, 0x00, 0xd0, 0xda, 0xff, 0xff, 0x02, 0x04, 0x00, 0x00,
  0x82, 0x12, 0x00, 0x00, 0xc5, 0xf7, 0xff, 0xff, 0x1b, 0xf8, 0xff, 0xff,
  0x2a, 0xff, 0xff, 0xff, 0xe1, 0x25, 0x00, 0x00, 0xd1, 0xf3, 0xff, 0xff,
  0x8d, 0xff, 0xff, 0xff, 0x39, 0xe9, 0xff, 0xff, 0x61, 0x10, 0x00, 0x00,
  0x15, 0x18, 0x00, 0x00, 0xe9, 0x07, 0x00, 0x00, 0xe8, 0xfd, 0xff, 0xff,
  0xbe, 0xc9, 0xff, 0xff, 0xb1, 0xe3, 0xff, 0xff, 0x4a, 0x03, 0x00, 0x00,
  0xf0, 0xf2, 0xff, 0xff, 0x24, 0xe7, 0xff, 0xff, 0xb6, 0x03, 0x00, 0x00,
  0xfe, 0x0b, 0x00, 0x00, 0x56, 0xf7, 0xff, 0xff, 0xb9, 0xe6, 0xff, 0xff,
  0x4c, 0xff, 0xff, 0xff, 0x17, 0xf6, 0xff, 0xff, 0x22, 0x1b, 0x00, 0x00,
  0x23, 0x1c, 0x00, 0x00, 0x11, 0xfd, 0xff, 0xff, 0xbf, 0x00, 0x00, 0x00,
  0x73, 0xe2, 0xff, 0xff, 0xe4, 0xe9, 0xff, 0xff, 0x29, 0x00, 0x00, 0x00,
  0x72, 0xf7, 0xfd, 0xff, 0x04, 0x00, 0x00, 0x00, 0x10, 0x00, 0x00, 0x00,
  0x00, 0x00, 0x00, 0x00, 0x03, 0x00, 0x00, 0x00, 0x02, 0x00, 0x00, 0x00,
  0x01, 0x00, 0x00, 0x00, 0x8e, 0xf7, 0xfd, 0xff, 0x04, 0x00, 0x00, 0x00,
  0x51, 0x00, 0x00, 0x00, 0x7f, 0x7f, 0x7e, 0x7d, 0x7e, 0x7d, 0x7f, 0x90,
  0x7f, 0x32, 0x90, 0x9f, 0x27, 0x93, 0xbc, 0x5c, 0x8a, 0x98, 0x81, 0x81,
  0x80, 0x7f, 0x7f, 0x7f, 0x86, 0x8b, 0x87, 0xab, 0x99, 0x91, 0x74, 0x5a,
  0x6e, 0x4f, 0x60, 0x7f, 0x80, 0x87, 0x7f, 0x80, 0x80, 0x80, 0x86, 0x89,
  0x80, 0x85, 0x92, 0x8d, 0x75, 0xab, 0x83, 0x74, 0x93, 0x81, 0x75, 0x77,
  0x72, 0x84, 0x77, 0x92, 0x77, 0x74, 0x79, 0xcf, 0x80, 0x00, 0xe1, 0x81,
  0x12, 0x13, 0x95, 0xc7, 0x71, 0x75, 0x9b, 0x81, 0x80, 0x81, 0x81, 0x80,
  0x81, 0x00, 0x00, 0x00, 0xee, 0xf7, 0xfd, 0xff, 0x04, 0x00, 0x00, 0x00,
  0x88, 0x5c, 0x00, 0x00, 0x80, 0x81, 0x85, 0x80, 0x7f, 0x83, 0x7f, 0x82,
  0x80, 0x7f, 0x63, 0x85, 0xa2, 0x81, 0x83, 0x7d, 0x58, 0x81, 0xa1, 0x83,
  0x82, 0x83, 0x7f, 0x87, 0x82, 0x85, 0x7f, 0x80, 0x80, 0x82, 0x86, 0x84,
  0x82, 0x86, 0x7e, 0x80, 0x81, 0x82, 0x7c, 0x83, 0x83, 0x7f, 0x63, 0x7d,
  0x7f, 0x83, 0x86, 0x82, 0x7d, 0x82, 0x80, 0x81, 0x7e, 0xb6, 0x80, 0x62,
  0x80, 0x83, 0x7d, 0x81, 0x7e, 0x83, 0x7d, 0x83, 0x80, 0x7d, 0x62, 0xa6,
  0x80, 0x63, 0x81, 0x97, 0x83, 0x81, 0x82, 0x81, 0x7d, 0x9b, 0x80, 0x89,
  0x7f, 0x7f, 0x7f, 0x80, 0x81, 0x82, 0x86, 0x82, 0x81, 0x7d, 0x7e, 0x7f,
  0x7f, 0x82, 0x7e, 0xaa, 0x7f, 0x7e, 0x7b, 0x7f, 0x7e, 0x66, 0x81, 0x80,
  0x7d, 0x83, 0x80, 0x82, 0x7f, 0xae, 0x7e, 0x7f, 0x67, 0x84, 0x7c, 0x81,
  0x80, 0x83, 0x7c, 0x81, 0x60, 0x7e, 0x80, 0xa7, 0x82, 0x7f, 0x84, 0x7e,
  0x83, 0x9d, 0x82, 0x81, 0x9f, 0x7f, 0x7e, 0x88, 0x81, 0x7b, 0x61, 0x80,
  0x80, 0x81, 0x82, 0x81, 0x80, 0x7c, 0x7e, 0x80, 0x7f, 0x84, 0x7e, 0x82,
  0x7f, 0x80, 0x7a, 0x80, 0x7e, 0x80, 0x7d, 0x82, 0x80, 0x83, 0x7f, 0x81,
  0x80, 0xb9, 0x7c, 0x7f, 0x82, 0x7e, 0x7e, 0x80, 0x80, 0x83, 0x7e, 0x7e,
  0x7f, 0x7e, 0x80, 0x7e, 0x7e, 0x7f, 0x7f, 0x80, 0x62, 0x82, 0x84, 0x80,
  0x7d, 0x7f, 0x60, 0xa4, 0x83, 0x82, 0x83, 0x80, 0x81, 0x7f, 0x7f, 0x80,
  0x7f, 0x86, 0x83, 0x7d, 0x80, 0x83, 0x81, 0x7e, 0x87, 0x83, 0x82, 0x7c,
  0x7e, 0x7f, 0x7e, 0x80, 0x7f, 0x7e, 0x80, 0x7f, 0x81, 0x7f, 0x82, 0x5b,
  0x82, 0x96, 0x7d, 0x81, 0x80, 0x83, 0x80, 0x7e, 0x7e, 0x80, 0x80, 0x80,
  0x7f, 0x80, 0x80, 0x7f, 0x61, 0x83, 0x82, 0x80, 0x7e, 0x80, 0x65, 0x84,
  0x81, 0x7f, 0x82, 0x82, 0x7d, 0x80, 0x7f, 0x7c, 0x7f, 0x7d, 0x83, 0x7e,
  0x7e, 0x82, 0x81, 0x7e, 0x85, 0x81, 0x7e, 0x7d, 0x7f, 0x7f, 0x7e, 0x81,
  0x7f, 0x7f, 0x80, 0x80, 0x50, 0x80, 0x81, 0x7e, 0x80, 0x7d, 0x7f, 0x80,
  0x80, 0x83, 0x7d, 0x7e, 0x80, 0x81, 0x80, 0x81, 0x80, 0x80, 0x7f, 0x7e,
  0x67, 0x82, 0x84, 0x81, 0x7c, 0x81, 0x7e, 0x81, 0x81, 0xa1, 0x7f, 0x80,
  0x7e, 0x81, 0x7f, 0x7c, 0x7e, 0x7b, 0x80, 0x7e, 0x7e, 0x82, 0x80, 0x80,
  0x80, 0x81, 0x7f, 0x7c, 0x80, 0x80, 0x7c, 0x81, 0x7f, 0x7e, 0x7e, 0x7f,
  0x61, 0x81, 0x82, 0x7d, 0x84, 0x83, 0x7b, 0x81, 0x84, 0x82, 0x7c, 0x83,
  0x81, 0x7f, 0x7f, 0x81, 0x82, 0x81, 0x85, 0x81, 0x84, 0x82, 0x86, 0x7f,
  0x7f, 0x7c, 0x82, 0x8a, 0x7c, 0x64, 0x81, 0x80, 0x80, 0x86, 0x81, 0x82,
  0x82, 0x81, 0x81, 0x81, 0xa1, 0x86, 0x83, 0x83, 0x85, 0x7f, 0x80, 0x7b,
  0x83, 0x81, 0x81, 0x81, 0x84, 0x83, 0x80, 0x80, 0x7f, 0x7e, 0x81, 0x7f,
  0x83, 0x83, 0x7e, 0x81, 0xa0, 0x67, 0x7f, 0x83, 0x7f, 0x80, 0x7f, 0x81,
  0x7f, 0x81, 0x84, 0x80, 0x84, 0x83, 0x87, 0x7f, 0x80, 0x7d, 0x82, 0x8a,
  0x62, 0x82, 0x81, 0x80, 0x7f, 0x86, 0x83, 0x81, 0x81, 0x67, 0x7f, 0x80,
  0x80, 0x84, 0x83, 0x80, 0x84, 0x7f, 0x7e, 0x7c, 0x82, 0x80, 0x7f, 0x82,
  0x83, 0x82, 0x82, 0x80, 0x80, 0x7f, 0x80, 0x7f, 0x82, 0x85, 0x81, 0x82,
  0x86, 0x81, 0x7d, 0x83, 0x80, 0x80, 0x7e, 0x7f, 0x80, 0x80, 0x84, 0x7f,
  0x83, 0x83, 0x85, 0x7e, 0x64, 0x7e, 0x81, 0x87, 0x7c, 0x82, 0x80, 0x7f,
  0x7e, 0x84, 0x80, 0x82, 0x82, 0x81, 0x7e, 0x81, 0x80, 0x85, 0x81, 0x7f,
  0x81, 0x80, 0x7f, 0x7e, 0x82, 0x7d, 0x7d, 0x81, 0x84, 0x9e, 0x81, 0x7e,
  0x7f, 0x7e, 0x81, 0x7f, 0xad, 0x83, 0x80, 0x7f, 0x83, 0x80, 0x82, 0x81,
  0x82, 0x81, 0x81, 0x9a, 0x81, 0x81, 0x7f, 0x80, 0x7f, 0x80, 0x7f, 0xa9,
  0x7d, 0x7d, 0x7e, 0x87, 0x7b, 0x9e, 0x5f, 0x7e, 0x80, 0x80, 0x7f, 0x7f,
  0x7e, 0x7d, 0x80, 0x7f, 0x81, 0x82, 0x62, 0x7a, 0x7e, 0x7e, 0x82, 0x7f,
  0x7f, 0x82, 0x7f, 0xa3, 0x82, 0x7f, 0x80, 0x7f, 0x7f, 0x81, 0x82, 0x6a,
  0xa1, 0x82, 0x81, 0x81, 0x80, 0x7f, 0x80, 0x81, 0x83, 0xae, 0xa4, 0x80,
  0x80, 0x7f, 0x80, 0x81, 0x80, 0x7e, 0x7e, 0xb8, 0x7e, 0x7c, 0x7d, 0x84,
  0x7c, 0x7e, 0x66, 0x7f, 0x7f, 0x7e, 0x7d, 0x67, 0x66, 0x7e, 0x7e, 0x80,
  0x7f, 0x80, 0x64, 0x9a, 0x7d, 0x7e, 0x80, 0x80, 0x80, 0x80, 0x80, 0xb0,
  0x83, 0x80, 0x80, 0x7f, 0x7d, 0x7f, 0x82, 0x83, 0x9a, 0x7e, 0xb0, 0x81,
  0x80, 0x7f, 0x81, 0x80, 0x82, 0xb6, 0x81, 0x80, 0x7e, 0x7f, 0x80, 0x82,
  0x80, 0x80, 0x7c, 0xa6, 0x80, 0x7e, 0x7d, 0x81, 0x7f, 0x7e, 0x50, 0x80,
  0x7d, 0x7d, 0x7d, 0x7e, 0x7f, 0x81, 0x80, 0x80, 0x61, 0x7c, 0x61, 0x80,
  0x7d, 0x7e, 0x99, 0x82, 0x80, 0x80, 0x81, 0xab, 0x82, 0x80, 0x80, 0x80,
  0x7e, 0x7f, 0xa9, 0x85, 0x7f, 0x83, 0x84, 0x9a, 0x84, 0x83, 0x7e, 0x81,
  0x81, 0x6a, 0x7f, 0x7f, 0x7f, 0x80, 0x7f, 0x66, 0xa3, 0x81, 0x81, 0x66,
  0x81, 0x7f, 0x81, 0x84, 0x7f, 0x99, 0x81, 0x7e, 0x82, 0x7f, 0x7c, 0x9d,
  0x65, 0x82, 0x81, 0x7f, 0x80, 0x86, 0x64, 0x7f, 0x98, 0x7f, 0x98, 0x7e,
  0x98, 0x7c, 0x7d, 0x7f, 0x7f, 0x7e, 0x80, 0x7f, 0x7e, 0x7f, 0x82, 0x85,
  0x7e, 0x83, 0x82, 0x81, 0x82, 0x82, 0x7f, 0x80, 0x81, 0x67, 0x7d, 0x7e,
  0x80, 0x80, 0x7f, 0x61, 0xad, 0x7f, 0x82, 0x80, 0x7f, 0x7f, 0x80, 0x84,
  0x80, 0x7e, 0x7f, 0x7f, 0x82, 0x81, 0x7b, 0xa5, 0x65, 0x65, 0x7e, 0x7f,
  0x7e, 0x85, 0x59, 0x7d, 0x97, 0x7d, 0x95, 0x82, 0x7f, 0x79, 0x7e, 0x7e,
  0x7f, 0x99, 0x81, 0x7f, 0x7f, 0x81, 0x80, 0x9c, 0x7d, 0x82, 0x80, 0x81,
  0x67, 0x81, 0x81, 0x7f, 0x81, 0x7f, 0x7f, 0x7e, 0x7f, 0x67, 0x7e, 0x6b,
  0xa5, 0x7e, 0x6a, 0x7f, 0x80, 0x7f, 0x96, 0x81, 0x80, 0x7e, 0x59, 0x80,
  0x66, 0x80, 0x7f, 0x82, 0x81, 0x63, 0x81, 0x7f, 0x7f, 0x82, 0x5e, 0x94,
  0x83, 0x7c, 0x97, 0x84, 0x80, 0x7c, 0x80, 0x7f, 0x82, 0x97, 0x80, 0x7f,
  0x7f, 0x82, 0x81, 0x82, 0x81, 0x80, 0x9f, 0x7f, 0x81, 0x83, 0x7b, 0x83,
  0x98, 0x64, 0x66, 0x87, 0x81, 0x7f, 0x80, 0x83, 0x7e, 0x83, 0x81, 0x68,
  0x87, 0x83, 0x80, 0x87, 0x83, 0x80, 0xa8, 0x7e, 0x81, 0x83, 0x80, 0x7e,
  0x80, 0x84, 0x80, 0x7e, 0x80, 0x82, 0x7f, 0x8a, 0x7e, 0x7e, 0x82, 0x7f,
  0x5c, 0x86, 0x7e, 0x80, 0x85, 0x80, 0x81, 0x9f, 0x7d, 0x83, 0x82, 0x84,
  0x80, 0xa5, 0x80, 0x80, 0x7f, 0x85, 0x7c, 0x81, 0x9b, 0x69, 0x5b, 0x86,
  0x82, 0x7f, 0x81, 0x58, 0x7e, 0x81, 0x81, 0x82, 0x81, 0x85, 0x7e, 0x89,
  0x81, 0x7e, 0x7e, 0x7e, 0x7f, 0x86, 0x7e, 0x7e, 0x81, 0x7d, 0x7e, 0x7e,
  0x7f, 0x83, 0x81, 0x84, 0x7c, 0x80, 0x7e, 0x80, 0x7e, 0x85, 0x7c, 0x7f,
  0x86, 0x7e, 0xa1, 0x83, 0x7e, 0x84, 0x6b, 0x80, 0x7f, 0x9a, 0x81, 0x80,
  0x80, 0x82, 0x7f, 0x81, 0xb6, 0x80, 0x80, 0x83, 0x82, 0x80, 0x80, 0x5d,
  0x7d, 0x80, 0x82, 0x82, 0x80, 0x84, 0x7b, 0x87, 0x63, 0x7f, 0x7d, 0x80,
  0x80, 0x82, 0x7c, 0x7d, 0x7f, 0x7e, 0x80, 0x9c, 0x96, 0x86, 0x5e, 0x81,
  0x7d, 0x7d, 0x7f, 0x68, 0x7f, 0x84, 0x7e, 0x7e, 0x86, 0x95, 0x81, 0x7f,
  0x7f, 0x86, 0x82, 0x83, 0x77, 0x77, 0x7d, 0x81, 0x7e, 0x85, 0x81, 0x7c,
  0x7e, 0x80, 0x84, 0xbd, 0x5b, 0x81, 0x7f, 0xbe, 0x7a, 0x83, 0x77, 0x57,
  0x7c, 0x7d, 0x80, 0x7d, 0x7e, 0x58, 0x7c, 0x7e, 0x89, 0x86, 0x7a, 0x86,
  0x7b, 0x87, 0x57, 0x83, 0x80, 0xa0, 0x88, 0x87, 0x7c, 0x56, 0x82, 0x83,
  0x81, 0x5c, 0x87, 0x82, 0x82, 0x7a, 0xb0, 0xbd, 0x7f, 0x7f, 0x80, 0xc7,
  0x7a, 0x78, 0x82, 0x87, 0x7d, 0x86, 0x7d, 0x7f, 0x7c, 0x7d, 0x86, 0x85,
  0x57, 0x7d, 0x82, 0x86, 0x79, 0x82, 0x77, 0x87, 0x80, 0x7b, 0x82, 0x82,
  0x81, 0x5a, 0x7e, 0x85, 0x87, 0x83, 0x7a, 0x4d, 0x77, 0x87, 0x80, 0x83,
  0x82, 0x79, 0x7c, 0x89, 0x7d, 0x86, 0x5e, 0x79, 0x84, 0x7e, 0x51, 0x88,
  0x86, 0x7a, 0x7f, 0x98, 0x80, 0xa1, 0x82, 0x89, 0x7e, 0x80, 0x86, 0x8c,
  0x86, 0x69, 0x7e, 0x80, 0x7c, 0xab, 0x82, 0x82, 0x80, 0x86, 0x81, 0x7a,
  0x7f, 0x80, 0x76, 0xff, 0x89, 0xb1, 0x88, 0x84, 0x83, 0x81, 0x7d, 0x81,
  0x83, 0x58, 0x7d, 0x43, 0x82, 0x86, 0x8d, 0x83, 0x82, 0x7a, 0x91, 0x88,
  0x81, 0x85, 0x8f, 0x79, 0x81, 0x6f, 0x43, 0x60, 0x83, 0x33, 0x7f, 0x7f,
  0x85, 0x7e, 0x52, 0x87, 0x4f, 0x89, 0x8e, 0x7c, 0x7e, 0x85, 0x5f, 0x83,
  0x53, 0x7e, 0x7f, 0xc0, 0x80, 0x80, 0x82, 0x54, 0x7d, 0x85, 0x7f, 0x85,
  0x7f, 0x7f, 0x7c, 0x7e, 0x83, 0x7f, 0x79, 0x78, 0x8a, 0x83, 0x4b, 0x8d,
  0x7e, 0x7e, 0x87, 0x44, 0x7e, 0xb0, 0x83, 0x85, 0x83, 0x5c, 0x80, 0x81,
  0x85, 0x7b, 0x7a, 0x82, 0x82, 0x7a, 0x82, 0x80, 0x7d, 0x7b, 0x88, 0x88,
  0x4d, 0xcd, 0x92, 0x7f, 0x83, 0x81, 0x7a, 0x85, 0x81, 0x7f, 0x82, 0x7d,
  0x46, 0x7e, 0x81, 0x7f, 0x7f, 0x83, 0x7c, 0x85, 0x80, 0x74, 0x7e, 0x81,
  0x5c, 0x7f, 0x7b, 0x7a, 0x95, 0x83, 0x76, 0x93, 0x80, 0x83, 0x7a, 0x48,
  0x80, 0x84, 0x86, 0x8a, 0x7f, 0x83, 0x77, 0x59, 0x80, 0x72, 0x63, 0x81,
  0x85, 0x7a, 0x7e, 0x82, 0x81, 0xb7, 0x88, 0x92, 0x80, 0x92, 0x90, 0x54,
  0x51, 0x3e, 0x7a, 0x83, 0xea, 0xbd, 0xb2, 0x7f, 0x7c, 0x83, 0x88, 0x82,
  0x83, 0x86, 0x7c, 0x86, 0x84, 0x75, 0x84, 0x80, 0x55, 0x80, 0x7a, 0x7d,
  0xf5, 0x8e, 0x80, 0x9a, 0x84, 0x87, 0x85, 0x8b, 0x87, 0x81, 0x89, 0x8c,
  0x86, 0x87, 0x49, 0x7c, 0x7d, 0x7a, 0x98, 0x83, 0x82, 0x53, 0x7f, 0x58,
  0x86, 0xc8, 0x85, 0x8b, 0x81, 0x83, 0x81, 0x81, 0x7d, 0x80, 0x80, 0x88,
  0x82, 0x7e, 0x7d, 0x7f, 0x80, 0x81, 0x82, 0x94, 0x7b, 0x81, 0x7f, 0x82,
  0x7b, 0x88, 0x7b, 0x7e, 0x7c, 0x82, 0x84, 0x75, 0x88, 0x89, 0x7c, 0x95,
  0x7c, 0x77, 0x7b, 0x80, 0x7c, 0x7f, 0x7d, 0x86, 0x7a, 0x8b, 0x7a, 0x97,
  0x7e, 0x75, 0x78, 0x61, 0x89, 0x76, 0x8c, 0x83, 0xaa, 0x7c, 0x76, 0xad,
  0x81, 0x85, 0x86, 0x81, 0x7d, 0x7e, 0x7a, 0x7d, 0xae, 0x7d, 0x7f, 0x7e,
  0x83, 0x80, 0x83, 0x90, 0x7b, 0x82, 0x7e, 0x84, 0x84, 0x81, 0x80, 0x80,
  0x8d, 0x7d, 0x85, 0x7d, 0xc5, 0x82, 0x79, 0x8f, 0x7d, 0x80, 0x7b, 0x7e,
  0x7b, 0x81, 0x86, 0x8c, 0x54, 0x92, 0x7b, 0x8b, 0x82, 0x7d, 0x7f, 0x8f,
  0x87, 0x7b, 0x83, 0x88, 0x82, 0x7d, 0x7c, 0x86, 0x83, 0x82, 0x85, 0x58,
  0x4a, 0x55, 0x7b, 0x5d, 0xba, 0xa1, 0x82, 0x80, 0x7d, 0x88, 0x82, 0x8b,
  0x82, 0x87, 0x80, 0x88, 0x81, 0x76, 0x81, 0x7e, 0x96, 0x7b, 0x84, 0x78,
  0xd6, 0x58, 0x7c, 0x56, 0x84, 0x82, 0x77, 0x7b, 0x4b, 0x42, 0x9b, 0x89,
  0x7f, 0x8c, 0x7b, 0x80, 0x83, 0x7b, 0x85, 0x87, 0x5e, 0x44, 0x56, 0x8a,
  0x87, 0x7e, 0x7e, 0x82, 0x7f, 0x7f, 0x8b, 0x80, 0x85, 0x80, 0x7d, 0x80,
  0x80, 0x82, 0x84, 0x7d, 0x83, 0x83, 0x80, 0x7e, 0x80, 0x80, 0x82, 0x82,
  0x80, 0x7f, 0x83, 0x5c, 0x7d, 0x7b, 0x63, 0x80, 0x7f, 0x7f, 0x7d, 0x7d,
  0x81, 0x7b, 0x7a, 0x58, 0x5d, 0x84, 0x7c, 0x83, 0x80, 0x82, 0x5b, 0x83,
  0x54, 0x82, 0x7e, 0x78, 0x5f, 0x7d, 0x7e, 0x7c, 0x81, 0x82, 0x83, 0x81,
  0x80, 0x81, 0x91, 0x80, 0x85, 0x82, 0x7d, 0x83, 0x80, 0x7e, 0x85, 0x7e,
  0x7e, 0x7e, 0x7d, 0x7f, 0x81, 0x65, 0x83, 0x7f, 0xc0, 0x84, 0x80, 0x66,
  0x82, 0x68, 0x80, 0x7f, 0x81, 0x82, 0x7c, 0x9a, 0x82, 0x90, 0x7b, 0x7f,
  0x7d, 0x84, 0x9e, 0xd8, 0x7f, 0x7e, 0x60, 0x81, 0x61, 0x84, 0x81, 0x7c,
  0x84, 0x7f, 0x80, 0x7e, 0x7e, 0x82, 0x84, 0x80, 0x81, 0x84, 0x88, 0x81,
  0x82, 0x82, 0x7d, 0x82, 0x82, 0x80, 0x81, 0x82, 0x5c, 0x7e, 0x7e, 0x7f,
  0x82, 0x80, 0x85, 0x7f, 0x86, 0x83, 0x84, 0x66, 0x87, 0x66, 0x7f, 0x80,
  0x7f, 0x86, 0x7e, 0x7d, 0x82, 0x8d, 0x7e, 0x7e, 0x7f, 0x82, 0x7e, 0x9e,
  0x82, 0x81, 0x82, 0x7f, 0x7d, 0x82, 0x80, 0x82, 0x84, 0x82, 0x80, 0x7f,
  0x7f, 0x85, 0x84, 0x7f, 0x59, 0x83, 0x83, 0x7e, 0x82, 0x85, 0x82, 0x83,
  0x84, 0x85, 0x63, 0x84, 0x82, 0x80, 0x82, 0x7c, 0x7b, 0x7f, 0x7e, 0x80,
  0x84, 0x82, 0x86, 0x65, 0x77, 0x80, 0x84, 0x7e, 0x7f, 0x84, 0x83, 0x81,
  0x7f, 0x7c, 0x75, 0x7f, 0x60, 0x80, 0x77, 0x85, 0x7e, 0x7e, 0x7e, 0x85,
  0x82, 0x7f, 0x80, 0x7f, 0x64, 0x7e, 0x80, 0x84, 0x80, 0x82, 0x87, 0x81,
  0x80, 0x82, 0x84, 0x7d, 0x82, 0xc0, 0x7e, 0x83, 0x7e, 0x82, 0x7e, 0x82,
  0x81, 0x80, 0x84, 0x7d, 0x60, 0x81, 0xab, 0x7f, 0xa4, 0xa9, 0x60, 0x81,
  0x81, 0x8e, 0x80, 0x81, 0x7a, 0x88, 0x83, 0x7f, 0x7f, 0x95, 0x82, 0x7f,
  0x81, 0x7d, 0x78, 0x83, 0x7a, 0x7c, 0x83, 0x7f, 0x82, 0x7d, 0x81, 0x81,
  0x84, 0x58, 0x7f, 0x83, 0x81, 0x82, 0x88, 0x83, 0x82, 0x85, 0x64, 0x7d,
  0x81, 0x84, 0x84, 0x84, 0x7f, 0xa6, 0xa7, 0x86, 0x7f, 0x82, 0x83, 0x59,
  0x5f, 0x81, 0x81, 0x55, 0x81, 0x7d, 0x83, 0x82, 0x86, 0xa0, 0x62, 0x80,
  0x98, 0x6f, 0x80, 0x83, 0x80, 0x89, 0x83, 0x80, 0xa2, 0x7c, 0x7c, 0x4e,
  0x7e, 0x7f, 0x7e, 0x7e, 0x83, 0x81, 0x80, 0x80, 0x85, 0x7f, 0x7f, 0x81,
  0x82, 0x5b, 0x82, 0x80, 0x7f, 0x86, 0x78, 0x7f, 0x82, 0x7d, 0x80, 0x80,
  0x7e, 0x7d, 0x80, 0x80, 0x7f, 0x7e, 0xb0, 0x7d, 0x7f, 0x7f, 0x59, 0xab,
  0x89, 0x7b, 0x7c, 0x5a, 0x7d, 0x7b, 0x81, 0x7c, 0x84, 0x81, 0x5b, 0x9e,
  0x80, 0x7e, 0x7c, 0x81, 0x48, 0x7f, 0x7b, 0x8b, 0x7c, 0x7f, 0x7d, 0x5d,
  0x64, 0x81, 0x7c, 0x64, 0x82, 0x81, 0x7e, 0x82, 0x7f, 0x83, 0x81, 0x8a,
  0xa6, 0x81, 0x79, 0x7e, 0x5a, 0x7b, 0xa6, 0x7e, 0x80, 0x81, 0x7a, 0x80,
  0x7e, 0x7d, 0x84, 0x7f, 0x7f, 0x80, 0xa0, 0x80, 0x83, 0x7a, 0x7c, 0x85,
  0x7f, 0x83, 0x7f, 0x81, 0x7f, 0x82, 0x7f, 0x85, 0x64, 0x84, 0x83, 0x80,
  0x80, 0x7b, 0x7d, 0x81, 0x7b, 0x7d, 0x80, 0x7d, 0x7e, 0x82, 0x82, 0x82,
  0x81, 0x5c, 0x9a, 0x82, 0x81, 0x62, 0x81, 0x82, 0xab, 0x80, 0x7d, 0x81,
  0x7f, 0x80, 0x85, 0x7f, 0x80, 0x7f, 0xa8, 0x7e, 0x7f, 0x80, 0x82, 0x62,
  0x7e, 0x80, 0x7c, 0x80, 0x7d, 0x60, 0x7d, 0x84, 0x83, 0x79, 0x81, 0x80,
  0x7a, 0x84, 0x82, 0x86, 0x7f, 0xa1, 0x84, 0x7c, 0xa1, 0x7e, 0x7a, 0x59,
  0x7b, 0x7d, 0x82, 0x7d, 0x7e, 0x7e, 0x80, 0xa0, 0x63, 0x5b, 0x7f, 0x7e,
  0x82, 0x43, 0x7f, 0x7b, 0x7f, 0x8b, 0x88, 0x80, 0x83, 0x69, 0x7d, 0x83,
  0x81, 0x7e, 0x66, 0x7f, 0x81, 0x7f, 0x80, 0x80, 0x7e, 0x81, 0x83, 0x80,
  0x83, 0x7c, 0x80, 0x84, 0x83, 0x88, 0x7b, 0x7d, 0x83, 0x83, 0x7c, 0x84,
  0x81, 0x8a, 0x84, 0x84, 0x81, 0x85, 0x7f, 0x83, 0x80, 0x7f, 0x80, 0x7d,
  0x82, 0x7a, 0x85, 0x7f, 0x81, 0x63, 0x7f, 0x7e, 0x7f, 0x7b, 0x7f, 0x81,
  0x7f, 0x88, 0x7f, 0x80, 0x67, 0x81, 0x80, 0x82, 0x80, 0x80, 0x55, 0x80,
  0x83, 0x7f, 0x86, 0x7f, 0x7e, 0x60, 0x84, 0x81, 0x7c, 0x7e, 0x7f, 0x87,
  0x7d, 0x7f, 0x7e, 0x80, 0x86, 0x83, 0x7f, 0x89, 0x81, 0x7f, 0x83, 0x82,
  0x7f, 0x5e, 0x81, 0x7f, 0x85, 0x7c, 0x7c, 0x7d, 0x68, 0x78, 0x80, 0x80,
  0x82, 0x7f, 0x80, 0x7f, 0x81, 0x7c, 0x7c, 0x83, 0x7f, 0x85, 0x7d, 0x80,
  0x6b, 0x6b, 0x7f, 0x80, 0x80, 0x80, 0x57, 0x81, 0x9a, 0x80, 0x84, 0x7d,
  0x7f, 0x7f, 0x82, 0x7f, 0x7e, 0x7d, 0x7c, 0x87, 0x80, 0x55, 0x7f, 0x7f,
  0x9d, 0x82, 0x80, 0x83, 0x82, 0x65, 0x7e, 0x7f, 0x80, 0x5a, 0x7e, 0x7e,
  0x85, 0x7f, 0x7c, 0x7c, 0x6d, 0x78, 0x7b, 0x81, 0x81, 0x7e, 0x80, 0x7e,
  0x82, 0x7c, 0x80, 0x7f, 0x7f, 0x80, 0x6f, 0x85, 0x83, 0x82, 0x7d, 0x81,
  0x82, 0xa9, 0x80, 0x86, 0x82, 0x7f, 0x82, 0x81, 0x5e, 0x85, 0x84, 0x84,
  0xb4, 0xa1, 0x87, 0xa0, 0xac, 0x8c, 0x7b, 0x7f, 0x7d, 0x83, 0x7f, 0x83,
  0x82, 0x8f, 0x83, 0x7e, 0x5a, 0x83, 0x87, 0x86, 0x61, 0x80, 0x9d, 0x78,
  0x9e, 0x8a, 0x7f, 0x87, 0x7e, 0x66, 0x7f, 0x82, 0x7f, 0x82, 0x7f, 0x9e,
  0x7e, 0x81, 0x5f, 0x83, 0x7d, 0x7e, 0x81, 0x80, 0x7f, 0xa6, 0x7f, 0x87,
  0x85, 0x80, 0x80, 0x81, 0x57, 0x61, 0x84, 0x82, 0x9c, 0x80, 0x87, 0xb5,
  0x95, 0x82, 0x7c, 0x68, 0x7d, 0x7f, 0x82, 0x89, 0x6a, 0x7c, 0x83, 0x80,
  0x81, 0x80, 0x92, 0x80, 0x82, 0x7c, 0x7f, 0x7d, 0x81, 0x88, 0x7a, 0x85,
  0x9f, 0x81, 0x80, 0x65, 0x81, 0x80, 0x7e, 0xa7, 0x7f, 0x81, 0x79, 0x82,
  0x7e, 0x7c, 0x80, 0x7c, 0x80, 0xa7, 0x81, 0x84, 0x85, 0x7e, 0x82, 0x7d,
  0x80, 0x82, 0x83, 0x80, 0x78, 0x7d, 0x81, 0x88, 0x80, 0x7f, 0x7d, 0x68,
  0x7d, 0x9a, 0x83, 0x85, 0x85, 0x7e, 0xa0, 0x81, 0x82, 0x82, 0x89, 0x83,
  0x84, 0x7f, 0x82, 0x7f, 0x81, 0x87, 0x7e, 0x86, 0x9e, 0x81, 0x80, 0x7c,
  0x83, 0x80, 0x80, 0x99, 0x7f, 0x85, 0x7e, 0x83, 0x82, 0x81, 0x7e, 0x7b,
  0x7e, 0x7e, 0x7f, 0x7f, 0x7f, 0x81, 0x80, 0x84, 0x83, 0x82, 0x6c, 0x7f,
  0x80, 0x7c, 0x88, 0x82, 0x81, 0x8b, 0x7f, 0x7e, 0x80, 0x81, 0x64, 0x7f,
  0x7f, 0x90, 0x89, 0x7f, 0x83, 0x7e, 0x68, 0x80, 0x81, 0x7f, 0x80, 0x7a,
  0x64, 0xa2, 0x7e, 0x83, 0x7e, 0x63, 0x82, 0x7f, 0x7e, 0x7c, 0x7a, 0x80,
  0x7f, 0x84, 0x77, 0x84, 0x7e, 0xa0, 0x83, 0x61, 0x80, 0x7f, 0x7f, 0x81,
  0x80, 0x82, 0x81, 0x81, 0x80, 0x81, 0x68, 0x83, 0x9a, 0x7e, 0x76, 0x80,
  0x77, 0x7f, 0x7e, 0x80, 0x62, 0x64, 0x5e, 0x85, 0x80, 0x7c, 0x91, 0x7f,
  0x81, 0x67, 0x88, 0x7e, 0x84, 0x7f, 0x7e, 0x7c, 0x7e, 0x9f, 0x77, 0x82,
  0x79, 0x68, 0x7f, 0x80, 0x7f, 0x7e, 0x7d, 0x99, 0x7f, 0x84, 0x76, 0x82,
  0x7c, 0x95, 0x84, 0x79, 0x68, 0x7f, 0x7f, 0x80, 0x80, 0x80, 0x80, 0x7f,
  0xaa, 0x67, 0x6b, 0x80, 0x7b, 0x7f, 0x88, 0x7f, 0x7b, 0x5f, 0x7c, 0x7e,
  0x7d, 0x7a, 0x81, 0x84, 0x82, 0x7f, 0x85, 0x80, 0x81, 0x6a, 0x83, 0x81,
  0x85, 0x80, 0x81, 0x7a, 0x7c, 0x7f, 0x7b, 0x82, 0x7d, 0x62, 0x7f, 0x7e,
  0x82, 0x7f, 0x7e, 0x81, 0x80, 0x7f, 0x7f, 0x68, 0x80, 0x80, 0x80, 0x80,
  0x5c, 0xa5, 0x7f, 0x9d, 0x7f, 0x7f, 0x81, 0x6a, 0x83, 0x7f, 0x81, 0xd4,
  0x81, 0x80, 0x6a, 0x80, 0x7d, 0x7f, 0x7e, 0x81, 0x7f, 0x64, 0x7f, 0x7f,
  0x80, 0x7f, 0x81, 0x7f, 0x68, 0x81, 0x7e, 0x81, 0x81, 0x80, 0x7f, 0x80,
  0x66, 0x7d, 0x60, 0x6b, 0x58, 0x86, 0x7f, 0x83, 0x7f, 0x80, 0x7e, 0x7f,
  0x9e, 0x7f, 0x7f, 0x81, 0x7d, 0x7f, 0x82, 0x80, 0x5f, 0xbc, 0x7e, 0x82,
  0x81, 0x7f, 0x80, 0x6c, 0x83, 0x7f, 0x83, 0xcb, 0x67, 0x81, 0x6c, 0x7f,
  0x9b, 0x7e, 0x7d, 0x80, 0x7f, 0x7f, 0x7f, 0x80, 0x81, 0x7d, 0x80, 0x7f,
  0x5f, 0x80, 0x7f, 0x80, 0x81, 0x81, 0x61, 0x80, 0x80, 0x7f, 0x61, 0x81,
  0x7f, 0x85, 0x7f, 0x97, 0x7e, 0x80, 0x7f, 0x80, 0x80, 0x7f, 0x66, 0x80,
  0x7f, 0x7f, 0x80, 0x80, 0x7f, 0x80, 0x61, 0x81, 0x81, 0x80, 0x7f, 0x7f,
  0x82, 0x7f, 0x82, 0x7f, 0x68, 0x81, 0x80, 0x7e, 0x7f, 0x7c, 0x7d, 0x80,
  0x80, 0x7f, 0x7f, 0x81, 0x80, 0x7b, 0x69, 0x9c, 0x50, 0x7f, 0x81, 0x80,
  0x82, 0x80, 0x7e, 0x7f, 0x96, 0x69, 0x6b, 0x81, 0x7e, 0x84, 0x7f, 0x81,
  0x7e, 0x7f, 0x7f, 0x82, 0xa5, 0x80, 0x7f, 0x80, 0x7f, 0x80, 0x81, 0x7f,
  0x7e, 0x97, 0x95, 0x7f, 0x64, 0x64, 0x81, 0x81, 0x7d, 0x80, 0x82, 0x7f,
  0x6c, 0x7e, 0x7f, 0x80, 0x7f, 0x81, 0x7f, 0x68, 0x65, 0x60, 0x80, 0x80,
  0x7f, 0x7e, 0x80, 0x80, 0x63, 0x80, 0x55, 0x7f, 0x7f, 0x64, 0x7f, 0x83,
  0x7f, 0x7f, 0x55, 0x80, 0x69, 0x83, 0x80, 0x80, 0x6b, 0x80, 0x80, 0x83,
  0xa6, 0x81, 0x6a, 0x81, 0x7c, 0x7f, 0x82, 0x7f, 0x7f, 0x7e, 0x7f, 0x7f,
  0x69, 0x67, 0x80, 0x5e, 0x7d, 0x80, 0x85, 0x7e, 0x7f, 0x7e, 0x81, 0x7e,
  0x7f, 0x7f, 0x66, 0x81, 0x82, 0x81, 0x81, 0x81, 0x7f, 0x7b, 0x81, 0x7f,
  0x7f, 0x98, 0x4c, 0x7d, 0x95, 0x80, 0x67, 0x83, 0x80, 0x80, 0x66, 0x7f,
  0x7e, 0x81, 0x80, 0x80, 0x69, 0x7f, 0x95, 0x82, 0x7e, 0x81, 0x64, 0x81,
  0x7b, 0x7f, 0x82, 0x80, 0x80, 0x97, 0x7f, 0x80, 0x80, 0x81, 0x80, 0x7f,
  0x5e, 0x80, 0x83, 0x7f, 0x80, 0x7f, 0x81, 0x7d, 0x80, 0x7d, 0x7e, 0x80,
  0x83, 0x80, 0x6b, 0x81, 0x7e, 0x78, 0x80, 0x80, 0x7f, 0x93, 0x5a, 0x9a,
  0x80, 0x7f, 0x7d, 0x81, 0x82, 0x80, 0x7f, 0x7f, 0x7d, 0x81, 0x7f, 0x7f,
  0x62, 0x7f, 0x80, 0x6c, 0x80, 0x6c, 0x80, 0x81, 0x80, 0x80, 0x81, 0x80,
  0x80, 0x7f, 0x7f, 0x80, 0x6c, 0x80, 0x7f, 0x80, 0x80, 0x80, 0x82, 0x80,
  0x80, 0x7f, 0x82, 0x7f, 0x7e, 0x83, 0x7f, 0x82, 0x7f, 0x57, 0x7f, 0x60,
  0x7f, 0x67, 0x81, 0x7e, 0x81, 0x81, 0x7f, 0x7e, 0x7f, 0x67, 0x7f, 0x81,
  0x7f, 0x80, 0x7d, 0x80, 0x61, 0x82, 0x81, 0x6a, 0x7f, 0x81, 0x7f, 0x83,
  0xa0, 0x81, 0x7e, 0x82, 0x7d, 0x80, 0x81, 0x80, 0x80, 0x9a, 0x97, 0x80,
  0x81, 0x80, 0x7f, 0x6b, 0x80, 0x80, 0x82, 0x7f, 0x80, 0x7e, 0x84, 0x7e,
  0x7e, 0x81, 0x7e, 0x82, 0x80, 0x80, 0xa6, 0x67, 0x80, 0x7e, 0x81, 0x7e,
  0x7f, 0x80, 0x81, 0x7d, 0x7e, 0x7f, 0x80, 0x82, 0x80, 0xa0, 0x63, 0x80,
  0x80, 0x9d, 0x6a, 0x7f, 0x7e, 0x80, 0xa0, 0x83, 0x7f, 0x81, 0x7e, 0x82,
  0x7e, 0x80, 0x82, 0x80, 0x68, 0x99, 0x7f, 0x7f, 0x80, 0x80, 0x80, 0x80,
  0x80, 0x7f, 0x81, 0x80, 0x80, 0x80, 0x84, 0x7c, 0x7f, 0x7d, 0x7f, 0x81,
  0x82, 0x9c, 0x81, 0x81, 0x7f, 0x7b, 0x80, 0x80, 0xb3, 0x81, 0x81, 0x7d,
  0x81, 0x7f, 0x7d, 0x81, 0x81, 0x83, 0x7f, 0x81, 0x80, 0x82, 0x80, 0x6a,
  0x9c, 0x80, 0x94, 0x84, 0x7f, 0x98, 0x7f, 0x7f, 0x7f, 0x65, 0x81, 0x7f,
  0xb3, 0xa2, 0x81, 0x80, 0x81, 0x80, 0x80, 0x83, 0x7f, 0x80, 0x7f, 0x80,
  0x7f, 0x7f, 0x7e, 0x66, 0x81, 0x6d, 0x81, 0x7f, 0x99, 0x80, 0x80, 0x81,
  0x65, 0x81, 0x7f, 0x92, 0x61, 0x78, 0x7e, 0x80, 0x81, 0x7e, 0x7c, 0x94,
  0x80, 0x7e, 0x7c, 0x7f, 0x7c, 0x7e, 0x7f, 0x69, 0x80, 0x7f, 0x80, 0x80,
  0x7f, 0x7d, 0x7f, 0x80, 0x80, 0x69, 0x7f, 0x7f, 0xa3, 0x80, 0x81, 0xa0,
  0x82, 0x7f, 0x80, 0x83, 0x7f, 0x80, 0x67, 0x7f, 0x80, 0x80, 0x91, 0x6e,
  0x94, 0x65, 0x9d, 0x7e, 0x7e, 0x7f, 0x80, 0x68, 0x7f, 0x80, 0x81, 0x7f,
  0x80, 0x7b, 0x7e, 0x81, 0x81, 0x7f, 0x7d, 0x81, 0x80, 0x7e, 0x7c, 0x7f,
  0x7e, 0x92, 0x80, 0x6f, 0x7f, 0x7f, 0x7f, 0x80, 0x61, 0x7e, 0x66, 0x80,
  0x92, 0x7f, 0x7f, 0x80, 0x7f, 0x80, 0x6a, 0xa0, 0x7f, 0x6a, 0x7f, 0x6e,
  0x7f, 0x68, 0x7d, 0x7f, 0x80, 0x63, 0x92, 0x6b, 0x80, 0x80, 0x80, 0x7f,
  0x7e, 0x7e, 0x7f, 0x7f, 0x7f, 0x7f, 0x7e, 0x80, 0x80, 0x9d, 0x7d, 0x82,
  0x7e, 0x7e, 0x7b, 0x7f, 0x80, 0x7e, 0x7d, 0x80, 0x7f, 0xb7, 0x80, 0x80,
  0x7f, 0x80, 0x80, 0x80, 0x94, 0x80, 0x7b, 0x80, 0x7e, 0x7d, 0x62, 0x7f,
  0x80, 0x7f, 0x80, 0x7f, 0x7f, 0x7e, 0x80, 0x81, 0x97, 0x80, 0x80, 0x93,
  0x7d, 0x7f, 0x69, 0x6f, 0x7e, 0x66, 0x80, 0x80, 0x80, 0x7e, 0x6a, 0x81,
  0x80, 0x68, 0x80, 0x7f, 0x5c, 0x7c, 0x80, 0x7f, 0x80, 0x7f, 0x80, 0x80,
  0x81, 0x61, 0x7c, 0x7f, 0x7e, 0x60, 0x7f, 0x7e, 0x7f, 0x7f, 0x80, 0x7e,
  0x9b, 0x7f, 0x7c, 0x81, 0x7f, 0x7f, 0x80, 0x7e, 0x6a, 0x80, 0x7f, 0x7f,
  0x80, 0x7f, 0x7f, 0x7f, 0x7f, 0x6a, 0x7e, 0x81, 0x7f, 0x7f, 0x80, 0x80,
  0x80, 0x80, 0x7d, 0x80, 0x69, 0x7e, 0x60, 0x80, 0x80, 0x80, 0x80, 0x81,
  0x67, 0x7e, 0x80, 0x7e, 0x7f, 0x7f, 0x80, 0x7e, 0x80, 0x67, 0x7d, 0x80,
  0x80, 0x5d, 0x7f, 0x7e, 0x80, 0x7f, 0x7f, 0x98, 0x7e, 0x7e, 0x7c, 0x81,
  0x80, 0x6b, 0x80, 0x7f, 0x80, 0x80, 0x81, 0x80, 0x7f, 0x9c, 0x7e, 0x80,
  0x59, 0x80, 0x7c, 0x80, 0x7d, 0x7f, 0x7f, 0x7f, 0x80, 0x80, 0x7b, 0x81,
  0x5b, 0x7e, 0x64, 0x7e, 0x80, 0x80, 0x80, 0x83, 0x7f, 0x6d, 0x81, 0x9b,
  0x7d, 0x7d, 0x80, 0x7e, 0x9c, 0x80, 0x80, 0x7f, 0x80, 0x80, 0x7f, 0x7f,
  0x80, 0x7f, 0x80, 0x81, 0x80, 0xa9, 0x7e, 0x7f, 0x7f, 0x58, 0x6e, 0x7f,
  0x92, 0x7e, 0x7f, 0x80, 0x7e, 0x80, 0x7f, 0x7f, 0x7f, 0x7f, 0x80, 0x80,
  0x7e, 0x7e, 0x81, 0x6e, 0x7e, 0x7d, 0x7f, 0x7e, 0x80, 0x7e, 0x7f, 0x7f,
  0x80, 0x7e, 0x80, 0x81, 0x80, 0x7e, 0x80, 0x7f, 0x80, 0x80, 0x81, 0xa2,
  0x60, 0x7f, 0x7e, 0x7f, 0x7f, 0x81, 0x80, 0x7f, 0x92, 0x80, 0x7f, 0x7d,
  0x80, 0x80, 0x7e, 0x7f, 0x80, 0x56, 0x81, 0x80, 0x81, 0x80, 0x7e, 0x80,
  0x7f, 0x81, 0x7f, 0x7e, 0x7f, 0x7f, 0x7e, 0x81, 0x80, 0x80, 0x80, 0x80,
  0x80, 0x80, 0x94, 0x7e, 0x80, 0x7e, 0x80, 0x7f, 0x7f, 0x80, 0x7f, 0x81,
  0x80, 0x7f, 0x7f, 0x7f, 0x95, 0x7e, 0x80, 0x94, 0x6a, 0x7f, 0x7f, 0x80,
  0x7e, 0x81, 0x81, 0x81, 0x7f, 0x80, 0x7f, 0x7e, 0x7f, 0x81, 0x7f, 0x7f,
  0x80, 0x7e, 0x80, 0x7f, 0x80, 0x80, 0x81, 0x6b, 0x6a, 0x81, 0x7f, 0x7d,
  0x7f, 0x7f, 0x7d, 0x81, 0x80, 0x7f, 0x80, 0x80, 0x7e, 0x80, 0x94, 0x7f,
  0x7f, 0x80, 0x7f, 0x7d, 0x80, 0x98, 0x7f, 0x81, 0x97, 0x7f, 0x6c, 0x81,
  0x7f, 0x7d, 0x7e, 0x99, 0x80, 0x7f, 0x81, 0x7f, 0x7f, 0x81, 0x93, 0x80,
  0x98, 0x80, 0x81, 0x80, 0x9b, 0x7f, 0x7b, 0x84, 0x9a, 0x7d, 0x9d, 0x6b,
  0x7c, 0x9b, 0x81, 0x7f, 0x68, 0x80, 0x7f, 0x7d, 0x81, 0x7f, 0x6d, 0x9a,
  0x70, 0x57, 0x81, 0x83, 0xb1, 0x8f, 0xa7, 0x7d, 0x80, 0x6c, 0x9a, 0x83,
  0x7d, 0xb2, 0x80, 0x81, 0x7d, 0x78, 0x97, 0x7e, 0x82, 0x7d, 0x69, 0x80,
  0x86, 0x8f, 0x65, 0x7f, 0x83, 0x69, 0x7e, 0xaa, 0x90, 0x79, 0x6a, 0x81,
  0x94, 0x7f, 0x77, 0x83, 0x79, 0x7d, 0x7d, 0x81, 0x7f, 0x64, 0x81, 0x80,
  0x82, 0x80, 0x80, 0x6b, 0x93, 0x7e, 0x7f, 0x7e, 0x81, 0x5e, 0x81, 0x84,
  0x7c, 0x7f, 0x7d, 0x80, 0x66, 0x80, 0x80, 0x80, 0x93, 0x84, 0x6c, 0x83,
  0x95, 0x7d, 0x7f, 0x7c, 0x81, 0x7b, 0x7f, 0x81, 0x84, 0x7c, 0x7d, 0x7e,
  0x83, 0x80, 0x7f, 0x81, 0x94, 0x7d, 0x7f, 0x81, 0x81, 0x80, 0x79, 0x86,
  0x7e, 0x80, 0x7d, 0x83, 0x80, 0x6d, 0x6e, 0x7f, 0x82, 0x80, 0x80, 0x67,
  0x91, 0x80, 0x95, 0x7e, 0x87, 0x84, 0x81, 0x89, 0x7a, 0x81, 0x6b, 0x81,
  0x80, 0x84, 0x82, 0x7e, 0x94, 0x74, 0x7d, 0x99, 0xa4, 0x7e, 0x81, 0x7f,
  0x82, 0x61, 0x83, 0x80, 0x84, 0x7e, 0x7c, 0x7d, 0x83, 0x81, 0x81, 0x84,
  0x97, 0x7f, 0x80, 0x98, 0x94, 0x7f, 0x81, 0x81, 0xb5, 0x7a, 0x7c, 0x62,
  0x9a, 0x6b, 0x7d, 0x7e, 0x6b, 0x7f, 0x7e, 0x7e, 0xaa, 0x7d, 0x67, 0x5f,
  0x84, 0x7c, 0x7e, 0x7b, 0x7e, 0x8d, 0x7d, 0x6c, 0x67, 0x7f, 0x96, 0x85,
  0x94, 0xcb, 0x6e, 0x83, 0x55, 0x7a, 0x7f, 0x82, 0x85, 0x7d, 0x82, 0x93,
  0x6f, 0x83, 0x80, 0x7f, 0x7e, 0x7f, 0x80, 0x90, 0x7c, 0x7d, 0x7a, 0x6a,
  0x99, 0x83, 0x7a, 0x82, 0x78, 0x7a, 0x7d, 0x83, 0x83, 0x7f, 0x7e, 0x96,
  0x82, 0x80, 0x7f, 0x68, 0x7e, 0x7e, 0x7f, 0x81, 0x7d, 0x7b, 0x64, 0x7d,
  0x76, 0x78, 0x7a, 0x7e, 0x83, 0x82, 0x83, 0x82, 0x82, 0xa8, 0x7e, 0x71,
  0x7f, 0x7e, 0x80, 0x7e, 0x82, 0x77, 0x7f, 0x78, 0x85, 0x80, 0x68, 0x7f,
  0x80, 0x7f, 0x81, 0x7c, 0x90, 0x7e, 0x78, 0x67, 0x9f, 0x98, 0x7b, 0x72,
  0x7e, 0x7b, 0x7d, 0x84, 0x85, 0x7f, 0x7d, 0x9d, 0x81, 0x7e, 0x81, 0x7c,
  0x80, 0x7e, 0x81, 0x81, 0xa7, 0x7d, 0x63, 0x82, 0x76, 0x7b, 0x7d, 0x80,
  0x83, 0x88, 0x84, 0x81, 0x83, 0x80, 0x7b, 0x84, 0x93, 0x7d, 0x80, 0x82,
  0x81, 0x6a, 0x85, 0x7b, 0x6f, 0x80, 0x66, 0x80, 0x85, 0x7f, 0x82, 0x7c,
  0x7d, 0x7f, 0x77, 0x7c, 0x85, 0x80, 0xa6, 0x80, 0x96, 0x7a, 0x7f, 0x7d,
  0x80, 0x5f, 0x80, 0x7b, 0x80, 0x80, 0x7e, 0x79, 0x81, 0x7e, 0x7e, 0x6b,
  0x81, 0x7c, 0x7b, 0x79, 0x80, 0x89, 0x80, 0x7e, 0x7d, 0x6c, 0x7d, 0x80,
  0x80, 0x8b, 0x7c, 0x82, 0x80, 0x77, 0x7f, 0x81, 0x7f, 0x7c, 0x81, 0x7a,
  0x82, 0x7c, 0x94, 0x80, 0x7c, 0x7e, 0x82, 0x7d, 0x81, 0x7b, 0x7e, 0x7e,
  0x83, 0x82, 0x7b, 0x7e, 0x7e, 0x7b, 0x7e, 0x81, 0x81, 0x7d, 0x82, 0x7f,
  0x7f, 0x80, 0x7d, 0x7b, 0x7f, 0x7d, 0x7e, 0x7f, 0x80, 0x7a, 0x7d, 0x7e,
  0x7a, 0x80, 0x80, 0x7e, 0x64, 0x81, 0x7e, 0x7d, 0x80, 0x7e, 0x7e, 0x83,
  0x7e, 0x7a, 0x7e, 0x7e, 0x7b, 0x77, 0x82, 0x78, 0x86, 0x7d, 0x7e, 0x94,
  0x7f, 0x7f, 0x82, 0x79, 0x82, 0x7b, 0x7c, 0x7d, 0x85, 0x85, 0x6c, 0x7e,
  0x81, 0x8e, 0x7f, 0x81, 0x6c, 0x7f, 0x80, 0x81, 0x80, 0x7f, 0x80, 0x7b,
  0x7e, 0x9c, 0x7f, 0x80, 0x83, 0x7e, 0x7e, 0x80, 0x78, 0x85, 0x80, 0x7f,
  0x7d, 0x86, 0x7f, 0x90, 0x81, 0x5d, 0x79, 0x84, 0x80, 0x79, 0x68, 0x82,
  0x79, 0x7c, 0x70, 0x7b, 0x86, 0x7a, 0x7d, 0x7e, 0x6e, 0x80, 0x81, 0x78,
  0x7e, 0x7a, 0x7b, 0x91, 0x7e, 0x7e, 0x7d, 0x88, 0x85, 0x84, 0x86, 0x82,
  0x7f, 0x81, 0x7d, 0x80, 0x7f, 0x81, 0x7f, 0xa6, 0x81, 0x80, 0x7d, 0xa3,
  0x38, 0x60, 0x89, 0x7e, 0x7e, 0x7c, 0x7e, 0x7d, 0x65, 0x7e, 0x5f, 0x7d,
  0x96, 0x7d, 0xb4, 0x7e, 0x82, 0x83, 0x85, 0x7e, 0x7c, 0x85, 0x83, 0x65,
  0x7f, 0x69, 0x7f, 0x82, 0x5e, 0x7f, 0x7f, 0x7e, 0x81, 0x85, 0x7f, 0x82,
  0xa8, 0x7f, 0x7d, 0x86, 0x87, 0x50, 0x83, 0x82, 0x7f, 0x81, 0x99, 0x7f,
  0x7f, 0x7e, 0x62, 0x85, 0xab, 0x80, 0x7d, 0xed, 0x57, 0x7e, 0x8c, 0x7d,
  0x80, 0x7e, 0x7a, 0x80, 0x66, 0x80, 0x57, 0x50, 0x80, 0x7c, 0xc8, 0x82,
  0x62, 0x81, 0x88, 0x7a, 0x79, 0x8a, 0x86, 0x81, 0x7e, 0x8e, 0x82, 0x81,
  0x82, 0x7e, 0x7f, 0xa0, 0x54, 0x7e, 0x7f, 0x82, 0x9d, 0x7d, 0x7c, 0x83,
  0x83, 0x51, 0x86, 0x80, 0x80, 0x83, 0x7a, 0x7d, 0x7e, 0x82, 0x80, 0x5a,
  0x82, 0x7f, 0x7d, 0xbc, 0x80, 0x83, 0x87, 0x80, 0x83, 0x78, 0x7d, 0x81,
  0x83, 0x7e, 0x7d, 0x7c, 0x7f, 0xa8, 0x84, 0x7f, 0x80, 0x86, 0x8b, 0x7e,
  0x7d, 0x81, 0x84, 0x7e, 0x7f, 0x85, 0x87, 0x7f, 0x7f, 0x80, 0x80, 0x7f,
  0x7d, 0x7d, 0x7e, 0x82, 0x7e, 0xb0, 0x88, 0x41, 0x82, 0x7e, 0x7c, 0x81,
  0x85, 0x62, 0x7f, 0x7f, 0x7c, 0x80, 0x7e, 0x83, 0x7e, 0x80, 0x82, 0x7e,
  0x49, 0x7e, 0x7f, 0x7c, 0x7a, 0x7e, 0x80, 0x7d, 0x8e, 0x83, 0x83, 0x7c,
  0x7d, 0x78, 0x7d, 0x61, 0x82, 0x58, 0x7e, 0x7c, 0x81, 0x81, 0x7f, 0x7f,
  0x78, 0x7b, 0x61, 0x7f, 0x80, 0x5d, 0x80, 0x7e, 0x63, 0x7e, 0x82, 0x85,
  0x9d, 0x8c, 0x85, 0x4e, 0x7f, 0x7e, 0x7c, 0x7f, 0x8d, 0x7e, 0xb4, 0x7e,
  0x7f, 0x80, 0x83, 0x82, 0xa6, 0x7f, 0x83, 0x7f, 0x4d, 0x80, 0x81, 0x7b,
  0x7a, 0x82, 0x7e, 0x7f, 0x8e, 0x86, 0x83, 0x80, 0x80, 0x79, 0x83, 0x86,
  0x5d, 0x7c, 0x7b, 0x80, 0x81, 0x86, 0x82, 0x7e, 0x7c, 0x7d, 0x68, 0x7e,
  0x84, 0x7e, 0x7f, 0x7e, 0x51, 0x7e, 0x81, 0x83, 0x7f, 0x85, 0x82, 0x61,
  0x81, 0x81, 0x7d, 0x80, 0x89, 0x81, 0x7a, 0x7f, 0x81, 0x61, 0x7e, 0x82,
  0x80, 0x7d, 0x83, 0x9d, 0x5f, 0x7d, 0x7f, 0x7e, 0x4f, 0x7c, 0x5d, 0x80,
  0x8e, 0x84, 0x82, 0x97, 0x80, 0xaa, 0x83, 0x81, 0x7f, 0x7e, 0x5e, 0x82,
  0x84, 0x82, 0x86, 0x7e, 0x7f, 0x7d, 0x8d, 0x7c, 0x82, 0x7f, 0x7f, 0x7f,
  0x60, 0x7c, 0x81, 0x82, 0x81, 0x80, 0x7e, 0x7f, 0x7f, 0x80, 0x7e, 0x88,
  0x5e, 0x81, 0x80, 0x85, 0x83, 0x81, 0x80, 0x82, 0x7f, 0x81, 0x7f, 0x7e,
  0x7d, 0x88, 0x7c, 0xa2, 0x80, 0x81, 0x80, 0x7b, 0x82, 0x83, 0x81, 0x7f,
  0x7a, 0x79, 0x7c, 0x7e, 0x80, 0x7e, 0x7f, 0x83, 0x7c, 0x7f, 0x7e, 0x7c,
  0xae, 0x7f, 0x7e, 0x82, 0x85, 0x7f, 0x80, 0x83, 0x80, 0x81, 0x83, 0x80,
  0x81, 0x7f, 0x82, 0xa3, 0x81, 0x7c, 0x7e, 0x83, 0x67, 0x81, 0xa7, 0x81,
  0x7f, 0x80, 0x83, 0x7d, 0xa2, 0x82, 0x80, 0x9c, 0x5e, 0x85, 0x7f, 0x83,
  0x80, 0x85, 0x81, 0x7d, 0x82, 0x84, 0x7e, 0x83, 0x80, 0x7d, 0xa0, 0x9c,
  0x80, 0x7d, 0x7d, 0x83, 0x7f, 0x88, 0x7e, 0x7e, 0xa0, 0x84, 0x82, 0x7f,
  0x87, 0xb8, 0x81, 0x81, 0x7f, 0x7f, 0x84, 0x7e, 0x82, 0x7c, 0x81, 0x7f,
  0x7f, 0x7c, 0x7d, 0x80, 0x5b, 0x80, 0x7c, 0x82, 0x83, 0x80, 0x84, 0x7c,
  0x7d, 0x82, 0x80, 0x7e, 0x80, 0x83, 0x7f, 0x87, 0x86, 0x80, 0x82, 0x7f,
  0x81, 0x83, 0x7c, 0x7e, 0xa0, 0x96, 0x7f, 0x7f, 0x7c, 0x7f, 0x81, 0x84,
  0x82, 0x84, 0x7f, 0x80, 0x80, 0x85, 0x88, 0x80, 0x87, 0xa0, 0x7e, 0x82,
  0x7e, 0x80, 0x81, 0x81, 0x81, 0xa0, 0x96, 0x82, 0xa3, 0x81, 0x7f, 0x81,
  0x83, 0x7d, 0x7f, 0x7f, 0x7f, 0x80, 0x7e, 0x67, 0x7f, 0x81, 0x85, 0x55,
  0x7b, 0x7e, 0x83, 0x7e, 0x5e, 0x67, 0x7e, 0x7e, 0x81, 0x84, 0x7e, 0x9d,
  0x83, 0x7d, 0x81, 0x80, 0x7f, 0x87, 0x7e, 0x7d, 0x80, 0x80, 0x80, 0x63,
  0x81, 0x80, 0x7f, 0x7f, 0x7f, 0xa5, 0x7f, 0x80, 0x81, 0x82, 0x7d, 0x82,
  0x81, 0x7d, 0x7f, 0x7f, 0x82, 0x59, 0x7f, 0x82, 0x6b, 0x7d, 0x80, 0x7f,
  0x7e, 0x7d, 0x7f, 0x5e, 0x7e, 0x82, 0x85, 0x58, 0x5b, 0x7e, 0x83, 0x7c,
  0x5e, 0x81, 0x80, 0x7e, 0x96, 0x7e, 0x7e, 0x7e, 0x82, 0x7b, 0x81, 0x7d,
  0x9b, 0x87, 0x5b, 0x66, 0x7e, 0x7e, 0x81, 0x7d, 0x81, 0x7e, 0x7b, 0x80,
  0x95, 0xae, 0x7f, 0x5c, 0x80, 0x82, 0x7e, 0x80, 0x7e, 0x80, 0x83, 0x81,
  0x6c, 0x5b, 0x80, 0x81, 0x83, 0x7b, 0x7f, 0x80, 0x7f, 0x80, 0x80, 0x69,
  0x9e, 0x80, 0x83, 0x53, 0x7b, 0x80, 0x82, 0x7b, 0x81, 0x83, 0x80, 0x7e,
  0xa0, 0x7e, 0x7d, 0x7f, 0x83, 0x7e, 0x6a, 0x81, 0x7f, 0x72, 0x5e, 0x84,
  0x7d, 0x82, 0x7f, 0x62, 0x81, 0x7c, 0x80, 0x82, 0x7f, 0x83, 0x80, 0x5b,
  0x7e, 0x69, 0x7c, 0x82, 0x80, 0x84, 0x78, 0x82, 0x7b, 0x69, 0x81, 0x80,
  0x7e, 0x7f, 0x94, 0x8d, 0x7e, 0x82, 0x82, 0x61, 0x82, 0x80, 0x82, 0x66,
  0x7a, 0x81, 0x82, 0x80, 0x7b, 0x69, 0x84, 0x80, 0x81, 0x82, 0x70, 0x63,
  0x79, 0x7f, 0x81, 0x7f, 0x97, 0x80, 0x64, 0x82, 0x68, 0x81, 0x7f, 0x80,
  0x7e, 0x6b, 0x80, 0x82, 0x7d, 0x86, 0x80, 0x80, 0x7f, 0x82, 0x7d, 0x82,
  0x82, 0x85, 0x7b, 0x81, 0x7f, 0x7f, 0x7f, 0x81, 0x7f, 0x81, 0x80, 0xa9,
  0x80, 0x82, 0x84, 0x5a, 0x82, 0x6c, 0x84, 0x82, 0x78, 0x7e, 0x82, 0x7e,
  0x7a, 0x85, 0x84, 0x80, 0x81, 0x7a, 0x61, 0x82, 0x7a, 0x7e, 0x7f, 0x81,
  0x94, 0x7d, 0x68, 0x85, 0x7e, 0x7e, 0x7f, 0x7f, 0x7f, 0x7f, 0x81, 0x9a,
  0x7c, 0xa2, 0x66, 0x83, 0x7f, 0x82, 0x7e, 0x84, 0x81, 0x84, 0x5a, 0x62,
  0x7f, 0x7c, 0x81, 0x80, 0x95, 0x80, 0x80, 0x8c, 0x7e, 0x83, 0x82, 0x81,
  0x81, 0x82, 0x82, 0x80, 0x79, 0x7d, 0x80, 0x7d, 0x7e, 0x86, 0x84, 0x80,
  0x81, 0x7b, 0x85, 0x52, 0x7a, 0x7e, 0x7f, 0x80, 0x7f, 0x5e, 0x81, 0x87,
  0x80, 0x81, 0x7e, 0x81, 0x7f, 0x7e, 0x80, 0x80, 0x80, 0xb1, 0x81, 0x80,
  0x7f, 0x81, 0x7b, 0x9a, 0x84, 0x89, 0x7e, 0x7f, 0x80, 0x7e, 0x80, 0x7e,
  0x81, 0x82, 0xa0, 0x80, 0x7d, 0x7f, 0x82, 0x7e, 0x87, 0x81, 0x81, 0x80,
  0x81, 0x7c, 0x7d, 0x7b, 0x80, 0x67, 0x88, 0x83, 0x81, 0x77, 0x64, 0x80,
  0x7a, 0x7f, 0x81, 0x82, 0x4e, 0x80, 0x7f, 0x79, 0x86, 0x7f, 0x79, 0x84,
  0x7e, 0x82, 0x7e, 0x67, 0x7d, 0x81, 0x80, 0x87, 0x82, 0x7f, 0x7e, 0x85,
  0x83, 0x83, 0x7e, 0x7f, 0x84, 0x7f, 0x7f, 0x80, 0x7f, 0x82, 0x7e, 0xa1,
  0x7e, 0x7f, 0x82, 0x80, 0x6f, 0x85, 0x84, 0x80, 0x80, 0x7c, 0x7e, 0x7b,
  0x82, 0x80, 0x86, 0x85, 0x7f, 0xa0, 0x6c, 0x7f, 0x5e, 0x7b, 0x82, 0x82,
  0x81, 0x7e, 0x80, 0x7c, 0x83, 0x7d, 0x7c, 0x83, 0x81, 0x82, 0x80, 0x7f,
  0x7a, 0x80, 0x7e, 0x86, 0x82, 0x7f, 0x7f, 0x85, 0x81, 0x9b, 0x81, 0x7e,
  0x82, 0x7f, 0x84, 0x80, 0x7d, 0x80, 0x7f, 0x9a, 0x7c, 0x81, 0x81, 0x80,
  0x83, 0x81, 0x82, 0x7f, 0x7e, 0x7e, 0x7e, 0x7b, 0x83, 0x81, 0x85, 0x82,
  0x7f, 0x77, 0x84, 0x94, 0x7d, 0x62, 0x7e, 0x7f, 0x7f, 0x80, 0x80, 0x7b,
  0x7e, 0x7f, 0x7c, 0x86, 0x66, 0x80, 0x65, 0x80, 0x7c, 0x7f, 0x7e, 0x84,
  0x81, 0x7e, 0x7f, 0x84, 0x7f, 0x83, 0x86, 0x7f, 0x86, 0x80, 0x81, 0x84,
  0x7e, 0x7f, 0x7f, 0x84, 0x80, 0x87, 0x81, 0x81, 0x82, 0x82, 0x82, 0x85,
  0x7e, 0x85, 0x82, 0x88, 0x80, 0x80, 0x7f, 0x81, 0x85, 0x82, 0x85, 0x7c,
  0x7f, 0x7f, 0x81, 0x5f, 0x81, 0x80, 0x82, 0x83, 0x7e, 0x7f, 0x80, 0x7d,
  0x80, 0x84, 0x87, 0x7f, 0x8b, 0x84, 0x7f, 0x81, 0x65, 0x81, 0x80, 0x82,
  0x80, 0x7f, 0x88, 0x7f, 0x7e, 0x7d, 0x87, 0xa1, 0x80, 0x81, 0x7d, 0x81,
  0x7f, 0x85, 0x82, 0x82, 0x82, 0x81, 0x82, 0x7f, 0x7f, 0x85, 0x82, 0x88,
  0x7d, 0x87, 0x80, 0x80, 0x65, 0x83, 0x89, 0x7c, 0x81, 0x80, 0x7e, 0x7f,
  0x7f, 0x7b, 0x82, 0x82, 0x7d, 0x7e, 0x7e, 0x80, 0x7e, 0x87, 0x80, 0x7e,
  0x85, 0x86, 0x7e, 0x7d, 0x7f, 0x7f, 0x81, 0x81, 0x5c, 0x80, 0x86, 0x80,
  0x81, 0x81, 0x84, 0x82, 0x82, 0x80, 0x7e, 0x81, 0x82, 0x84, 0x82, 0x82,
  0x84, 0x83, 0x81, 0x7d, 0x7e, 0x80, 0x80, 0x88, 0x7c, 0x7e, 0x80, 0x7e,
  0x6c, 0x89, 0x8b, 0x80, 0x81, 0x7b, 0x80, 0x7e, 0x81, 0x7e, 0x82, 0x9b,
  0x86, 0x85, 0x78, 0x7c, 0x80, 0x86, 0x7f, 0x7f, 0x87, 0x86, 0x7f, 0x7a,
  0x81, 0x7d, 0x82, 0x7d, 0x7d, 0x82, 0x85, 0x9d, 0x85, 0x82, 0x9b, 0x7e,
  0x80, 0x81, 0x81, 0x7d, 0x7f, 0x7f, 0x7c, 0x7b, 0x7f, 0x7f, 0x83, 0x7f,
  0x82, 0x76, 0x7d, 0x82, 0x80, 0xa0, 0x79, 0x8a, 0x84, 0x7f, 0x76, 0x7b,
  0x7e, 0x7a, 0x80, 0x7d, 0x7f, 0x7f, 0x84, 0x5f, 0x86, 0x7a, 0x7e, 0x82,
  0x7b, 0x7e, 0x7e, 0x7f, 0x7c, 0x83, 0x7e, 0x80, 0x7c, 0x78, 0x84, 0xa2,
  0x7f, 0x7b, 0xa3, 0x7f, 0x84, 0x80, 0x7d, 0xa2, 0x81, 0x81, 0x7f, 0x7c,
  0x7f, 0x7f, 0x80, 0x78, 0x80, 0x99, 0x82, 0x7f, 0x85, 0x80, 0x81, 0xa1,
  0x7c, 0xb3, 0x77, 0x86, 0x80, 0x7b, 0x78, 0x7b, 0x81, 0x7e, 0x7f, 0x7c,
  0x64, 0x81, 0x7d, 0x62, 0x83, 0x7a, 0x81, 0x84, 0x7c, 0x62, 0x79, 0x5f,
  0x80, 0x82, 0x7c, 0x7e, 0x7d, 0x79, 0x84, 0x81, 0x82, 0x7d, 0x77, 0x80,
  0x7d, 0x82, 0x80, 0x80, 0x80, 0x7f, 0x7f, 0x7e, 0x7e, 0x7e, 0x81, 0x7e,
  0x80, 0x83, 0x85, 0x80, 0x64, 0x7e, 0x83, 0xa7, 0x5f, 0x77, 0x7b, 0x86,
  0x81, 0x81, 0x7d, 0x5b, 0x7f, 0x77, 0x7e, 0x96, 0x7f, 0x80, 0x82, 0x7f,
  0x91, 0x7c, 0x80, 0x82, 0x7f, 0x5e, 0x78, 0x65, 0x80, 0x83, 0x7e, 0x7b,
  0x7d, 0x79, 0x82, 0x7e, 0x7a, 0x7e, 0x79, 0x81, 0x8b, 0x8b, 0x7e, 0x7f,
  0x82, 0x82, 0x81, 0x81, 0x7d, 0x80, 0x7e, 0x7d, 0x56, 0x7b, 0x7d, 0x82,
  0xa0, 0x7b, 0x7d, 0x86, 0x78, 0x83, 0x77, 0x80, 0x7b, 0x85, 0x7a, 0x96,
  0x82, 0x7f, 0x80, 0x80, 0xac, 0x8d, 0x85, 0x84, 0x7c, 0x9b, 0x82, 0x7b,
  0x7f, 0x84, 0x7e, 0x82, 0x87, 0x81, 0x82, 0x82, 0x7e, 0x7f, 0x7d, 0x7c,
  0x7c, 0x7d, 0x72, 0x7e, 0x8b, 0x82, 0x7f, 0x7b, 0x82, 0x7f, 0x7d, 0x5f,
  0x80, 0x80, 0x80, 0x7c, 0x4a, 0x7a, 0x98, 0x9c, 0xc4, 0x83, 0x62, 0x82,
  0x77, 0x81, 0x77, 0x81, 0x64, 0x86, 0x7c, 0x78, 0xb5, 0x83, 0xa1, 0x7f,
  0x7e, 0x9e, 0x94, 0x7d, 0x7f, 0x96, 0x82, 0x7a, 0x7f, 0xb6, 0x7c, 0x9a,
  0x86, 0x9c, 0x81, 0x7f, 0x7d, 0x7d, 0x7c, 0x87, 0x9c, 0x7a, 0x74, 0x7e,
  0x87, 0x86, 0x89, 0x7c, 0x81, 0x7f, 0x7e, 0x63, 0x85, 0x81, 0x81, 0x81,
  0x59, 0x7e, 0xa3, 0x7e, 0x76, 0x82, 0x81, 0x99, 0x75, 0x79, 0x78, 0x9a,
  0x62, 0x8c, 0x7d, 0x7d, 0xaa, 0x79, 0x80, 0x5d, 0x7f, 0xa4, 0x7e, 0x7f,
  0x84, 0x96, 0x84, 0x7d, 0x83, 0x92, 0x77, 0x80, 0x81, 0x7d, 0x81, 0x7b,
  0x7e, 0x7f, 0x7d, 0x86, 0x82, 0x81, 0x7f, 0x80, 0x81, 0x70, 0x7f, 0x80,
  0x7e, 0x81, 0x80, 0x80, 0x80, 0x80, 0x7e, 0x81, 0x81, 0x83, 0x66, 0x82,
  0x82, 0x7e, 0x80, 0x84, 0x7f, 0x80, 0x7f, 0x7f, 0x7d, 0x82, 0x81, 0x7e,
  0x7f, 0x7d, 0x82, 0x80, 0x80, 0x80, 0x81, 0x83, 0x82, 0x7d, 0x85, 0x80,
  0x61, 0x80, 0x81, 0x80, 0x81, 0x82, 0x80, 0x83, 0x80, 0x90, 0x82, 0x81,
  0x83, 0x7f, 0x7d, 0x80, 0x80, 0x81, 0x80, 0x80, 0x8e, 0x82, 0x7f, 0x81,
  0x7f, 0x81, 0x80, 0x81, 0x82, 0x83, 0x7d, 0x81, 0x82, 0x7f, 0x7e, 0x83,
  0x90, 0x7f, 0x6e, 0x7e, 0x7e, 0x81, 0x81, 0x7f, 0x7d, 0x7f, 0x7e, 0x80,
  0x6b, 0x7f, 0x7e, 0x9e, 0x83, 0x6d, 0x81, 0x80, 0x80, 0x80, 0x7c, 0x6b,
  0x81, 0x82, 0x80, 0x81, 0x80, 0x90, 0x81, 0x80, 0x82, 0x7f, 0x7a, 0x80,
  0x7c, 0x7f, 0x80, 0x7f, 0xa3, 0x82, 0x7e, 0x82, 0x80, 0x80, 0x80, 0x81,
  0x82, 0x84, 0x7f, 0x80, 0x82, 0x80, 0x7f, 0x9d, 0x7d, 0x8f, 0x80, 0x7e,
  0x7e, 0x98, 0x82, 0x7f, 0x7f, 0x62, 0x81, 0x7f, 0x7f, 0x93, 0x80, 0x81,
  0x82, 0x7e, 0x80, 0x82, 0x7f, 0x81, 0x7c, 0x80, 0x82, 0x82, 0x7f, 0x80,
  0x81, 0x8f, 0x81, 0x7f, 0x81, 0x81, 0x86, 0x7f, 0x82, 0x64, 0x7e, 0x81,
  0x7e, 0x7e, 0x80, 0x81, 0x7f, 0x65, 0x80, 0x6a, 0x7d, 0x81, 0x80, 0x7f,
  0x81, 0x7e, 0x7d, 0x81, 0x7d, 0x80, 0x7f, 0x7f, 0x7f, 0x83, 0x7e, 0x7e,
  0x91, 0x80, 0x81, 0x7f, 0x7f, 0x80, 0x7d, 0x94, 0x83, 0x7d, 0x80, 0x69,
  0x6f, 0x7d, 0x82, 0x80, 0x7d, 0x7f, 0x80, 0x70, 0x80, 0x7d, 0x80, 0x81,
  0x6f, 0x81, 0x7f, 0x7f, 0x81, 0x65, 0x7f, 0x80, 0x7e, 0x7f, 0x7f, 0x81,
  0x7f, 0x6c, 0x80, 0x7d, 0x7f, 0x80, 0x80, 0x81, 0x7f, 0x7f, 0x7d, 0x81,
  0x94, 0x7e, 0x7e, 0x7f, 0x7f, 0x82, 0x6e, 0x7d, 0x90, 0x7f, 0x82, 0x80,
  0x80, 0x81, 0x7c, 0x7d, 0x82, 0x7c, 0x7e, 0x6b, 0x80, 0x7c, 0x7f, 0x7e,
  0x7d, 0x7f, 0x7f, 0x83, 0x81, 0x7c, 0x80, 0x80, 0x81, 0x81, 0x7e, 0x7f,
  0x97, 0x6e, 0x6d, 0x7f, 0xa1, 0x7f, 0x7f, 0x80, 0x90, 0x7f, 0x80, 0x7a,
  0x7f, 0x81, 0x80, 0x81, 0x7c, 0x9f, 0x7f, 0x7f, 0x97, 0x7e, 0x7f, 0x7e,
  0x7e, 0x82, 0x80, 0x7e, 0x7f, 0x67, 0x7e, 0x7f, 0x80, 0xa3, 0x7c, 0x97,
  0x81, 0x7d, 0x7f, 0x6c, 0x7f, 0x7e, 0x7f, 0x97, 0x7f, 0x60, 0x80, 0x82,
  0x84, 0x7c, 0x81, 0x6d, 0x82, 0x80, 0x7e, 0x7f, 0x7f, 0x80, 0x7e, 0x84,
  0x80, 0x80, 0x7e, 0x99, 0x83, 0x7f, 0x7e, 0x7f, 0x7f, 0x81, 0x7f, 0x7f,
  0x83, 0x80, 0x7e, 0x85, 0x7e, 0x70, 0x7f, 0x7f, 0x80, 0x88, 0x82, 0x7f,
  0x80, 0x84, 0x7f, 0x82, 0x7e, 0x7e, 0x7d, 0x80, 0x7d, 0x7a, 0x81, 0x7f,
  0x81, 0x83, 0x84, 0x7f, 0x94, 0x7c, 0x80, 0x82, 0x7e, 0x80, 0x80, 0x83,
  0x82, 0x80, 0x65, 0x7e, 0x7c, 0x7f, 0x7f, 0x82, 0x7e, 0x7e, 0x7e, 0xb2,
  0x83, 0x80, 0x7f, 0x7d, 0x80, 0x81, 0x7e, 0x80, 0x7e, 0x7f, 0x7e, 0x84,
  0x7a, 0x7d, 0x80, 0x80, 0x7f, 0x98, 0x83, 0x80, 0x7f, 0x7d, 0x80, 0x81,
  0x80, 0x80, 0x7a, 0x90, 0x7e, 0x7a, 0x80, 0x7d, 0x82, 0x82, 0x81, 0xa1,
  0x7d, 0x7d, 0x81, 0x81, 0x7f, 0x7f, 0x7e, 0x84, 0x82, 0x80, 0x67, 0x7e,
  0x7e, 0x80, 0x7e, 0x80, 0x7f, 0x81, 0x7f, 0xb5, 0x81, 0x7f, 0x80, 0x7c,
  0x7f, 0x80, 0x7e, 0x95, 0x7e, 0x7f, 0x7e, 0x85, 0x7a, 0x7e, 0x80, 0x7e,
  0x80, 0x86, 0x82, 0x7f, 0x80, 0x7d, 0x7e, 0x66, 0x7f, 0x83, 0x7a, 0xb0,
  0x7e, 0x7b, 0x81, 0x7d, 0x80, 0x72, 0x7d, 0x9f, 0x80, 0x7d, 0x80, 0x81,
  0x80, 0x80, 0x7e, 0x81, 0x7f, 0x80, 0x7e, 0x7f, 0x80, 0x5a, 0x80, 0x80,
  0x69, 0x69, 0x81, 0x67, 0x81, 0x80, 0x80, 0x7e, 0x9d, 0x80, 0x7e, 0x7f,
  0x82, 0x80, 0x7e, 0x9d, 0x80, 0x7f, 0x80, 0x82, 0x81, 0x80, 0x81, 0x82,
  0x81, 0x5e, 0x7b, 0x81, 0x81, 0x97, 0x7f, 0x82, 0x7f, 0x81, 0x7d, 0x81,
  0x82, 0x65, 0x7f, 0x7f, 0x83, 0x80, 0x80, 0x5e, 0x7e, 0x82, 0x62, 0x82,
  0x80, 0x80, 0x9b, 0x7d, 0x7f, 0x5d, 0x7f, 0x81, 0x80, 0x7f, 0x81, 0x7f,
  0x80, 0x7f, 0x81, 0x7e, 0x97, 0x82, 0x7e, 0x7f, 0x83, 0x80, 0x80, 0x81,
  0x81, 0x80, 0x7f, 0x81, 0x69, 0x80, 0x81, 0x81, 0x7f, 0x6a, 0x7e, 0x80,
  0x81, 0x81, 0x7e, 0x83, 0x7f, 0x7f, 0x7e, 0x80, 0x83, 0x58, 0x84, 0x7f,
  0x81, 0x80, 0x80, 0x7f, 0x7f, 0x82, 0x66, 0x82, 0x7f, 0x80, 0x9f, 0x7f,
  0x7f, 0x7f, 0x7f, 0x81, 0x7f, 0x7e, 0x81, 0x67, 0x81, 0x81, 0x81, 0x7f,
  0xa2, 0x83, 0x7e, 0x7f, 0x84, 0x80, 0x7f, 0x82, 0x82, 0x81, 0x69, 0x81,
  0x68, 0x82, 0x81, 0x81, 0x7f, 0x83, 0x7d, 0x80, 0x80, 0x81, 0x7e, 0x82,
  0x80, 0x7f, 0x7f, 0x80, 0x82, 0x64, 0x80, 0x7f, 0x82, 0x81, 0x67, 0x7f,
  0x7f, 0x80, 0x80, 0x82, 0x7f, 0x80, 0x7c, 0x81, 0x7f, 0x5f, 0x7f, 0x7f,
  0x4e, 0x80, 0x81, 0x65, 0x81, 0x80, 0x7f, 0x7b, 0x80, 0x80, 0x7e, 0x80,
  0x81, 0x7e, 0x7e, 0x97, 0x7f, 0x7f, 0x97, 0x82, 0x7f, 0x9a, 0x7f, 0x80,
  0x81, 0x80, 0x7e, 0x80, 0x60, 0x82, 0x81, 0x81, 0xa2, 0x83, 0x80, 0x7e,
  0x81, 0x7f, 0x7f, 0x7e, 0x81, 0x7f, 0x7f, 0x7e, 0x80, 0x7c, 0x7f, 0x9a,
  0x69, 0x7e, 0x96, 0x98, 0x7e, 0x7d, 0x80, 0x80, 0x54, 0x7e, 0x81, 0x62,
  0x80, 0x80, 0x80, 0x7d, 0x80, 0x80, 0x7f, 0x80, 0x68, 0x7e, 0x7e, 0x7e,
  0x80, 0x81, 0x80, 0x81, 0x7f, 0x9a, 0x7d, 0x80, 0x80, 0x80, 0x7e, 0x7f,
  0x80, 0x7f, 0x82, 0x81, 0x80, 0x7f, 0x7f, 0x81, 0x82, 0x7d, 0x99, 0x7e,
  0x7f, 0x7f, 0x7f, 0x80, 0x9a, 0x7d, 0x7f, 0xaa, 0x5b, 0x7e, 0x7e, 0x81,
  0x7e, 0x7d, 0x80, 0x80, 0x5b, 0x7d, 0x81, 0x68, 0x80, 0x81, 0x80, 0x81,
  0x81, 0x80, 0x80, 0x7f, 0x5f, 0x7d, 0x7d, 0x7f, 0x80, 0x80, 0x80, 0x81,
  0x7d, 0x83, 0x7e, 0x80, 0x7f, 0x83, 0x7c, 0x7f, 0x81, 0x80, 0x7f, 0x81,
  0x80, 0x80, 0x60, 0x81, 0x82, 0x7c, 0x7e, 0xb5, 0x7f, 0x80, 0x81, 0x7e,
  0x7f, 0x81, 0x7f, 0x80, 0x80, 0x82, 0x80, 0x80, 0x7f, 0x92, 0x80, 0x80,
  0x81, 0x80, 0x80, 0x7f, 0x81, 0x80, 0x81, 0x7e, 0x81, 0x7f, 0x7f, 0x81,
  0x80, 0x7b, 0x7d, 0x80, 0x7f, 0x7b, 0x7e, 0x81, 0x81, 0x80, 0x81, 0x81,
  0x81, 0x7e, 0x7f, 0x81, 0xa5, 0x81, 0x7f, 0x7f, 0x80, 0x80, 0x7f, 0x98,
  0x80, 0x7f, 0x80, 0x7f, 0x81, 0x82, 0x80, 0x7f, 0x7f, 0x7f, 0x7f, 0x7f,
  0x6a, 0x7f, 0x81, 0x7f, 0x7f, 0x7e, 0x80, 0x80, 0x80, 0x7f, 0x80, 0x80,
  0x7f, 0x80, 0x81, 0x82, 0x81, 0x7f, 0x80, 0x81, 0x80, 0x7d, 0x5a, 0x80,
  0x80, 0x7e, 0x7e, 0x7f, 0x80, 0x80, 0x7f, 0x7f, 0x81, 0x7f, 0x80, 0x7f,
  0xa9, 0x7f, 0x7f, 0x80, 0x81, 0x7e, 0x80, 0x80, 0x81, 0x7f, 0x82, 0xa0,
