unsigned char __tflite_models_acdnet_80_tflite[] = {
  0x18, 0x00, 0x00, 0x00, 0x54, 0x46, 0x4c, 0x33, 0x00, 0x00, 0x0e, 0x00,
  0x18, 0x00, 0x0c, 0x00, 0x08, 0x00, 0x04, 0x00, 0x10, 0x00, 0x14, 0x00,
  0x0e, 0x00, 0x00, 0x00, 0x38, 0x00, 0x00, 0x00, 0x3c, 0x00, 0x00, 0x00,
  0x03, 0x00, 0x00, 0x00, 0x08, 0x00, 0x00, 0x00, 0x98, 0x00, 0x00, 0x00,
  0x1c, 0x00, 0x00, 0x00, 0x54, 0x69, 0x6e, 0x79, 0x4e, 0x65, 0x75, 0x72,
  0x61, 0x6c, 0x4e, 0x65, 0x74, 0x77, 0x6f, 0x72, 0x6b, 0x20, 0x43, 0x6f,
  0x6e, 0x76, 0x65, 0x72, 0x74, 0x65, 0x64, 0x2e, 0x00, 0x00, 0x00, 0x00,
  0x01, 0x00, 0x00, 0x00, 0xf4, 0x00, 0x00, 0x00, 0x19, 0x00, 0x00, 0x00,
  0xa8, 0xf1, 0x01, 0x00, 0x8c, 0xf1, 0x01, 0x00, 0x7c, 0xf1, 0x01, 0x00,
  0x6c, 0xf1, 0x01, 0x00, 0x5c, 0xf1, 0x01, 0x00, 0x4c, 0xf1, 0x01, 0x00,
  0x3c, 0xf1, 0x01, 0x00, 0x2c, 0xf1, 0x01, 0x00, 0x1c, 0xf1, 0x01, 0x00,
  0x0c, 0xf1, 0x01, 0x00, 0xfc, 0xf0, 0x01, 0x00, 0xec, 0xf0, 0x01, 0x00,
  0xdc, 0xf0, 0x01, 0x00, 0xcc, 0xf0, 0x01, 0x00, 0xbc, 0xf0, 0x01, 0x00,
  0xac, 0xf0, 0x01, 0x00, 0x9c, 0xf0, 0x01, 0x00, 0x8c, 0xf0, 0x01, 0x00,
  0x7c, 0xf0, 0x01, 0x00, 0x6c, 0xf0, 0x01, 0x00, 0x5c, 0xf0, 0x01, 0x00,
  0x4c, 0xf0, 0x01, 0x00, 0x3c, 0xf0, 0x01, 0x00, 0x2c, 0xf0, 0x01, 0x00,
  0x1c, 0xf0, 0x01, 0x00, 0x1d, 0x00, 0x00, 0x00, 0x10, 0xf0, 0x01, 0x00,
  0xb8, 0xef, 0x01, 0x00, 0x24, 0xef, 0x01, 0x00, 0xfc, 0xee, 0x01, 0x00,
  0x08, 0xa0, 0x01, 0x00, 0xd8, 0x9f, 0x01, 0x00, 0x28, 0x9f, 0x01, 0x00,
  0xc8, 0x9e, 0x01, 0x00, 0x94, 0x9e, 0x01, 0x00, 0x04, 0x9e, 0x01, 0x00,
  0xf4, 0x70, 0x01, 0x00, 0xdc, 0x70, 0x01, 0x00, 0xb4, 0x70, 0x01, 0x00,
  0xd8, 0x6f, 0x01, 0x00, 0xa0, 0x6a, 0x01, 0x00, 0xd0, 0x69, 0x01, 0x00,
  0x1c, 0x69, 0x01, 0x00, 0x58, 0x68, 0x01, 0x00, 0x90, 0x67, 0x01, 0x00,
  0x70, 0x67, 0x01, 0x00, 0xc8, 0x66, 0x01, 0x00, 0x18, 0x19, 0x01, 0x00,
  0xe4, 0xd4, 0x00, 0x00, 0xc0, 0xd3, 0x00, 0x00, 0x08, 0x9a, 0x00, 0x00,
  0x30, 0x63, 0x00, 0x00, 0xa0, 0x4c, 0x00, 0x00, 0x50, 0x02, 0x00, 0x00,
  0x90, 0x01, 0x00, 0x00, 0x00, 0x00, 0x0e, 0x00, 0x18, 0x00, 0x08, 0x00,
  0x14, 0x00, 0x10, 0x00, 0x04, 0x00, 0x0c, 0x00, 0x0e, 0x00, 0x00, 0x00,
  0x00, 0x01, 0x00, 0x00, 0x20, 0x00, 0x00, 0x00, 0x0c, 0x00, 0x00, 0x00,
  0x5c, 0x01, 0x00, 0x00, 0x60, 0x01, 0x00, 0x00, 0x0a, 0x00, 0x00, 0x00,
  0x6d, 0x61, 0x69, 0x6e, 0x5f, 0x67, 0x72, 0x61, 0x70, 0x68, 0x00, 0x00,
  0x36, 0x00, 0x00, 0x00, 0x78, 0x09, 0x02, 0x00, 0x04, 0x09, 0x02, 0x00,
  0x98, 0x08, 0x02, 0x00, 0x44, 0x08, 0x02, 0x00, 0xdc, 0x07, 0x02, 0x00,
  0x70, 0x07, 0x02, 0x00, 0x08, 0x07, 0x02, 0x00, 0xa0, 0x06, 0x02, 0x00,
  0x3c, 0x06, 0x02, 0x00, 0xd8, 0x05, 0x02, 0x00, 0x8c, 0x05, 0x02, 0x00,
  0x34, 0x05, 0x02, 0x00, 0xd8, 0x04, 0x02, 0x00, 0x7c, 0x04, 0x02, 0x00,
  0x20, 0x04, 0x02, 0x00, 0xc4, 0x03, 0x02, 0x00, 0x64, 0x03, 0x02, 0x00,
  0x38, 0x03, 0x02, 0x00, 0xc8, 0x02, 0x02, 0x00, 0x94, 0x02, 0x02, 0x00,
  0x30, 0x02, 0x02, 0x00, 0xc8, 0x01, 0x02, 0x00, 0x70, 0x01, 0x02, 0x00,
  0x0c, 0x01, 0x02, 0x00, 0xa4, 0x00, 0x02, 0x00, 0x38, 0x00, 0x02, 0x00,
  0xcc, 0xff, 0x01, 0x00, 0x74, 0xff, 0x01, 0x00, 0x50, 0xff, 0x01, 0x00,
  0xf4, 0xfe, 0x01, 0x00, 0x94, 0xfe, 0x01, 0x00, 0x30, 0xfe, 0x01, 0x00,
  0xcc, 0xfd, 0x01, 0x00, 0x6c, 0xfd, 0x01, 0x00, 0x10, 0xfd, 0x01, 0x00,
  0xe0, 0xfc, 0x01, 0x00, 0x7c, 0xfc, 0x01, 0x00, 0x10, 0xfc, 0x01, 0x00,
  0xac, 0xfb, 0x01, 0x00, 0x7c, 0xfb, 0x01, 0x00, 0x2c, 0xfb, 0x01, 0x00,
  0xd4, 0xfa, 0x01, 0x00, 0x70, 0xfa, 0x01, 0x00, 0x08, 0xfa, 0x01, 0x00,
  0xa0, 0xf9, 0x01, 0x00, 0x38, 0xf9, 0x01, 0x00, 0xd0, 0xf8, 0x01, 0x00,
  0x6c, 0xf8, 0x01, 0x00, 0x08, 0xf8, 0x01, 0x00, 0xa4, 0xf7, 0x01, 0x00,
  0x3c, 0xf7, 0x01, 0x00, 0xd4, 0xf6, 0x01, 0x00, 0x6c, 0xf6, 0x01, 0x00,
  0x14, 0xf6, 0x01, 0x00, 0x19, 0x00, 0x00, 0x00, 0xe0, 0xf5, 0x01, 0x00,
  0x80, 0xf5, 0x01, 0x00, 0x2c, 0xf5, 0x01, 0x00, 0xd8, 0xf4, 0x01, 0x00,
  0xa4, 0xf4, 0x01, 0x00, 0x54, 0xf4, 0x01, 0x00, 0x10, 0xf4, 0x01, 0x00,
  0xcc, 0xf3, 0x01, 0x00, 0x88, 0xf3, 0x01, 0x00, 0x44, 0xf3, 0x01, 0x00,
  0x00, 0xf3, 0x01, 0x00, 0xbc, 0xf2, 0x01, 0x00, 0x78, 0xf2, 0x01, 0x00,
  0x34, 0xf2, 0x01, 0x00, 0xf0, 0xf1, 0x01, 0x00, 0xac, 0xf1, 0x01, 0x00,
  0x68, 0xf1, 0x01, 0x00, 0x24, 0xf1, 0x01, 0x00, 0xe0, 0xf0, 0x01, 0x00,
  0x8c, 0xf0, 0x01, 0x00, 0x48, 0xf0, 0x01, 0x00, 0xfc, 0xef, 0x01, 0x00,
  0xc4, 0xef, 0x01, 0x00, 0x94, 0xef, 0x01, 0x00, 0x60, 0xef, 0x01, 0x00,
  0x01, 0x00, 0x00, 0x00, 0x1c, 0x00, 0x00, 0x00, 0x01, 0x00, 0x00, 0x00,
  0x11, 0x00, 0x00, 0x00, 0xf6, 0x0f, 0xfe, 0xff, 0x04, 0x00, 0x00, 0x00,
  0xb0, 0x00, 0x00, 0x00, 0x77, 0x00, 0x00, 0x00, 0xa2, 0xfa, 0xff, 0xff,
  0x47, 0xf4, 0xff, 0xff, 0x37, 0xff, 0xff, 0xff, 0x36, 0xf2, 0xff, 0xff,
  0x2b, 0xf8, 0xff, 0xff, 0x1e, 0xf6, 0xff, 0xff, 0x22, 0xf5, 0xff, 0xff,
  0x4c, 0x02, 0x00, 0x00, 0xfc, 0xfc, 0xff, 0xff, 0xe8, 0x0f, 0x00, 0x00,
  0x44, 0x08, 0x00, 0x00, 0x74, 0x03, 0x00, 0x00, 0x14, 0xf1, 0xff, 0xff,
  0x63, 0xe7, 0xff, 0xff, 0x6b, 0xf9, 0xff, 0xff, 0xcf, 0xfe, 0xff, 0xff,
  0x17, 0xf4, 0xff, 0xff, 0xdd, 0xeb, 0xff, 0xff, 0x88, 0xec, 0xff, 0xff,
  0xb8, 0xed, 0xff, 0xff, 0xa6, 0xe9, 0xff, 0xff, 0x5a, 0xf8, 0xff, 0xff,
  0x8a, 0xfa, 0xff, 0xff, 0xab, 0xf7, 0xff, 0xff, 0xf2, 0xee, 0xff, 0xff,
  0xe8, 0xfd, 0xff, 0xff, 0xbf, 0xec, 0xff, 0xff, 0xed, 0xfe, 0xff, 0xff,
  0xba, 0x08, 0x00, 0x00, 0xaa, 0xe8, 0xff, 0xff, 0x82, 0xe9, 0xff, 0xff,
  0x3b, 0xf0, 0xff, 0xff, 0x40, 0xe9, 0xff, 0xff, 0x69, 0xf3, 0xff, 0xff,
  0xb2, 0xfb, 0xff, 0xff, 0x4d, 0xf7, 0xff, 0xff, 0x05, 0xf9, 0xff, 0xff,
  0x2e, 0xf3, 0xff, 0xff, 0x28, 0xf4, 0xff, 0xff, 0xde, 0xfb, 0xff, 0xff,
  0xc0, 0xea, 0xff, 0xff, 0xdf, 0xfd, 0xff, 0xff, 0x72, 0xfc, 0xff, 0xff,
  0xb2, 0x10, 0xfe, 0xff, 0x04, 0x00, 0x00, 0x00, 0x40, 0x4a, 0x00, 0x00,
  0x80, 0x80, 0x80, 0x80, 0x80, 0x80, 0x80, 0x80, 0x81, 0x80, 0x80, 0x80,
  0x80, 0x80, 0x80, 0x80, 0x67, 0x80, 0x80, 0x80, 0x80, 0x80, 0x80, 0x80,
  0x80, 0x80, 0x80, 0x80, 0x80, 0x80, 0x80, 0x80, 0x80, 0x80, 0x80, 0x80,
  0x80, 0x94, 0x80, 0x80, 0x80, 0x80, 0x80, 0x80, 0x80, 0x80, 0x80, 0x80,
  0x71, 0x80, 0x80, 0x80, 0x81, 0x80, 0x80, 0x80, 0x80, 0x80, 0x80, 0x80,
  0x80, 0x80, 0x80, 0x80, 0x80, 0x80, 0x6c, 0x80, 0x80, 0x80, 0x80, 0x99,
  0x80, 0x80, 0x80, 0x80, 0x80, 0x71, 0x80, 0x80, 0x80, 0x96, 0x80, 0x80,
  0x80, 0x80, 0x80, 0x80, 0x80, 0x80, 0x80, 0x80, 0x80, 0x80, 0x80, 0x80,
  0x80, 0x80, 0x80, 0x80, 0x80, 0x80, 0x80, 0x71, 0x80, 0x80, 0x80, 0x80,
  0x8f, 0x80, 0x80, 0x80, 0x80, 0x80, 0x80, 0x80, 0x80, 0x80, 0x80, 0x80,
  0x71, 0x6b, 0x80, 0x80, 0x80, 0x80, 0x80, 0x80, 0x80, 0x80, 0x80, 0x80,
  0x80, 0x70, 0x92, 0x72, 0x80, 0x80, 0x80, 0x6d, 0x80, 0x68, 0x80, 0x80,
  0x80, 0x80, 0x80, 0x80, 0x80, 0x80, 0x80, 0x80, 0x80, 0x91, 0x80, 0x80,
  0x80, 0x6e, 0x80, 0x80, 0x80, 0x80, 0x80, 0x71, 0x80, 0x80, 0x80, 0x80,
  0x80, 0x80, 0x80, 0x80, 0x80, 0x80, 0x69, 0x80, 0x94, 0x80, 0x8f, 0x6e,
  0x80, 0x80, 0x80, 0x80, 0x80, 0x71, 0x80, 0x80, 0x80, 0x80, 0x80, 0x80,
  0x80, 0x80, 0x80, 0x80, 0x80, 0x80, 0x80, 0x80, 0x80, 0x80, 0x80, 0x80,
  0x80, 0x8e, 0x6d, 0x80, 0x80, 0x80, 0x80, 0x80, 0x80, 0x90, 0x80, 0x90,
  0x80, 0x80, 0x80, 0x80, 0xaf, 0x9d, 0x80, 0x80, 0x8f, 0x80, 0x8e, 0x80,
  0x80, 0x90, 0x80, 0x91, 0x80, 0x80, 0x80, 0x6c, 0xad, 0x80, 0x8f, 0x80,
  0x80, 0x6e, 0x80, 0x80, 0x80, 0x80, 0x96, 0x80, 0x80, 0x80, 0x80, 0x8e,
  0x80, 0x80, 0x8f, 0x80, 0x80, 0x80, 0x80, 0x80, 0x80, 0x80, 0x80, 0x9e,
  0x80, 0x80, 0x80, 0x70, 0x80, 0x80, 0x80, 0x80, 0x80, 0x71, 0x80, 0x80,
  0x80, 0x80, 0x80, 0x80, 0x6c, 0x80, 0x72, 0x80, 0x80, 0x80, 0x80, 0x80,
  0x80, 0x80, 0x80, 0x80, 0x80, 0x80, 0x80, 0x80, 0x80, 0x8f, 0x80, 0x80,
  0x80, 0x80, 0x80, 0x80, 0x80, 0x80, 0x80, 0x80, 0x80, 0x80, 0x80, 0x80,
  0x6e, 0x80, 0x80, 0x80, 0x80, 0x80, 0x6f, 0x80, 0x80, 0x80, 0x80, 0x80,
  0x80, 0x80, 0x80, 0x80, 0x80, 0x80, 0x80, 0x80, 0x80, 0x80, 0x72, 0x80,
  0x80, 0x80, 0x80, 0x90, 0x80, 0x80, 0x80, 0x80, 0x80, 0x80, 0x80, 0x8e,
  0x80, 0x80, 0x80, 0x80, 0x80, 0x9a, 0x80, 0x9c, 0x80, 0x80, 0x80, 0x80,
  0x6c, 0x80, 0x6c, 0x80, 0x80, 0x80, 0x80, 0x80, 0x96, 0x80, 0x80, 0x80,
  0x80, 0x80, 0x80, 0x80, 0x80, 0x80, 0x80, 0x80, 0x80, 0x80, 0x80, 0x80,
  0x6d, 0x80, 0x80, 0x72, 0x80, 0x80, 0x80, 0x80, 0x80, 0x80, 0x80, 0x80,
  0x80, 0x80, 0x80, 0x80, 0x80, 0x80, 0x80, 0x80, 0x80, 0x80, 0x6e, 0x80,
  0x80, 0x80, 0x80, 0x80, 0x80, 0x81, 0x80, 0x80, 0x93, 0x80, 0x80, 0x80,
  0x80, 0x80, 0x80, 0x80, 0x80, 0x80, 0x80, 0x80, 0x80, 0x80, 0x80, 0x80,
  0x69, 0x80, 0x6c, 0x80, 0x80, 0x80, 0x80, 0x80, 0x80, 0x80, 0x80, 0x80,
  0x80, 0x80, 0x80, 0x80, 0x80, 0x80, 0x80, 0x94, 0x96, 0x80, 0x80, 0x80,
  0x80, 0x81, 0x80, 0x80, 0x92, 0x80, 0x80, 0x80, 0x80, 0x80, 0x80, 0x68,
  0x80, 0x80, 0x80, 0x80, 0x80, 0x80, 0x6e, 0x80, 0x65, 0x80, 0x80, 0x80,
  0x80, 0x80, 0x80, 0x80, 0x80, 0x80, 0x80, 0x98, 0x80, 0x80, 0x80, 0x80,
  0x80, 0x80, 0x80, 0x80, 0x80, 0x80, 0x80, 0x80, 0x80, 0x80, 0x80, 0x65,
  0x80, 0x80, 0x80, 0x80, 0x80, 0x80, 0x80, 0x80, 0x80, 0x80, 0x80, 0x80,
  0x80, 0x80, 0x80, 0x80, 0x63, 0x80, 0x80, 0x80, 0x80, 0x80, 0x80, 0x80,
  0x80, 0x98, 0x80, 0x98, 0x80, 0x80, 0x80, 0x80, 0x6c, 0x9a, 0x80, 0xa7,
  0x80, 0x80, 0x80, 0x80, 0x93, 0x80, 0x92, 0x80, 0x80, 0x80, 0x80, 0x92,
  0x80, 0x97, 0x9b, 0x6b, 0x80, 0x6b, 0x80, 0x80, 0x80, 0x80, 0x80, 0x5c,
  0x95, 0x80, 0x80, 0x80, 0x80, 0x80, 0x80, 0x9a, 0x97, 0x80, 0x80, 0x98,
  0x80, 0x80, 0x80, 0x69, 0x6a, 0x9b, 0x80, 0xa8, 0x93, 0x80, 0x80, 0x80,
  0x80, 0x80, 0x80, 0x80, 0x80, 0x80, 0x80, 0x94, 0x80, 0xa2, 0x80, 0x6c,
  0x80, 0x80, 0x80, 0x93, 0x80, 0x80, 0x80, 0x63, 0xa4, 0x9e, 0x80, 0x80,
  0x80, 0x80, 0x80, 0x80, 0x80, 0x80, 0x80, 0x80, 0x80, 0x80, 0x80, 0x80,
  0x80, 0x80, 0x80, 0x80, 0x80, 0x80, 0x80, 0x80, 0x80, 0x80, 0x80, 0x80,
  0x80, 0x80, 0x80, 0x6a, 0x80, 0x80, 0x80, 0x68, 0x80, 0x80, 0x80, 0x80,
  0x80, 0x80, 0x68, 0x80, 0xa0, 0x80, 0x80, 0x80, 0x80, 0x6a, 0x80, 0x80,
  0x80, 0xb1, 0x65, 0x80, 0x80, 0x80, 0x80, 0x80, 0x80, 0x80, 0x80, 0x80,
  0x80, 0x80, 0x80, 0x80, 0x80, 0x80, 0x80, 0x80, 0x80, 0x80, 0x80, 0x6b,
  0x80, 0x80, 0x80, 0x67, 0x80, 0x80, 0x80, 0x80, 0x80, 0x80, 0x80, 0x80,
  0x80, 0x6c, 0x80, 0x80, 0x80, 0x80, 0x80, 0x94, 0x80, 0x99, 0x80, 0x80,
  0x80, 0x80, 0x80, 0x80, 0x80, 0x80, 0x80, 0x80, 0xa2, 0x80, 0x80, 0x7f,
  0x80, 0x80, 0x80, 0x80, 0x61, 0x80, 0x80, 0x6c, 0x80, 0x80, 0x80, 0x80,
  0x80, 0x80, 0x69, 0x80, 0x80, 0x98, 0x80, 0x80, 0x80, 0x6c, 0x6b, 0x80,
  0x80, 0x80, 0x80, 0x80, 0x80, 0x80, 0x80, 0x80, 0x80, 0x80, 0x80, 0x80,
  0x80, 0x68, 0x6d, 0x80, 0x80, 0x80, 0x80, 0x80, 0x80, 0x80, 0x80, 0x80,
  0x80, 0x80, 0x80, 0x80, 0x80, 0x6b, 0x80, 0x6c, 0x80, 0x80, 0x80, 0x80,
  0x80, 0x80, 0x80, 0x80, 0x80, 0x80, 0x80, 0x80, 0x80, 0x80, 0x80, 0x6e,
  0x80, 0x80, 0x80, 0x80, 0x80, 0x80, 0x80, 0x80, 0x80, 0x80, 0x80, 0x80,
  0x80, 0x80, 0x80, 0x80, 0x80, 0x80, 0x80, 0x80, 0x80, 0x80, 0x80, 0x80,
  0x80, 0x80, 0x80, 0x80, 0x6b, 0x80, 0x80, 0x80, 0x80, 0x80, 0x80, 0x80,
  0x80, 0x80, 0x80, 0x80, 0x80, 0x80, 0x80, 0x80, 0x80, 0x80, 0x80, 0x93,
  0x97, 0x80, 0x80, 0x80, 0x80, 0x80, 0x80, 0x80, 0x80, 0x80, 0x80, 0x80,
  0x80, 0x80, 0x80, 0x80, 0x80, 0x80, 0x80, 0x80, 0x80, 0x80, 0x80, 0x80,
  0x62, 0x80, 0x80, 0x80, 0x80, 0x80, 0x80, 0x80, 0x80, 0x80, 0x80, 0x80,
  0x80, 0x80, 0x80, 0x80, 0x80, 0x80, 0x80, 0xa1, 0x80, 0x80, 0x80, 0x80,
  0x80, 0x80, 0x80, 0x80, 0x80, 0x80, 0x80, 0x80, 0x80, 0x80, 0x80, 0x80,
  0x80, 0x80, 0x80, 0x80, 0x80, 0x80, 0x80, 0x80, 0x80, 0x80, 0x80, 0x80,
  0x80, 0x80, 0x80, 0x80, 0x80, 0x80, 0x80, 0x80, 0x80, 0x80, 0x80, 0x80,
  0x80, 0x80, 0x80, 0x80, 0x80, 0x80, 0x80, 0x80, 0x91, 0x80, 0x80, 0x80,
  0x80, 0x80, 0x80, 0x80, 0x80, 0x80, 0x80, 0x80, 0x80, 0x80, 0x80, 0x80,
  0x80, 0x80, 0x80, 0x80, 0x80, 0x6a, 0x80, 0x80, 0x66, 0x80, 0x80, 0x6e,
  0x80, 0x80, 0x80, 0x80, 0x80, 0x80, 0x80, 0x80, 0x80, 0x80, 0x80, 0x99,
  0x80, 0x80, 0x80, 0x7f, 0x80, 0x80, 0x80, 0x80, 0x80, 0x80, 0x80, 0x80,
  0x80, 0x80, 0x80, 0x80, 0x9e, 0x80, 0x80, 0x80, 0x64, 0x80, 0x80, 0x6d,
  0x80, 0x80, 0x80, 0x80, 0x6d, 0x80, 0x80, 0x80, 0x80, 0x65, 0x80, 0x80,
  0x80, 0x80, 0x80, 0x80, 0x69, 0x80, 0x9a, 0x80, 0x80, 0x80, 0x80, 0x6e,
  0x80, 0x80, 0x80, 0x80, 0x80, 0x80, 0x80, 0x80, 0x80, 0x80, 0x80, 0x80,
  0x80, 0x80, 0x80, 0x80, 0x6e, 0x80, 0x80, 0x80, 0x80, 0x80, 0x68, 0x6b,
  0x80, 0x80, 0x80, 0x80, 0x80, 0x80, 0x80, 0x80, 0x80, 0x80, 0x80, 0x80,
  0xa8, 0x99, 0x80, 0x80, 0x80, 0x6b, 0x80, 0x80, 0x80, 0x80, 0x80, 0x80,
  0x80, 0x80, 0x6e, 0x80, 0x80, 0x80, 0x80, 0x80, 0x6e, 0x80, 0x80, 0x92,
  0x80, 0x80, 0x80, 0x80, 0x80, 0x80, 0x80, 0xae, 0x80, 0x80, 0x80, 0x80,
  0x80, 0x80, 0x96, 0x80, 0x80, 0x80, 0x80, 0x80, 0x80, 0xb0, 0x80, 0x80,
  0x6f, 0x80, 0x80, 0x7f, 0x80, 0x91, 0x80, 0x9f, 0x80, 0x9e, 0x80, 0x80,
  0x9d, 0x80, 0x80, 0x80, 0x5b, 0x65, 0x80, 0x80, 0x69, 0x9f, 0xa2, 0x80,
  0x6a, 0x80, 0x80, 0xba, 0x80, 0x80, 0x80, 0x80, 0x80, 0x92, 0x80, 0x80,
  0x80, 0x80, 0x80, 0x80, 0x63, 0x80, 0x93, 0x6d, 0x80, 0x80, 0x69, 0x7f,
  0x80, 0x80, 0x80, 0x80, 0x80, 0x80, 0x80, 0x80, 0x64, 0x80, 0x80, 0x6b,
  0x6b, 0x6a, 0x80, 0x80, 0x6f, 0x80, 0x80, 0x80, 0x80, 0x80, 0x80, 0x80,
  0x80, 0x80, 0x80, 0x6f, 0x80, 0x80, 0x80, 0x80, 0x80, 0x80, 0x80, 0x69,
  0x80, 0x80, 0x69, 0x80, 0x80, 0x80, 0x80, 0x80, 0x80, 0x80, 0x80, 0x92,
  0x80, 0x80, 0x96, 0x80, 0x80, 0x80, 0x80, 0x80, 0x80, 0x80, 0x80, 0x80,
  0x80, 0x80, 0x80, 0x80, 0x80, 0x80, 0x80, 0x80, 0x6f, 0x80, 0x80, 0x80,
  0x80, 0x96, 0x80, 0x80, 0x80, 0x6c, 0x80, 0x80, 0x80, 0x80, 0x80, 0x80,
  0x80, 0x80, 0x80, 0x80, 0x80, 0x80, 0x80, 0xa4, 0x80, 0x80, 0x80, 0x80,
  0x80, 0x80, 0x92, 0xa0, 0x80, 0x80, 0xab, 0x80, 0x80, 0x80, 0x80, 0x68,
  0x80, 0x80, 0x80, 0x80, 0x65, 0x80, 0x80, 0x80, 0x80, 0xa5, 0x6b, 0x80,
  0x80, 0x80, 0x80, 0x80, 0x80, 0x80, 0x80, 0x80, 0x80, 0x80, 0x80, 0x80,
  0x81, 0x80, 0x80, 0xa1, 0x80, 0x80, 0x80, 0x80, 0x80, 0x80, 0x97, 0x96,
  0x80, 0x80, 0xa7, 0x80, 0x80, 0x80, 0x80, 0x80, 0x80, 0x80, 0x80, 0x80,
  0x80, 0x9b, 0x80, 0x80, 0x95, 0x80, 0x80, 0x80, 0x80, 0x80, 0x80, 0x80,
  0x80, 0x80, 0x80, 0x80, 0x80, 0x96, 0x80, 0x80, 0x80, 0x80, 0x80, 0x80,
  0x80, 0x80, 0x80, 0x80, 0x62, 0x80, 0x80, 0x80, 0x80, 0x63, 0x80, 0x80,
  0x80, 0x80, 0x80, 0x80, 0x80, 0x80, 0x80, 0x94, 0x80, 0x80, 0x80, 0x64,
  0x80, 0x9a, 0x80, 0x80, 0x80, 0x80, 0x80, 0x80, 0x80, 0x94, 0x80, 0x80,
  0x80, 0xa4, 0x80, 0x80, 0x80, 0x80, 0x80, 0x95, 0xa0, 0x80, 0x80, 0x7f,
  0x63, 0x80, 0x80, 0x80, 0x80, 0x6b, 0x80, 0x80, 0x92, 0x80, 0x80, 0x5b,
  0x80, 0x69, 0x80, 0x80, 0x66, 0x63, 0x80, 0x6d, 0x80, 0x99, 0x80, 0x80,
  0x80, 0x80, 0x80, 0x6e, 0x80, 0x80, 0x80, 0x80, 0x80, 0x96, 0x80, 0x80,
  0x80, 0x80, 0x80, 0x94, 0x9c, 0x80, 0x80, 0x7f, 0x80, 0x80, 0x80, 0x80,
  0x80, 0x6c, 0x80, 0x91, 0x9f, 0x80, 0x80, 0x80, 0x80, 0x6e, 0x80, 0x80,
  0x6a, 0x80, 0x80, 0x80, 0x80, 0x80, 0xa3, 0x80, 0x80, 0x80, 0x80, 0x80,
  0x80, 0x80, 0x80, 0x68, 0x80, 0x94, 0x80, 0x80, 0x80, 0x92, 0x80, 0x80,
  0x80, 0x80, 0x80, 0x80, 0x80, 0x80, 0x80, 0x80, 0x80, 0x80, 0x93, 0x80,
  0x80, 0x80, 0x80, 0x80, 0x80, 0x80, 0x80, 0x80, 0x80, 0x80, 0x80, 0x80,
  0x80, 0x80, 0x67, 0x80, 0x80, 0x80, 0x80, 0x80, 0x80, 0x94, 0x80, 0x80,
  0x80, 0x9e, 0x96, 0x80, 0x80, 0x80, 0x80, 0x80, 0x80, 0x80, 0x80, 0x80,
  0x80, 0x80, 0x80, 0x80, 0x80, 0x6b, 0x80, 0x80, 0x9a, 0x80, 0x80, 0x80,
  0x69, 0x80, 0x80, 0x80, 0x80, 0x80, 0x80, 0x98, 0x80, 0x80, 0x80, 0x80,
  0x80, 0x80, 0x80, 0x80, 0x80, 0x80, 0x80, 0x80, 0x80, 0x80, 0x80, 0x80,
  0x80, 0x80, 0x80, 0x80, 0x99, 0x80, 0x80, 0x80, 0x80, 0x80, 0x80, 0x80,
  0x80, 0x80, 0x80, 0x80, 0x99, 0x80, 0x80, 0x80, 0x6b, 0x80, 0x80, 0x80,
  0x80, 0x80, 0x80, 0x80, 0x80, 0x80, 0x95, 0x80, 0x80, 0x80, 0x80, 0x80,
  0x80, 0x80, 0x80, 0x80, 0x80, 0x80, 0x80, 0x80, 0x80, 0x80, 0x80, 0x9e,
  0x80, 0x80, 0x80, 0x80, 0x80, 0x81, 0x80, 0x80, 0x81, 0x80, 0x80, 0x80,
  0xae, 0x80, 0x80, 0x5e, 0x55, 0x80, 0x80, 0x80, 0x80, 0x80, 0x80, 0x80,
  0x80, 0x63, 0x9b, 0xa2, 0x80, 0x80, 0x80, 0x80, 0x80, 0x80, 0x80, 0x80,
  0x80, 0x80, 0x80, 0x80, 0x7f, 0x80, 0x80, 0x80, 0x80, 0x80, 0x80, 0xbb,
  0x80, 0x81, 0x80, 0x80, 0x80, 0x80, 0x80, 0x80, 0x80, 0x80, 0x80, 0x62,
  0x5c, 0x80, 0x80, 0x80, 0x80, 0x80, 0x80, 0x80, 0x80, 0x80, 0x9f, 0xab,
  0x80, 0x80, 0x80, 0x80, 0x80, 0x80, 0x80, 0x80, 0x80, 0x80, 0x80, 0x80,
  0x7f, 0x80, 0x80, 0x80, 0x80, 0x80, 0x80, 0xab, 0x80, 0x81, 0x80, 0x80,
  0x80, 0x80, 0x80, 0x9f, 0x80, 0x80, 0x80, 0x80, 0x80, 0x80, 0x80, 0x80,
  0x80, 0x80, 0x80, 0x80, 0x80, 0x80, 0x80, 0x80, 0x80, 0x80, 0x80, 0x80,
  0x80, 0x80, 0x80, 0x80, 0x80, 0x80, 0x80, 0x80, 0x80, 0x80, 0x80, 0x80,
  0x80, 0x80, 0x80, 0x80, 0x80, 0x80, 0x80, 0x81, 0x80, 0x80, 0x80, 0x80,
  0x80, 0x80, 0x80, 0x5f, 0xa3, 0xb6, 0x80, 0x80, 0x80, 0x80, 0x80, 0x80,
  0x80, 0x80, 0x80, 0x80, 0x80, 0x64, 0x80, 0x80, 0x80, 0x67, 0x9b, 0x80,
  0x80, 0x80, 0x80, 0x80, 0xa3, 0x80, 0x80, 0x80, 0x9c, 0x80, 0x80, 0x80,
  0x9a, 0x80, 0x80, 0x80, 0x80, 0x80, 0x63, 0x80, 0x80, 0x80, 0x80, 0x5f,
  0x9c, 0x80, 0x80, 0x80, 0x80, 0x9f, 0x80, 0x80, 0x80, 0x80, 0x59, 0x80,
  0x80, 0x80, 0x80, 0x80, 0x80, 0x80, 0x80, 0x9a, 0x80, 0x80, 0x80, 0x80,
  0x80, 0x80, 0x80, 0x80, 0x80, 0x80, 0x80, 0x80, 0x9d, 0x80, 0xa8, 0x80,
  0x80, 0x80, 0x80, 0x80, 0x80, 0x80, 0x80, 0x80, 0x80, 0x80, 0x80, 0x80,
  0x80, 0x80, 0x80, 0x80, 0x67, 0x80, 0x80, 0x80, 0x80, 0x80, 0x80, 0x80,
  0x80, 0x80, 0x80, 0x80, 0x80, 0x80, 0xb1, 0x80, 0x80, 0x80, 0x80, 0x80,
  0x80, 0x80, 0x80, 0x80, 0x80, 0x80, 0x56, 0x80, 0x80, 0x9a, 0x80, 0x80,
  0x80, 0x80, 0x80, 0x80, 0x80, 0x80, 0x80, 0x80, 0x80, 0xa6, 0x80, 0x80,
  0x80, 0x66, 0x66, 0x80, 0x80, 0x80, 0x80, 0x80, 0x80, 0x80, 0xa0, 0xa8,
  0x80, 0x80, 0xbb, 0x80, 0x5c, 0x80, 0x80, 0xa0, 0x80, 0x80, 0x80, 0x80,
  0x80, 0x80, 0x80, 0x80, 0x80, 0x80, 0x80, 0x9f, 0x80, 0xa0, 0x80, 0x9f,
  0x60, 0x80, 0x80, 0xad, 0x80, 0xa1, 0x80, 0x80, 0x80, 0x60, 0x80, 0x80,
  0x80, 0x80, 0x80, 0x80, 0x80, 0x80, 0x9c, 0x80, 0x80, 0x80, 0x80, 0x80,
  0x80, 0x80, 0x80, 0x80, 0x80, 0x80, 0x80, 0x80, 0x80, 0x80, 0x80, 0x80,
  0x80, 0x80, 0x80, 0x9a, 0x80, 0x9f, 0x9e, 0x80, 0x61, 0x80, 0x80, 0xa8,
  0x80, 0x80, 0x81, 0x80, 0x80, 0x80, 0x80, 0x80, 0x80, 0x80, 0x80, 0x80,
  0x80, 0x80, 0x80, 0x80, 0x92, 0x69, 0x80, 0x80, 0x80, 0x80, 0x80, 0x80,
  0x80, 0x80, 0x80, 0x80, 0x80, 0x80, 0x80, 0x80, 0x80, 0x80, 0x80, 0x80,
  0x80, 0x80, 0x80, 0x80, 0x80, 0x6d, 0x80, 0x80, 0x80, 0x80, 0x80, 0x80,
  0x80, 0x80, 0x6f, 0x92, 0x6c, 0x80, 0x80, 0x80, 0x80, 0x80, 0x80, 0x80,
  0x80, 0x80, 0x80, 0x80, 0x80, 0x80, 0x80, 0x6d, 0x80, 0x80, 0x80, 0x95,
  0x80, 0x80, 0x80, 0x80, 0x80, 0x80, 0x80, 0x80, 0x80, 0x80, 0x80, 0x80,
  0x91, 0x80, 0x80, 0x80, 0x80, 0x80, 0x80, 0x80, 0x80, 0x6a, 0x6a, 0x80,
  0x80, 0x80, 0x80, 0x80, 0x6f, 0x80, 0x6f, 0x80, 0x80, 0x80, 0x80, 0x6d,
  0x80, 0x80, 0x80, 0x80, 0x80, 0x80, 0x80, 0x80, 0x80, 0x80, 0x80, 0x64,
  0x80, 0x80, 0x80, 0x80, 0x80, 0x80, 0x80, 0x80, 0x80, 0x80, 0x80, 0x80,
  0x80, 0x80, 0x80, 0x80, 0x80, 0x80, 0x80, 0x80, 0x80, 0x80, 0x80, 0x80,
  0x80, 0x80, 0x80, 0x80, 0x98, 0x80, 0x80, 0x80, 0x80, 0x80, 0x7f, 0x80,
  0x80, 0x80, 0x80, 0x80, 0x6d, 0x80, 0x6e, 0x80, 0x80, 0x80, 0x80, 0x6c,
  0x80, 0x97, 0x80, 0x80, 0x80, 0x6d, 0x66, 0x80, 0x80, 0x80, 0x80, 0x80,
  0x80, 0x6b, 0x6b, 0x80, 0x80, 0x80, 0x80, 0x80, 0x80, 0x80, 0x80, 0x80,
  0x96, 0x6f, 0x80, 0x80, 0x80, 0x80, 0x80, 0x80, 0x6d, 0x80, 0x80, 0x80,
  0x80, 0x80, 0x80, 0x80, 0x80, 0x80, 0x80, 0x80, 0x80, 0x80, 0x80, 0x80,
  0x80, 0x80, 0x80, 0x80, 0x80, 0x80, 0x80, 0x80, 0x80, 0x80, 0x94, 0x96,
  0x80, 0x80, 0x80, 0x80, 0x80, 0x80, 0x80, 0x80, 0x80, 0x80, 0x80, 0x80,
  0x80, 0x80, 0x80, 0x80, 0x80, 0x80, 0x80, 0x80, 0x80, 0x80, 0x80, 0x80,
  0x80, 0x6f, 0x67, 0x80, 0x80, 0x80, 0x80, 0x80, 0x80, 0x80, 0x80, 0x80,
  0x6e, 0x80, 0x80, 0x90, 0x80, 0x80, 0x98, 0x95, 0x80, 0x80, 0x80, 0x80,
  0x80, 0x80, 0x80, 0x80, 0x80, 0x80, 0x6c, 0x67, 0x6e, 0x96, 0x80, 0x80,
  0x80, 0x80, 0x67, 0x80, 0x80, 0x6c, 0x80, 0x80, 0x80, 0x80, 0x80, 0x80,
  0x80, 0x80, 0x6f, 0x80, 0x80, 0x80, 0x80, 0x80, 0x80, 0x80, 0x80, 0x80,
  0x80, 0x80, 0x80, 0x9c, 0x80, 0x80, 0x80, 0x80, 0x6b, 0x80, 0x9f, 0x80,
  0x80, 0x94, 0x6a, 0x80, 0x80, 0x80, 0x94, 0x80, 0x95, 0x80, 0x80, 0x80,
  0x80, 0x80, 0x6a, 0x80, 0x80, 0x80, 0x80, 0x80, 0x80, 0x80, 0x80, 0x80,
  0x80, 0x9a, 0x80, 0x80, 0x9c, 0x80, 0x80, 0x80, 0x80, 0x80, 0x80, 0x80,
  0x80, 0x80, 0x80, 0x80, 0x80, 0x80, 0xae, 0x80, 0x80, 0x80, 0x80, 0x80,
  0x80, 0x80, 0x80, 0x80, 0x80, 0x80, 0x80, 0x80, 0x9b, 0x80, 0x6b, 0x80,
  0x80, 0x80, 0x9f, 0x80, 0x80, 0x80, 0xa1, 0x80, 0x80, 0xa3, 0x80, 0x80,
  0x80, 0x80, 0x6f, 0x96, 0x80, 0x92, 0x93, 0x80, 0x80, 0x91, 0x80, 0x80,
  0x80, 0x80, 0x80, 0x80, 0x80, 0x80, 0x80, 0x75, 0x80, 0x80, 0x74, 0x80,
  0x80, 0x80, 0x80, 0x80, 0x80, 0x71, 0x80, 0x80, 0x74, 0x80, 0x80, 0x80,
  0x80, 0x80, 0x80, 0x80, 0x80, 0x80, 0x80, 0x80, 0x80, 0x80, 0x80, 0x80,
  0x80, 0x80, 0x80, 0x8a, 0x80, 0x8b, 0x80, 0x80, 0x80, 0x80, 0x80, 0x75,
  0x8b, 0x80, 0x80, 0x80, 0x80, 0x80, 0x80, 0x80, 0x80, 0x80, 0x80, 0x8c,
  0x80, 0x80, 0x80, 0x80, 0x80, 0x80, 0x80, 0x73, 0x80, 0x80, 0x80, 0x80,
  0x8b, 0x80, 0x80, 0x80, 0x80, 0x80, 0x80, 0x80, 0x80, 0x80, 0x80, 0x8b,
  0x80, 0x8b, 0x80, 0x80, 0x80, 0x80, 0x80, 0x8b, 0x93, 0x80, 0x80, 0x80,
  0x80, 0x80, 0x80, 0x80, 0x80, 0x80, 0x8b, 0x8e, 0x80, 0x80, 0x80, 0x80,
  0x80, 0x80, 0x76, 0x72, 0x80, 0x8d, 0x80, 0x80, 0x80, 0x75, 0x80, 0x80,
  0x80, 0x80, 0x80, 0x80, 0x80, 0x75, 0x80, 0x80, 0x80, 0x80, 0x80, 0x80,
  0x80, 0x80, 0x80, 0x80, 0x80, 0x80, 0x80, 0x6b, 0x80, 0x80, 0x80, 0x80,
  0x80, 0x80, 0x80, 0x80, 0x80, 0x73, 0x80, 0x80, 0x64, 0x80, 0x80, 0x80,
  0x80, 0x75, 0x80, 0x80, 0x80, 0x80, 0x76, 0x80, 0x80, 0x80, 0x66, 0x80,
  0x80, 0x80, 0x80, 0x80, 0x80, 0x80, 0x80, 0x80, 0x8a, 0x80, 0x80, 0x80,
  0xa4, 0x80, 0x80, 0x73, 0x80, 0x80, 0x80, 0x80, 0x80, 0x80, 0x80, 0x80,
  0x80, 0x98, 0x80, 0x80, 0x8f, 0x80, 0x80, 0x80, 0x8d, 0x80, 0x80, 0x73,
  0x80, 0x80, 0x80, 0x80, 0x80, 0x80, 0x76, 0x80, 0x80, 0x74, 0x80, 0x80,
  0x80, 0x80, 0x80, 0x80, 0x98, 0x80, 0x80, 0x80, 0x9d, 0x80, 0x80, 0x80,
  0x80, 0x80, 0x80, 0x80, 0x80, 0x76, 0x80, 0x80, 0x80, 0x95, 0x80, 0x80,
  0x9e, 0x75, 0x80, 0x80, 0x80, 0x8e, 0x80, 0x73, 0x80, 0x80, 0x80, 0x80,
  0x80, 0x80, 0x93, 0x80, 0x80, 0x71, 0x80, 0x80, 0x80, 0x80, 0x80, 0x80,
  0x80, 0x80, 0x80, 0x80, 0x80, 0x80, 0x80, 0x80, 0x80, 0x80, 0x80, 0x80,
  0x80, 0x80, 0x80, 0x80, 0x80, 0x72, 0x80, 0x80, 0x80, 0x80, 0x80, 0x80,
  0x80, 0x80, 0x80, 0x74, 0x80, 0x80, 0x80, 0x80, 0x80, 0x80, 0x80, 0x80,
  0x80, 0x80, 0x80, 0x80, 0x80, 0x80, 0x80, 0x80, 0x80, 0x80, 0x80, 0x80,
  0x6f, 0x80, 0x80, 0x80, 0x80, 0x80, 0x80, 0x80, 0x80, 0x80, 0x80, 0x80,
  0x80, 0x80, 0x80, 0x80, 0x80, 0x80, 0x80, 0x80, 0x80, 0x80, 0x80, 0x75,
  0x80, 0x80, 0x80, 0x80, 0x6f, 0x80, 0x80, 0x80, 0x80, 0x80, 0x80, 0x80,
  0x80, 0x80, 0x80, 0x80, 0x80, 0x80, 0x80, 0x80, 0x80, 0x80, 0x80, 0x80,
  0x80, 0x80, 0x80, 0x80, 0x80, 0x8c, 0x80, 0x80, 0x80, 0x94, 0x8b, 0x80,
  0x8d, 0x80, 0x80, 0x80, 0x80, 0x80, 0x76, 0x80, 0x80, 0x80, 0x80, 0x80,
  0x80, 0x80, 0x80, 0x80, 0x80, 0x80, 0x80, 0x80, 0x72, 0x80, 0x80, 0x80,
  0x8f, 0x72, 0x72, 0x80, 0x95, 0x80, 0x80, 0x80, 0x80, 0x80, 0x80, 0x80,
  0x80, 0x94, 0x80, 0x74, 0x80, 0x80, 0x8c, 0x80, 0x8e, 0x80, 0x80, 0x80,
  0x80, 0x80, 0x80, 0x8c, 0x80, 0x80, 0x80, 0x8e, 0x63, 0x80, 0x80, 0x80,
  0x80, 0x80, 0x6c, 0x72, 0x80, 0x80, 0x80, 0x80, 0x80, 0x74, 0x80, 0x80,
  0x80, 0x80, 0x80, 0x80, 0x80, 0x80, 0x80, 0x80, 0x80, 0x80, 0x80, 0x80,
  0x80, 0x80, 0x80, 0x80, 0x80, 0x8f, 0x80, 0x80, 0x80, 0x80, 0x80, 0x80,
  0x80, 0x80, 0x80, 0x80, 0x70, 0x80, 0x6c, 0x80, 0x8e, 0x80, 0x72, 0x80,
  0x80, 0x80, 0x80, 0x80, 0x80, 0x80, 0x80, 0x80, 0x6f, 0x80, 0x80, 0x80,
  0x80, 0x80, 0x6f, 0x80, 0x80, 0x6a, 0x80, 0x80, 0x80, 0x80, 0x80, 0x73,
  0x80, 0x8f, 0x80, 0x80, 0x80, 0x80, 0x80, 0x80, 0x80, 0x80, 0x80, 0x80,
  0x6f, 0x8f, 0x68, 0x80, 0x8d, 0x80, 0x80, 0x72, 0x80, 0x80, 0x80, 0x80,
  0x8e, 0x80, 0x80, 0x6b, 0x8d, 0x72, 0x80, 0x80, 0x80, 0x80, 0x80, 0x80,
  0x8d, 0xb1, 0x80, 0x70, 0x80, 0x8c, 0x80, 0x80, 0x80, 0x72, 0x80, 0x90,
  0x80, 0x93, 0x90, 0xa7, 0x80, 0x80, 0x80, 0x80, 0x90, 0x80, 0xad, 0x80,
  0x80, 0x80, 0x73, 0x80, 0x73, 0x6f, 0x80, 0x80, 0x80, 0x80, 0x80, 0x80,
  0x96, 0x80, 0x80, 0x95, 0x80, 0x80, 0x80, 0x80, 0x80, 0x80, 0x80, 0x80,
  0x80, 0x80, 0x80, 0x80, 0x6d, 0x80, 0x80, 0x80, 0x80, 0x80, 0x80, 0x8d,
  0x8d, 0x80, 0x80, 0x80, 0x80, 0x80, 0x9c, 0x80, 0x80, 0x80, 0x70, 0x80,
  0x80, 0x80, 0x80, 0x80, 0x6a, 0x90, 0x73, 0x80, 0x8c, 0x80, 0x80, 0x7f,
  0x80, 0x80, 0x5a, 0x80, 0x80, 0x6f, 0x80, 0x8d, 0x80, 0x80, 0x80, 0x80,
  0x80, 0x80, 0x80, 0x80, 0x80, 0x80, 0x80, 0x5e, 0x80, 0x80, 0x80, 0x80,
  0x80, 0x80, 0x6f, 0x80, 0x80, 0x80, 0x80, 0x6f, 0x80, 0x80, 0x80, 0x80,
  0x80, 0x9d, 0x6b, 0x80, 0x80, 0x80, 0x80, 0x80, 0x72, 0x80, 0x80, 0x8e,
  0x80, 0x71, 0x80, 0x80, 0x80, 0x80, 0x80, 0x80, 0x80, 0x80, 0x73, 0x80,
  0x80, 0x80, 0x80, 0x98, 0x96, 0x80, 0x80, 0x80, 0x80, 0x80, 0x93, 0x80,
  0x80, 0x80, 0x80, 0x80, 0x80, 0x80, 0x80, 0x80, 0x80, 0x99, 0x74, 0x80,
  0x80, 0x80, 0x80, 0x80, 0x80, 0x80, 0x80, 0x92, 0x80, 0x80, 0x80, 0x80,
  0x80, 0x80, 0x80, 0x80, 0x73, 0x80, 0x80, 0x80, 0x80, 0x80, 0x80, 0x80,
  0x80, 0x80, 0x80, 0x80, 0x80, 0x80, 0x8f, 0x80, 0x80, 0x80, 0x80, 0x80,
  0x80, 0x80, 0x80, 0x80, 0x80, 0x80, 0x80, 0x80, 0x80, 0x80, 0x80, 0x8c,
  0x80, 0x80, 0x80, 0x80, 0x80, 0x80, 0x80, 0x80, 0x80, 0x80, 0x80, 0x80,
  0x80, 0x80, 0x80, 0x80, 0x80, 0x80, 0x80, 0x70, 0x80, 0x80, 0x80, 0x80,
  0x70, 0x80, 0x80, 0x80, 0x80, 0x80, 0x80, 0x80, 0x80, 0x80, 0x80, 0x80,
  0x80, 0x80, 0x80, 0x80, 0x80, 0x80, 0x80, 0x80, 0x80, 0x80, 0x80, 0x80,
  0x80, 0x80, 0x80, 0x80, 0x80, 0x80, 0x90, 0x9b, 0x80, 0x80, 0x80, 0x80,
  0x80, 0x80, 0x80, 0x80, 0x80, 0x80, 0x80, 0x80, 0x80, 0x80, 0x80, 0x6f,
  0x80, 0x80, 0x80, 0x80, 0x80, 0x80, 0x80, 0x80, 0x80, 0x80, 0x80, 0x80,
  0x80, 0x80, 0x80, 0x80, 0x80, 0x80, 0x80, 0x80, 0x80, 0x80, 0x80, 0x80,
  0x80, 0x80, 0x80, 0x80, 0x80, 0x80, 0x80, 0x80, 0x80, 0x80, 0x80, 0x80,
  0x80, 0x80, 0x80, 0x80, 0x80, 0x68, 0x80, 0x80, 0x80, 0x80, 0x80, 0x80,
  0x80, 0x80, 0x80, 0x80, 0x80, 0x80, 0x65, 0x90, 0x80, 0x80, 0x80, 0x80,
  0x80, 0x80, 0x80, 0x80, 0x6b, 0x80, 0x80, 0x80, 0x80, 0x80, 0x80, 0x80,
  0x80, 0x6a, 0x80, 0x6c, 0x80, 0x80, 0x80, 0x80, 0x80, 0x80, 0x80, 0x80,
  0x80, 0x80, 0x80, 0x80, 0x80, 0x80, 0x6b, 0x80, 0x80, 0x80, 0x80, 0x80,
  0x80, 0x92, 0x80, 0x80, 0x80, 0x67, 0x80, 0x7f, 0x80, 0x80, 0x80, 0x80,
  0x80, 0x80, 0x80, 0x80, 0x80, 0x80, 0x80, 0x80, 0x80, 0x80, 0x80, 0x80,
  0x80, 0x80, 0x95, 0x80, 0x6a, 0x80, 0x80, 0x69, 0x80, 0x80, 0x80, 0x9a,
  0x95, 0x80, 0x80, 0x80, 0x80, 0xae, 0x80, 0x90, 0x80, 0x80, 0x80, 0x80,
  0x80, 0x80, 0x80, 0x80, 0x80, 0x80, 0x80, 0x80, 0x80, 0x80, 0x6c, 0x80,
  0x80, 0x80, 0x80, 0x80, 0x80, 0x63, 0x80, 0x80, 0x80, 0x80, 0x96, 0x80,
  0x80, 0x80, 0x80, 0x80, 0x80, 0x80, 0x80, 0x80, 0x80, 0x80, 0x80, 0x8f,
  0x80, 0x98, 0x80, 0x80, 0x80, 0x80, 0x6d, 0x80, 0x80, 0x80, 0x80, 0x80,
  0x80, 0x80, 0x48, 0x80, 0x80, 0x80, 0x80, 0x80, 0x80, 0x80, 0x80, 0x80,
  0x80, 0x68, 0x80, 0x63, 0x80, 0x80, 0x80, 0x80, 0x96, 0x80, 0x80, 0x80,
  0x80, 0x80, 0x80, 0x63, 0x93, 0x80, 0x80, 0x80, 0x80, 0x80, 0x80, 0x96,
  0x80, 0x80, 0x99, 0x80, 0x92, 0x80, 0x80, 0x80, 0x80, 0x80, 0x80, 0x6d,
  0x80, 0x80, 0x90, 0x80, 0x80, 0x80, 0x80, 0x80, 0x80, 0x80, 0x80, 0x80,
  0x80, 0x80, 0x80, 0x80, 0x65, 0x80, 0x80, 0x80, 0x80, 0x80, 0x80, 0x80,
  0x80, 0x80, 0x80, 0x80, 0x80, 0x80, 0x80, 0x80, 0x80, 0x6d, 0xa5, 0x80,
  0x80, 0x80, 0x80, 0x80, 0x80, 0x80, 0x80, 0x80, 0x80, 0x80, 0x80, 0x80,
  0x80, 0x80, 0x80, 0x80, 0x80, 0x80, 0x91, 0x80, 0x80, 0x80, 0x80, 0x80,
  0x80, 0x80, 0x80, 0x80, 0x80, 0x80, 0x70, 0x80, 0x80, 0x80, 0x80, 0x80,
  0x6f, 0x80, 0x80, 0x80, 0x80, 0x80, 0x80, 0x80, 0x94, 0x80, 0x80, 0x80,
  0x80, 0x80, 0x80, 0x80, 0x80, 0x80, 0x80, 0x80, 0x80, 0x80, 0x80, 0x80,
  0x97, 0x68, 0x93, 0x80, 0x6f, 0x80, 0x80, 0x80, 0x80, 0x80, 0x80, 0x80,
  0x80, 0x80, 0x80, 0x80, 0x80, 0x80, 0x80, 0x80, 0x80, 0x80, 0x80, 0x91,
  0x98, 0x80, 0x80, 0xb0, 0x9d, 0x80, 0x9a, 0x80, 0x80, 0x80, 0x80, 0x80,
  0x80, 0x80, 0x80, 0x80, 0x8c, 0x80, 0x80, 0x80, 0x90, 0x80, 0x70, 0x80,
  0x80, 0x8e, 0x80, 0x91, 0x80, 0x80, 0x80, 0x80, 0x80, 0x80, 0x80, 0x80,
  0x80, 0x80, 0x80, 0x8e, 0x80, 0x80, 0x80, 0x92, 0x8d, 0x94, 0x80, 0x96,
  0x90, 0x80, 0xa1, 0x80, 0x80, 0x62, 0x80, 0x80, 0x80, 0x67, 0x80, 0x80,
  0x80, 0x80, 0x80, 0x80, 0x8c, 0x80, 0x80, 0x80, 0x80, 0x80, 0x80, 0x93,
  0x80, 0x80, 0x80, 0x8c, 0x80, 0x80, 0x80, 0x80, 0x80, 0x80, 0x80, 0x80,
  0x74, 0x80, 0x80, 0x80, 0x73, 0x72, 0x90, 0x80, 0x80, 0x80, 0x70, 0x80,
  0x80, 0x80, 0x75, 0x80, 0x80, 0x6f, 0x80, 0x80, 0x60, 0x80, 0x80, 0x80,
  0x80, 0x80, 0x80, 0x80, 0x80, 0x80, 0x80, 0x80, 0x80, 0x80, 0x80, 0x80,
  0x80, 0x80, 0x80, 0x80, 0x80, 0x80, 0x80, 0x80, 0x75, 0x80, 0x80, 0x6d,
  0x80, 0x80, 0x80, 0x80, 0x80, 0x75, 0x80, 0x80, 0x80, 0x80, 0x80, 0x80,
  0x80, 0x80, 0x80, 0x80, 0x80, 0x71, 0x75, 0x80, 0x80, 0x80, 0x80, 0x80,
  0x80, 0x80, 0x80, 0x80, 0x80, 0x73, 0x80, 0x80, 0x80, 0x80, 0x80, 0x80,
  0x80, 0x80, 0x80, 0x73, 0x80, 0x80, 0x80, 0x72, 0x80, 0x80, 0x80, 0x8f,
  0x80, 0x6c, 0x80, 0x80, 0x80, 0x80, 0x80, 0x80, 0x80, 0x80, 0x80, 0x80,
  0x80, 0x70, 0x68, 0x80, 0x80, 0x8c, 0x80, 0x80, 0x80, 0x80, 0x80, 0x80,
  0x80, 0x80, 0x80, 0x80, 0x80, 0x80, 0x80, 0x80, 0x80, 0x8d, 0x8c, 0x80,
  0x8b, 0x80, 0x80, 0x71, 0x80, 0x80, 0x80, 0x80, 0x8c, 0x72, 0x80, 0x72,
  0x80, 0x80, 0x80, 0x80, 0x80, 0x8b, 0x80, 0x80, 0x80, 0x80, 0x71, 0x75,
  0x80, 0x8e, 0x80, 0x80, 0x80, 0x80, 0x8f, 0x80, 0x80, 0x80, 0x80, 0x80,
  0x80, 0x80, 0x8b, 0x80, 0x80, 0x80, 0x80, 0x80, 0x80, 0x80, 0x80, 0x80,
  0x80, 0x80, 0x80, 0x80, 0x80, 0x90, 0x80, 0x8e, 0x80, 0x80, 0x80, 0x80,
  0x8b, 0x80, 0x72, 0x80, 0x80, 0x61, 0x80, 0x80, 0x80, 0x80, 0x80, 0x80,
  0x80, 0x80, 0x80, 0x80, 0x80, 0x80, 0x80, 0x80, 0x8c, 0x80, 0x80, 0x80,
  0x80, 0x80, 0x80, 0x73, 0x80, 0x80, 0x80, 0x80, 0x80, 0x80, 0x80, 0x8c,
  0x80, 0x80, 0x8b, 0x80, 0x75, 0x80, 0x80, 0x80, 0x80, 0x80, 0x80, 0x80,
  0x74, 0x73, 0x80, 0x80, 0x69, 0x80, 0x80, 0x80, 0x6d, 0x80, 0x80, 0x80,
  0x80, 0x80, 0x6f, 0x80, 0x90, 0x80, 0x80, 0x80, 0x80, 0x80, 0x80, 0x80,
  0x80, 0x80, 0x80, 0x71, 0x80, 0x80, 0x80, 0x73, 0x80, 0x80, 0x80, 0x80,
  0x80, 0x80, 0x80, 0x80, 0x80, 0x80, 0x80, 0x80, 0x80, 0x8c, 0x8c, 0x80,
  0x74, 0x80, 0x80, 0x80, 0x80, 0x80, 0x80, 0x80, 0x80, 0x80, 0x80, 0x80,
  0x80, 0x94, 0x80, 0x80, 0x80, 0x80, 0x80, 0x80, 0x80, 0x80, 0x80, 0x75,
  0x80, 0x98, 0x80, 0x80, 0x80, 0xac, 0x80, 0x80, 0x80, 0x9c, 0x80, 0x9e,
  0x80, 0x93, 0x80, 0x80, 0x80, 0x80, 0x80, 0x80, 0x70, 0x80, 0x80, 0x90,
  0x80, 0x9e, 0x80, 0x69, 0x5f, 0x80, 0x80, 0x80, 0x91, 0x80, 0x80, 0x80,
  0x80, 0x90, 0x80, 0x80, 0x80, 0x80, 0x80, 0x80, 0x80, 0x8f, 0x80, 0x80,
  0x8f, 0x91, 0x80, 0x80, 0x80, 0x80, 0x70, 0x80, 0x80, 0x80, 0x80, 0x80,
  0x80, 0x80, 0x80, 0x80, 0x80, 0x6e, 0x80, 0x80, 0x80, 0x8f, 0x80, 0x70,
  0x80, 0x80, 0x80, 0x80, 0x80, 0x80, 0x9a, 0x80, 0x92, 0x80, 0x70, 0x80,
  0x80, 0x80, 0x80, 0x80, 0x69, 0x80, 0x80, 0x80, 0x80, 0x6c, 0x80, 0x80,
  0x80, 0x80, 0x55, 0x80, 0x80, 0x80, 0x72, 0x80, 0x80, 0x80, 0x80, 0x80,
  0x80, 0x80, 0x6a, 0x80, 0x80, 0x70, 0x80, 0x80, 0x80, 0x80, 0x80, 0x80,
  0x80, 0x80, 0x70, 0x80, 0x80, 0x80, 0x80, 0x93, 0x80, 0x80, 0x80, 0x80,
  0x80, 0x8e, 0x80, 0x80, 0x80, 0x80, 0x80, 0x80, 0x80, 0x8e, 0x80, 0x80,
  0x80, 0x6d, 0x71, 0x80, 0x80, 0x9b, 0x96, 0x80, 0x80, 0x80, 0x80, 0x69,
  0x80, 0x80, 0x80, 0x80, 0x80, 0x80, 0x80, 0x80, 0x6f, 0x80, 0x80, 0x80,
  0x80, 0x70, 0x80, 0x80, 0x80, 0x80, 0x80, 0x80, 0x80, 0x80, 0x80, 0x80,
  0x80, 0x80, 0x80, 0x80, 0x80, 0x80, 0x80, 0x80, 0x80, 0x6e, 0x6e, 0x80,
  0x80, 0x80, 0x80, 0x80, 0x80, 0x80, 0x80, 0x80, 0x80, 0x6d, 0x72, 0x80,
  0x80, 0x80, 0x80, 0x80, 0x80, 0x92, 0x80, 0x80, 0x80, 0x80, 0x80, 0x80,
  0x80, 0x80, 0x80, 0x70, 0x80, 0x80, 0x80, 0x91, 0x80, 0x71, 0x80, 0x80,
  0x80, 0x6f, 0x70, 0x80, 0x80, 0x80, 0x80, 0x80, 0x80, 0x80, 0x80, 0x80,
  0x80, 0x90, 0x80, 0x80, 0x80, 0x80, 0x80, 0x80, 0x80, 0x80, 0x6f, 0x80,
  0x80, 0x80, 0x80, 0x80, 0x80, 0x80, 0x80, 0x80, 0x80, 0x80, 0x80, 0x80,
  0x93, 0x80, 0x80, 0x80, 0x9b, 0x80, 0x80, 0x80, 0x80, 0x80, 0x80, 0x80,
  0x80, 0x96, 0x80, 0x80, 0x80, 0xa3, 0x8f, 0x80, 0x9d, 0x80, 0x80, 0x80,
  0x80, 0x80, 0x80, 0x80, 0x92, 0x80, 0x80, 0x80, 0x5d, 0x80, 0x80, 0x80,
  0x80, 0x69, 0x80, 0x80, 0x80, 0x80, 0x80, 0x80, 0x8f, 0x80, 0x80, 0x98,
  0x80, 0x80, 0x90, 0x9e, 0x80, 0x80, 0x80, 0x80, 0x80, 0x94, 0x80, 0x80,
  0x80, 0x80, 0x80, 0x80, 0xa1, 0x80, 0x80, 0x80, 0x80, 0x80, 0x80, 0x80,
  0x95, 0x80, 0x80, 0x80, 0x80, 0x80, 0x80, 0x80, 0x80, 0x6a, 0x80, 0x80,
  0x80, 0x80, 0x80, 0x80, 0x80, 0x80, 0x80, 0x80, 0x80, 0x80, 0x80, 0x80,
  0x80, 0x80, 0x80, 0x80, 0x80, 0x80, 0x80, 0x80, 0x80, 0x80, 0x80, 0x80,
  0x80, 0x80, 0x80, 0x80, 0x80, 0x80, 0x80, 0x91, 0x80, 0x80, 0x80, 0x80,
  0x80, 0x80, 0x80, 0x80, 0x80, 0x80, 0x80, 0x80, 0x80, 0x80, 0x80, 0x80,
  0x80, 0x81, 0x80, 0x7f, 0x7f, 0x80, 0x7f, 0x81, 0x80, 0x80, 0x81, 0x80,
  0xa1, 0x81, 0x7f, 0x80, 0x81, 0x7e, 0x81, 0x80, 0x80, 0x80, 0x81, 0xac,
  0x80, 0x80, 0x80, 0x80, 0x80, 0x80, 0x80, 0x81, 0x9b, 0x80, 0xa0, 0x80,
  0x80, 0x61, 0x9b, 0x7f, 0x7f, 0x80, 0x80, 0x7f, 0x80, 0x81, 0x80, 0x80,
  0x7f, 0x80, 0x80, 0x82, 0x80, 0x80, 0x80, 0x80, 0xac, 0xb1, 0x7f, 0x80,
  0x80, 0x7e, 0x81, 0x7f, 0x80, 0x80, 0x80, 0xb9, 0x7f, 0x80, 0x80, 0xa6,
  0x80, 0x80, 0x80, 0x80, 0x80, 0x80, 0x80, 0x80, 0x80, 0x62, 0x9d, 0x64,
  0x7f, 0x80, 0x80, 0x7f, 0x64, 0x81, 0x7f, 0x80, 0x7f, 0x80, 0x9c, 0x83,
  0x80, 0x80, 0x80, 0x7f, 0xb6, 0xa2, 0x7f, 0x81, 0x80, 0x7e, 0x80, 0x5c,
  0x7f, 0x80, 0x80, 0xb0, 0x7f, 0x80, 0x80, 0xbc, 0x80, 0x80, 0x80, 0xa9,
  0x80, 0x80, 0xab, 0x80, 0x5a, 0x7f, 0x9a, 0x7f, 0x80, 0x80, 0x80, 0x7f,
  0x81, 0xad, 0x81, 0x7f, 0x7f, 0x80, 0x9e, 0x81, 0x81, 0x81, 0x82, 0x80,
  0x80, 0x81, 0x7f, 0x83, 0x81, 0x7f, 0x5f, 0x80, 0x80, 0x80, 0x81, 0xaa,
  0x80, 0x80, 0x80, 0xc6, 0x9b, 0x81, 0x80, 0x80, 0x80, 0x80, 0x80, 0x80,
  0x7f, 0x81, 0x80, 0x80, 0x62, 0x9d, 0x80, 0x80, 0x80, 0xa4, 0x9c, 0x80,
  0x7f, 0x80, 0x7f, 0x82, 0x81, 0x67, 0x81, 0x80, 0x80, 0x81, 0x7f, 0x83,
  0xa3, 0x80, 0x63, 0x80, 0x80, 0x81, 0x9c, 0x81, 0x80, 0x80, 0x80, 0xba,
  0xae, 0x81, 0x7f, 0x80, 0x80, 0x65, 0x80, 0x80, 0x80, 0x80, 0x80, 0x80,
  0x5e, 0xab, 0x80, 0x80, 0x80, 0x81, 0x7f, 0x64, 0x7f, 0x80, 0x80, 0x84,
  0x81, 0x80, 0x80, 0x9e, 0x80, 0x81, 0x7f, 0x82, 0x80, 0x80, 0x60, 0x7f,
  0x80, 0x80, 0x81, 0x9e, 0x80, 0x80, 0x80, 0xcf, 0xb2, 0x80, 0x7f, 0x80,
  0x80, 0x80, 0x80, 0x80, 0x80, 0x80, 0x80, 0x80, 0x80, 0x80, 0x80, 0x5f,
  0x80, 0xb7, 0x80, 0x80, 0x7f, 0x80, 0x80, 0x81, 0x81, 0x63, 0x82, 0x80,
  0x80, 0xa0, 0x80, 0x82, 0x80, 0x80, 0x80, 0x80, 0x80, 0x80, 0x81, 0x80,
  0x80, 0x80, 0x80, 0x81, 0x82, 0x81, 0x80, 0x80, 0x80, 0x80, 0x80, 0x80,
  0x7f, 0x81, 0x9f, 0x80, 0x80, 0x80, 0x7f, 0x80, 0x80, 0xb4, 0x80, 0x80,
  0x7f, 0xa6, 0x80, 0x82, 0x81, 0x5a, 0x81, 0x80, 0x81, 0x9d, 0x80, 0x82,
  0x80, 0x80, 0x80, 0x80, 0x80, 0x80, 0x81, 0x81, 0x80, 0x80, 0x80, 0x80,
  0xa9, 0xa7, 0x54, 0x80, 0x80, 0x80, 0x80, 0x80, 0x7f, 0x81, 0x9d, 0x80,
  0x80, 0x80, 0x80, 0x80, 0x80, 0xbd, 0x80, 0x80, 0x7f, 0x80, 0x80, 0x83,
  0x81, 0x80, 0x61, 0x80, 0x80, 0x9c, 0x80, 0x82, 0x80, 0x80, 0x5e, 0x80,
  0x80, 0x80, 0x81, 0x80, 0x80, 0x80, 0x80, 0x80, 0xa7, 0x9e, 0x56, 0x80,
  0x80, 0x80, 0x80, 0x80, 0x80, 0x81, 0x81, 0x81, 0x80, 0x80, 0x7f, 0x80,
  0x80, 0x80, 0x80, 0x80, 0x80, 0x80, 0x80, 0x80, 0x80, 0x80, 0x80, 0x67,
  0x80, 0x80, 0x80, 0x80, 0x80, 0x80, 0x6b, 0x80, 0x80, 0x67, 0x80, 0x80,
  0x80, 0x80, 0x80, 0x95, 0x80, 0x80, 0x80, 0x80, 0x80, 0x80, 0x80, 0x80,
  0x80, 0x80, 0x80, 0x80, 0x80, 0x80, 0x80, 0x80, 0x80, 0x96, 0x80, 0x80,
  0x80, 0x80, 0x80, 0x80, 0x80, 0x80, 0x80, 0x80, 0x80, 0x80, 0x80, 0x80,
  0x80, 0x80, 0x80, 0x80, 0x80, 0x80, 0x80, 0x80, 0x80, 0x80, 0x80, 0x80,
  0x80, 0x80, 0x80, 0x80, 0x80, 0x80, 0x80, 0x80, 0x95, 0x80, 0x80, 0x80,
  0x80, 0x80, 0x80, 0x98, 0x80, 0x80, 0x80, 0x80, 0x80, 0x80, 0x80, 0x80,
  0x80, 0x80, 0x80, 0x80, 0x80, 0x69, 0x80, 0xa4, 0x80, 0x80, 0x95, 0x80,
  0x80, 0x80, 0x9a, 0x80, 0x80, 0x80, 0x80, 0x80, 0x80, 0x80, 0x80, 0x80,
  0x80, 0x80, 0x80, 0x80, 0x80, 0x80, 0x80, 0x96, 0x80, 0x80, 0x80, 0x80,
  0x80, 0x80, 0x6a, 0x80, 0x80, 0x80, 0x61, 0x80, 0x80, 0x80, 0xaf, 0x64,
  0x80, 0x67, 0x80, 0x80, 0x80, 0x69, 0x80, 0x80, 0x80, 0x80, 0x80, 0x80,
  0x80, 0x80, 0x67, 0x60, 0x80, 0x80, 0x80, 0x80, 0x80, 0x80, 0x6b, 0x80,
  0x80, 0x80, 0x80, 0x6a, 0x60, 0x80, 0x80, 0x80, 0x61, 0xad, 0x80, 0x80,
  0x80, 0x80, 0x80, 0x80, 0x80, 0x80, 0x7f, 0xab, 0x94, 0x80, 0x80, 0x80,
  0x80, 0x7f, 0x7f, 0x80, 0x80, 0x80, 0x9b, 0x80, 0x7f, 0x80, 0x80, 0x65,
  0x80, 0x6a, 0x80, 0x97, 0x60, 0x80, 0x6a, 0x80, 0x80, 0x80, 0x80, 0x80,
  0x62, 0x66, 0x80, 0x94, 0x80, 0x9e, 0x80, 0x80, 0x80, 0x80, 0x80, 0x80,
  0x7f, 0x95, 0x80, 0xa6, 0x80, 0x80, 0x80, 0x97, 0x7f, 0x7f, 0x94, 0x80,
  0x80, 0x7f, 0x80, 0x80, 0x97, 0x80, 0xbb, 0x6a, 0x80, 0x80, 0x80, 0x95,
  0x5f, 0x54, 0x69, 0x6c, 0x68, 0x80, 0x80, 0x80, 0x99, 0x80, 0x80, 0x80,
  0x80, 0x80, 0x80, 0x64, 0x80, 0x80, 0x80, 0x80, 0x80, 0x80, 0x80, 0x80,
  0x80, 0x80, 0x80, 0x80, 0x80, 0x80, 0x80, 0x80, 0x80, 0x80, 0x80, 0x99,
  0x80, 0x80, 0x80, 0x80, 0x80, 0x80, 0x80, 0x95, 0x80, 0x80, 0x80, 0x80,
  0x80, 0x80, 0x80, 0x80, 0x64, 0x80, 0x80, 0x6a, 0x80, 0x80, 0x80, 0x80,
  0x80, 0x60, 0x80, 0x80, 0x80, 0x96, 0x80, 0x80, 0x80, 0x80, 0x80, 0x98,
  0x80, 0x80, 0xa8, 0x80, 0x80, 0x80, 0x9c, 0x80, 0x80, 0xa0, 0x80, 0x80,
  0x80, 0x80, 0x80, 0x80, 0x80, 0x6b, 0x80, 0x80, 0x80, 0x80, 0x6c, 0x6b,
  0x6b, 0x80, 0x80, 0x80, 0x80, 0x80, 0x80, 0x80, 0x80, 0x80, 0x80, 0x80,
  0x80, 0x80, 0x80, 0x80, 0x80, 0x80, 0x80, 0x80, 0x80, 0x80, 0x96, 0x80,
  0x80, 0x80, 0x80, 0x80, 0x80, 0x80, 0x80, 0x80, 0x68, 0x80, 0x80, 0x80,
  0x80, 0x67, 0x80, 0x80, 0x80, 0x7f, 0x80, 0x80, 0x65, 0x6a, 0x80, 0x80,
  0x80, 0x80, 0x80, 0x80, 0x80, 0x80, 0x80, 0x80, 0x80, 0x80, 0x80, 0x80,
  0x80, 0x6d, 0x80, 0x80, 0x80, 0x80, 0x80, 0x80, 0x80, 0x80, 0x80, 0x80,
  0x80, 0x80, 0x80, 0x80, 0x80, 0x80, 0x80, 0x80, 0x80, 0x80, 0x80, 0x80,
  0x80, 0x80, 0x80, 0x80, 0x80, 0x80, 0x80, 0x80, 0x80, 0x68, 0x64, 0x80,
  0x93, 0x5b, 0x80, 0x80, 0x6c, 0x80, 0x80, 0x80, 0x80, 0x80, 0x80, 0x80,
  0x80, 0x80, 0x80, 0x80, 0x80, 0x6f, 0x80, 0x80, 0x80, 0x93, 0x80, 0x80,
  0x80, 0x80, 0x80, 0x80, 0x80, 0x80, 0x80, 0x80, 0x80, 0x80, 0x80, 0x80,
  0x80, 0x80, 0x80, 0x80, 0x80, 0x80, 0x80, 0x80, 0x6b, 0x80, 0x80, 0x80,
  0x80, 0x80, 0x80, 0x80, 0x80, 0x71, 0x80, 0x80, 0x80, 0x80, 0x80, 0x80,
  0x80, 0x80, 0x80, 0x80, 0x80, 0x80, 0x80, 0x80, 0x80, 0x80, 0x80, 0x80,
  0x80, 0x80, 0x80, 0x8f, 0x80, 0x80, 0x80, 0x80, 0x80, 0x80, 0x80, 0x80,
  0x9e, 0x98, 0x80, 0x80, 0x8f, 0x80, 0x80, 0x6f, 0x80, 0x80, 0x80, 0x80,
  0x80, 0x6f, 0x80, 0x80, 0x80, 0x80, 0x80, 0x80, 0x80, 0x80, 0x80, 0x80,
  0x80, 0x80, 0x80, 0x80, 0x80, 0x80, 0x80, 0x80, 0x80, 0x6f, 0x71, 0x91,
  0x80, 0x80, 0x80, 0x80, 0x80, 0x80, 0x80, 0x92, 0x80, 0x95, 0x80, 0x69,
  0x9f, 0x80, 0x6e, 0x71, 0x80, 0x69, 0x80, 0x92, 0x80, 0xae, 0x80, 0x80,
  0x80, 0x80, 0x80, 0x80, 0x80, 0x6f, 0x80, 0x80, 0x80, 0x80, 0x80, 0x9b,
  0x80, 0x80, 0x80, 0x80, 0x98, 0x80, 0x80, 0x80, 0x80, 0x80, 0x80, 0x80,
  0x80, 0x80, 0x80, 0x80, 0x80, 0x80, 0x80, 0x80, 0x6a, 0x80, 0x80, 0x80,
  0x80, 0x80, 0x6f, 0x80, 0x80, 0x80, 0x80, 0x80, 0x80, 0x80, 0x80, 0x80,
  0x80, 0x80, 0x80, 0x80, 0x80, 0x80, 0x80, 0x65, 0x80, 0x80, 0x80, 0x80,
  0x80, 0x80, 0x80, 0x91, 0x80, 0x80, 0x80, 0x80, 0x80, 0x80, 0x80, 0x80,
  0x80, 0x80, 0x80, 0x80, 0x80, 0x80, 0x80, 0x6c, 0x80, 0x80, 0x80, 0x80,
  0x80, 0x80, 0x71, 0x80, 0x80, 0x80, 0x80, 0x80, 0x80, 0x80, 0x80, 0x80,
  0x80, 0x80, 0x80, 0x80, 0x80, 0x80, 0x80, 0x80, 0x80, 0x80, 0x80, 0x80,
  0x80, 0x80, 0x80, 0x80, 0x80, 0x80, 0x80, 0x80, 0x80, 0xb5, 0x80, 0x71,
  0x91, 0x98, 0x80, 0x80, 0x80, 0x5d, 0x80, 0x80, 0x80, 0xa8, 0x80, 0x80,
  0x80, 0x80, 0x6a, 0x80, 0x6a, 0x6e, 0x80, 0x80, 0x80, 0x95, 0x80, 0x80,
  0xa1, 0x80, 0x80, 0x80, 0x80, 0x80, 0x92, 0x80, 0x80, 0x80, 0x80, 0x80,
  0x80, 0x80, 0x80, 0x80, 0x80, 0x80, 0x90, 0x80, 0x6e, 0x80, 0x80, 0x80,
  0x80, 0x80, 0x80, 0x80, 0x80, 0x80, 0x80, 0x80, 0x80, 0x80, 0x80, 0x80,
  0x80, 0x80, 0x80, 0x80, 0x80, 0x80, 0x80, 0x67, 0x80, 0x80, 0x80, 0x80,
  0x6f, 0x80, 0x80, 0x80, 0x80, 0x6f, 0x80, 0x80, 0x80, 0x80, 0x80, 0x80,
  0x80, 0x80, 0x94, 0x80, 0x80, 0x6f, 0x6c, 0x4a, 0x80, 0x80, 0x7f, 0x80,
  0x80, 0x80, 0x6f, 0x80, 0x80, 0x80, 0x80, 0x80, 0x80, 0x80, 0x80, 0x80,
  0x80, 0x80, 0x66, 0x80, 0x80, 0x80, 0x80, 0x80, 0x80, 0x97, 0x80, 0x80,
  0x80, 0x80, 0x80, 0x80, 0x80, 0x6f, 0x80, 0x90, 0x80, 0x80, 0x80, 0x80,
  0x80, 0x80, 0x80, 0x80, 0x80, 0x80, 0x96, 0x93, 0x80, 0x80, 0x80, 0x80,
  0x80, 0x80, 0x80, 0x80, 0x80, 0x80, 0x80, 0x96, 0x80, 0x80, 0x80, 0x92,
  0x80, 0x80, 0x80, 0x80, 0x80, 0x80, 0x80, 0x80, 0x80, 0x8f, 0x90, 0x80,
  0x80, 0x80, 0x80, 0x80, 0x97, 0x80, 0x80, 0x80, 0x6c, 0x94, 0xc0, 0x80,
  0x80, 0x80, 0x8f, 0xa3, 0x95, 0x80, 0x80, 0x80, 0x99, 0x80, 0x80, 0x80,
  0x80, 0x80, 0x80, 0x80, 0xa2, 0x80, 0x80, 0x80, 0x80, 0x8f, 0x6c, 0x80,
  0x80, 0x6a, 0x80, 0x80, 0x80, 0x80, 0xa0, 0x80, 0x80, 0x80, 0x80, 0x80,
  0x70, 0x80, 0x80, 0x80, 0x68, 0x80, 0x80, 0x5e, 0x6c, 0x80, 0x80, 0x80,
  0x80, 0x70, 0x80, 0x80, 0x6a, 0x80, 0x80, 0x80, 0x80, 0x80, 0x80, 0x80,
  0x80, 0x71, 0x80, 0x80, 0x80, 0x80, 0x80, 0x80, 0x80, 0x90, 0x80, 0x8f,
  0x80, 0x80, 0x80, 0x80, 0x80, 0x80, 0x80, 0x80, 0x80, 0x80, 0x80, 0x80,
  0x70, 0x80, 0x80, 0x80, 0x80, 0x80, 0x80, 0x80, 0x80, 0x80, 0x80, 0x80,
  0x80, 0x80, 0x80, 0x80, 0x80, 0x80, 0x80, 0x80, 0x70, 0x80, 0x80, 0x80,
  0x80, 0x80, 0x80, 0x80, 0x80, 0x80, 0x80, 0x80, 0x80, 0x80, 0x80, 0x70,
  0x80, 0x80, 0x80, 0x80, 0x80, 0x80, 0x95, 0x80, 0x80, 0x90, 0x6b, 0x7f,
  0x80, 0x80, 0x80, 0x80, 0xa7, 0x6c, 0x80, 0x80, 0x80, 0x80, 0x80, 0x80,
  0x80, 0x80, 0x80, 0x6b, 0x6e, 0x80, 0x80, 0x80, 0x80, 0x80, 0x80, 0x80,
  0x80, 0x80, 0x80, 0x80, 0x80, 0x80, 0x80, 0x80, 0x80, 0x80, 0x80, 0x80,
  0x80, 0x80, 0x80, 0x80, 0x80, 0x6e, 0x80, 0x80, 0x80, 0x80, 0x80, 0x71,
  0x80, 0x80, 0x80, 0x80, 0x80, 0x80, 0x80, 0x80, 0x80, 0x80, 0x80, 0x80,
  0x80, 0x80, 0x80, 0x80, 0x80, 0x80, 0x80, 0x80, 0x80, 0x91, 0x80, 0x80,
  0x80, 0x80, 0x71, 0x80, 0x80, 0x80, 0x80, 0x80, 0x80, 0x80, 0x94, 0x80,
  0x80, 0x80, 0x80, 0x80, 0x80, 0x80, 0x68, 0x70, 0x6f, 0x80, 0x80, 0x80,
  0x80, 0x6e, 0x80, 0x80, 0x80, 0x80, 0x80, 0x80, 0x80, 0x80, 0x80, 0x6f,
  0x80, 0x80, 0x80, 0x80, 0x80, 0x80, 0x80, 0x80, 0x80, 0x80, 0x80, 0x80,
  0x80, 0x80, 0x92, 0x80, 0x80, 0x80, 0x80, 0x80, 0x80, 0x80, 0x80, 0x96,
  0x80, 0x80, 0x80, 0x80, 0x71, 0x80, 0x80, 0x80, 0x80, 0x80, 0x80, 0x80,
  0x80, 0x80, 0x80, 0x68, 0x80, 0x80, 0x80, 0x6c, 0x80, 0x80, 0x80, 0x80,
  0x80, 0x80, 0x80, 0x80, 0x80, 0x6c, 0x80, 0x80, 0x80, 0x80, 0x8f, 0x80,
  0x80, 0x80, 0x80, 0x80, 0x80, 0x80, 0x80, 0x80, 0x80, 0x80, 0x6a, 0x80,
  0x80, 0x99, 0x80, 0x80, 0x80, 0x80, 0x80, 0x80, 0x68, 0x80, 0x80, 0x80,
  0x98, 0x80, 0x80, 0x80, 0x80, 0x80, 0x80, 0x80, 0x80, 0x80, 0xa4, 0x80,
  0x80, 0x80, 0x80, 0x80, 0x80, 0x80, 0x80, 0x67, 0x80, 0x80, 0x80, 0x80,
  0x80, 0x80, 0x80, 0x63, 0x80, 0x80, 0x80, 0x80, 0x80, 0x9b, 0x80, 0x80,
  0x80, 0x80, 0x80, 0x80, 0x5c, 0x80, 0x80, 0x80, 0x80, 0x63, 0x80, 0x80,
  0x80, 0x80, 0x65, 0x80, 0x80, 0x80, 0xa3, 0x80, 0x80, 0x80, 0x80, 0x80,
  0x80, 0x80, 0x80, 0x80, 0x80, 0x80, 0x80, 0x80, 0xad, 0x80, 0x95, 0x5f,
  0x80, 0x80, 0x80, 0x80, 0x80, 0x80, 0x80, 0x80, 0x80, 0x80, 0x80, 0x80,
  0x5e, 0x80, 0x80, 0x80, 0x80, 0x80, 0x80, 0x80, 0x80, 0x80, 0x61, 0x80,
  0x80, 0x80, 0xb4, 0x80, 0x80, 0x80, 0x6a, 0x6a, 0x80, 0x80, 0x80, 0x80,
  0x5f, 0x80, 0x80, 0x96, 0xa9, 0x80, 0x80, 0x68, 0x80, 0x80, 0x5b, 0x80,
  0x80, 0x80, 0x80, 0x80, 0x80, 0x80, 0x80, 0x80, 0x80, 0x80, 0x80, 0x80,
  0x80, 0x80, 0x96, 0x80, 0x6a, 0x95, 0x80, 0x80, 0x80, 0x96, 0xa1, 0x80,
  0x80, 0x80, 0x80, 0x80, 0x80, 0x80, 0x80, 0x64, 0x5d, 0x94, 0x80, 0x99,
  0xa3, 0x80, 0x80, 0x53, 0x80, 0x80, 0x80, 0x80, 0x80, 0x80, 0x80, 0x80,
  0x80, 0x80, 0x80, 0x80, 0x80, 0x80, 0x80, 0x80, 0x97, 0x80, 0x80, 0x80,
  0x80, 0x80, 0x80, 0x80, 0x80, 0x80, 0xa1, 0x80, 0x95, 0x80, 0x80, 0x80,
  0x80, 0x80, 0x80, 0x5a, 0x6a, 0x9b, 0x80, 0x80, 0xa3, 0x80, 0x80, 0x4a,
  0x80, 0x80, 0x80, 0x80, 0x80, 0x80, 0x80, 0x80, 0x67, 0x80, 0x80, 0x80,
  0x80, 0x80, 0x80, 0x80, 0x80, 0x80, 0x80, 0x9f, 0x80, 0x80, 0x80, 0x80,
  0x80, 0x80, 0xbb, 0x80, 0x94, 0x80, 0x80, 0x80, 0x80, 0x80, 0x95, 0x80,
  0x80, 0x80, 0x80, 0x80, 0x80, 0x80, 0x80, 0x80, 0x80, 0x80, 0x6b, 0x80,
  0x80, 0x80, 0x80, 0x80, 0x80, 0x80, 0x80, 0x80, 0x80, 0x80, 0x80, 0x80,
  0x80, 0x80, 0x80, 0x80, 0x80, 0x80, 0x80, 0x80, 0x80, 0x80, 0x80, 0x80,
  0x80, 0x80, 0x80, 0x80, 0x80, 0x80, 0x80, 0x5b, 0x80, 0x80, 0x80, 0x80,
  0x80, 0x80, 0x80, 0x80, 0x80, 0x80, 0x80, 0x80, 0x80, 0x80, 0x80, 0x80,
  0x80, 0x80, 0x80, 0x80, 0x80, 0x80, 0x80, 0x80, 0x80, 0x80, 0x80, 0x80,
  0x80, 0x80, 0x80, 0x80, 0x80, 0x80, 0x80, 0x80, 0x80, 0x80, 0x80, 0x80,
  0x80, 0x80, 0x80, 0x64, 0x80, 0x80, 0x80, 0x80, 0x80, 0x80, 0x80, 0x6c,
  0x80, 0x80, 0x80, 0x80, 0x80, 0x80, 0x80, 0x80, 0x80, 0x80, 0x80, 0x80,
  0x80, 0x80, 0x80, 0x80, 0x80, 0x80, 0x80, 0x80, 0x80, 0x80, 0x80, 0x80,
  0x80, 0x80, 0x80, 0x80, 0x80, 0x96, 0x80, 0x80, 0x80, 0x80, 0x80, 0x5e,
  0x80, 0x80, 0x80, 0x80, 0x80, 0x80, 0x80, 0x80, 0x80, 0x65, 0x80, 0x80,
  0x80, 0x80, 0x80, 0x80, 0x80, 0x80, 0x6c, 0x80, 0x80, 0x80, 0x80, 0x80,
  0x80, 0x80, 0x60, 0x93, 0x80, 0x80, 0x80, 0x80, 0x80, 0x80, 0x68, 0x80,
  0x80, 0x80, 0x80, 0x80, 0x80, 0x80, 0x80, 0xa6, 0x80, 0x80, 0x80, 0x80,
  0x80, 0x80, 0x80, 0x80, 0x80, 0x80, 0x80, 0x80, 0x80, 0x80, 0x80, 0x80,
  0x80, 0x80, 0x80, 0x80, 0x80, 0x80, 0x80, 0x80, 0x80, 0x80, 0x80, 0x97,
  0x80, 0x80, 0x80, 0x80, 0x80, 0x80, 0x80, 0x80, 0x80, 0x80, 0x80, 0x80,
  0x80, 0x80, 0x80, 0x98, 0x80, 0x80, 0x80, 0x6a, 0x80, 0x80, 0x80, 0x80,
  0x80, 0x80, 0x6c, 0x80, 0x80, 0x80, 0x80, 0x80, 0x80, 0x80, 0x80, 0x80,
  0x80, 0x80, 0x80, 0x80, 0x80, 0x80, 0x80, 0x80, 0x80, 0x80, 0xa0, 0x80,
  0x80, 0x80, 0x80, 0x80, 0x80, 0x80, 0x80, 0x80, 0x80, 0x80, 0x80, 0x80,
  0x9b, 0x80, 0x80, 0x80, 0x80, 0x80, 0x80, 0x48, 0x93, 0x80, 0x80, 0x80,
  0x80, 0x80, 0x80, 0x6d, 0x80, 0x80, 0x80, 0x80, 0x80, 0x80, 0x80, 0x80,
  0x80, 0x80, 0x64, 0x80, 0x80, 0x94, 0x80, 0x80, 0x6c, 0x80, 0x80, 0x5c,
  0x52, 0x80, 0x80, 0x80, 0x97, 0x68, 0x80, 0x80, 0x80, 0x80, 0x80, 0x80,
  0x80, 0x80, 0x80, 0x80, 0x80, 0x80, 0x99, 0x80, 0x80, 0x80, 0x80, 0x80,
  0x80, 0x80, 0x80, 0x80, 0x80, 0x80, 0x68, 0x80, 0x80, 0x80, 0x80, 0x80,
  0x80, 0x98, 0x80, 0x80, 0x65, 0x80, 0x80, 0x80, 0x80, 0x80, 0x80, 0x80,
  0x80, 0x80, 0x80, 0x80, 0x80, 0x80, 0x6a, 0x80, 0x80, 0x80, 0x69, 0x80,
  0x80, 0x80, 0x80, 0x80, 0x80, 0x80, 0x80, 0x80, 0x93, 0x80, 0x80, 0x80,
  0x80, 0x67, 0x64, 0x80, 0x93, 0x80, 0x80, 0x80, 0x66, 0x80, 0x80, 0x97,
  0x80, 0x58, 0x80, 0x93, 0x80, 0x80, 0x6c, 0x9d, 0x80, 0x80, 0x80, 0x5e,
  0x80, 0x80, 0x61, 0x80, 0x80, 0x80, 0x80, 0x45, 0x6d, 0x80, 0x80, 0x80,
  0x80, 0x80, 0x65, 0x80, 0x80, 0x80, 0x80, 0x80, 0x80, 0x80, 0x80, 0x80,
  0x80, 0x80, 0x80, 0x80, 0x80, 0x80, 0x80, 0x80, 0x80, 0x98, 0x80, 0x80,
  0x80, 0x80, 0x80, 0x80, 0x80, 0x80, 0x80, 0x80, 0x80, 0x80, 0x80, 0x80,
  0x80, 0x80, 0x80, 0x80, 0x6d, 0x80, 0x80, 0x80, 0x80, 0x80, 0x80, 0x80,
  0x80, 0x80, 0x80, 0x80, 0x80, 0x80, 0x80, 0x80, 0x80, 0x80, 0x80, 0x80,
  0x80, 0x80, 0x80, 0x67, 0x80, 0x97, 0x80, 0x80, 0x80, 0x80, 0x80, 0x80,
  0x80, 0x80, 0x80, 0x80, 0x80, 0x80, 0x80, 0x80, 0x80, 0x6c, 0x80, 0x80,
  0x5c, 0x80, 0x80, 0x80, 0x98, 0x80, 0x80, 0x99, 0x80, 0x80, 0x80, 0x80,
  0x80, 0x80, 0x80, 0x80, 0x80, 0x80, 0x80, 0x80, 0x95, 0x80, 0x67, 0x6b,
  0x80, 0x80, 0x80, 0x80, 0x80, 0x80, 0x80, 0x80, 0x51, 0x80, 0x80, 0x80,
  0x80, 0x80, 0x80, 0x80, 0x80, 0x80, 0x80, 0x80, 0x80, 0x80, 0x80, 0x9c,
  0x99, 0x80, 0x80, 0x6c, 0x93, 0x80, 0x80, 0x80, 0x70, 0x6d, 0x92, 0x9b,
  0x80, 0x80, 0x94, 0x80, 0x6c, 0x80, 0x80, 0x80, 0x80, 0x80, 0x80, 0x80,
  0x80, 0x80, 0xa2, 0x80, 0x80, 0x80, 0x80, 0x80, 0x80, 0x80, 0x80, 0x80,
  0x80, 0x80, 0x80, 0x80, 0x80, 0x80, 0x80, 0x80, 0x96, 0x80, 0x80, 0x6b,
  0x80, 0x80, 0x80, 0x80, 0x80, 0x80, 0x80, 0x95, 0x80, 0x80, 0x9d, 0x80,
  0x80, 0x80, 0x80, 0x80, 0x80, 0x80, 0x80, 0x80, 0x80, 0x80, 0x80, 0x80,
  0x80, 0x80, 0x6d, 0x80, 0x80, 0x80, 0x80, 0x80, 0x80, 0x80, 0x6d, 0x80,
  0x80, 0x80, 0x80, 0x80, 0x80, 0x80, 0x80, 0x80, 0x6e, 0x80, 0x6f, 0x80,
  0x80, 0x80, 0x80, 0x80, 0x80, 0x80, 0x80, 0x80, 0x80, 0x6c, 0x80, 0x80,
  0x80, 0x80, 0x80, 0x80, 0x80, 0x80, 0x64, 0x80, 0x80, 0x80, 0x80, 0x80,
  0x6a, 0x80, 0xad, 0x70, 0x80, 0x80, 0x92, 0x80, 0x80, 0x80, 0x80, 0x80,
  0x91, 0x80, 0x80, 0x80, 0x80, 0x80, 0x80, 0x80, 0x80, 0x80, 0x80, 0x80,
  0x80, 0x80, 0x93, 0x94, 0x80, 0x80, 0x80, 0x80, 0x80, 0x6f, 0x80, 0x80,
  0x98, 0x80, 0x80, 0x6f, 0x80, 0x80, 0x65, 0x80, 0x80, 0x80, 0xab, 0x80,
  0x80, 0x80, 0x80, 0x90, 0x80, 0x80, 0x80, 0x80, 0x80, 0x80, 0x80, 0x80,
  0x80, 0x80, 0x80, 0x6f, 0x80, 0x80, 0x80, 0x98, 0x80, 0x80, 0x96, 0x94,
  0x80, 0x80, 0x80, 0x80, 0x80, 0x80, 0x80, 0x80, 0x80, 0x80, 0x62, 0x80,
  0x80, 0x80, 0x80, 0x95, 0x94, 0x80, 0x58, 0x80, 0x80, 0x80, 0x80, 0x7f,
  0x80, 0x80, 0x63, 0x80, 0x67, 0x80, 0x80, 0x80, 0x80, 0x80, 0x80, 0x80,
  0x80, 0x80, 0x80, 0x80, 0x80, 0x80, 0x65, 0x80, 0x80, 0x80, 0x97, 0x80,
  0x80, 0x6a, 0x80, 0x80, 0x80, 0x80, 0x60, 0x80, 0x80, 0x80, 0x80, 0x92,
  0x80, 0x80, 0x80, 0x80, 0x80, 0x80, 0x80, 0x80, 0x80, 0x80, 0x80, 0x80,
  0x80, 0x80, 0x80, 0x80, 0x80, 0x80, 0x80, 0x80, 0x80, 0x80, 0x80, 0x80,
  0x80, 0x80, 0x80, 0x80, 0x80, 0x80, 0x80, 0x80, 0x80, 0x80, 0x80, 0x80,
  0x80, 0x80, 0x80, 0x80, 0x80, 0x80, 0x80, 0x80, 0x80, 0x80, 0x80, 0x80,
  0x80, 0x80, 0x80, 0x7f, 0x80, 0x80, 0x80, 0x80, 0x80, 0x80, 0x6b, 0x80,
  0x80, 0x80, 0x80, 0x80, 0x80, 0x80, 0x80, 0x91, 0x80, 0x80, 0x80, 0x80,
  0x80, 0x80, 0x80, 0x80, 0x80, 0x80, 0x80, 0x80, 0x80, 0x80, 0x80, 0x80,
  0x80, 0x80, 0x80, 0x80, 0x80, 0x6e, 0x80, 0x80, 0x80, 0x80, 0x80, 0x61,
  0x80, 0x80, 0x80, 0x80, 0x80, 0x80, 0x80, 0x80, 0x80, 0x80, 0x80, 0x80,
  0x80, 0x80, 0x80, 0x80, 0x80, 0x80, 0x80, 0x80, 0x80, 0x80, 0x80, 0x80,
  0x80, 0x80, 0x80, 0x80, 0x80, 0x80, 0x80, 0x80, 0x80, 0x80, 0x80, 0x80,
  0x80, 0x80, 0x8f, 0x80, 0x80, 0x80, 0x80, 0x80, 0x80, 0x80, 0x8f, 0x80,
  0x80, 0x68, 0x80, 0x80, 0x80, 0x80, 0x80, 0x80, 0x80, 0x80, 0x80, 0x80,
  0x80, 0x70, 0x80, 0x80, 0x80, 0x80, 0x80, 0x90, 0x71, 0x80, 0x70, 0x80,
  0x80, 0x6f, 0x80, 0x80, 0x80, 0x80, 0x80, 0x80, 0x80, 0x80, 0x80, 0x80,
  0x80, 0x80, 0x80, 0x80, 0x80, 0x80, 0x80, 0x80, 0x80, 0x6b, 0x80, 0x80,
  0x80, 0x80, 0x80, 0x80, 0x80, 0x80, 0x80, 0x80, 0x80, 0x80, 0x80, 0x80,
  0x80, 0x80, 0x80, 0x95, 0x61, 0x80, 0x80, 0x80, 0x80, 0x80, 0x80, 0x80,
  0x80, 0x80, 0x80, 0x80, 0x80, 0x80, 0x80, 0x80, 0x80, 0x80, 0x80, 0x80,
  0x80, 0x80, 0x6f, 0x80, 0x80, 0x6f, 0x80, 0x80, 0x80, 0x80, 0x80, 0x80,
  0x80, 0x80, 0x80, 0x80, 0x80, 0x80, 0x80, 0x80, 0x80, 0x80, 0x80, 0x80,
  0x80, 0x80, 0x80, 0x80, 0x90, 0x80, 0x80, 0x80, 0x80, 0x80, 0x80, 0x80,
  0x80, 0x80, 0x80, 0x80, 0x62, 0x80, 0x92, 0x6b, 0x80, 0x80, 0x80, 0x80,
  0x80, 0x66, 0x80, 0x80, 0x80, 0x80, 0x80, 0x80, 0x80, 0x80, 0x80, 0x80,
  0x80, 0x6f, 0x91, 0x6d, 0x80, 0x80, 0x80, 0x80, 0x6f, 0x80, 0x60, 0x80,
  0x80, 0x80, 0x80, 0x80, 0x80, 0x80, 0x80, 0x80, 0xa6, 0x6f, 0x80, 0x80,
  0x94, 0x80, 0x80, 0x80, 0x80, 0x80, 0x80, 0x80, 0x91, 0xa2, 0x80, 0x80,
  0x80, 0x80, 0x80, 0x80, 0x70, 0x80, 0x80, 0x80, 0x80, 0x91, 0x80, 0x80,
  0x80, 0x80, 0x80, 0x80, 0x93, 0x80, 0x80, 0x80, 0x80, 0x80, 0x80, 0x80,
  0x92, 0x80, 0x80, 0x80, 0x80, 0x6e, 0x80, 0x6f, 0x80, 0x70, 0x80, 0x8f,
  0x80, 0x6f, 0x80, 0x80, 0x80, 0xa9, 0x80, 0x80, 0x80, 0x80, 0x70, 0x80,
  0x80, 0x80, 0x80, 0x80, 0x80, 0x98, 0x80, 0x80, 0x80, 0x80, 0x80, 0x80,
  0x91, 0x80, 0x80, 0x80, 0x80, 0x80, 0x80, 0x80, 0x80, 0x80, 0x6e, 0x80,
  0x80, 0x80, 0x80, 0x80, 0x6d, 0x80, 0x80, 0x66, 0x80, 0x98, 0x80, 0x80,
  0x80, 0x64, 0x80, 0x80, 0x95, 0x80, 0x80, 0x80, 0x80, 0x80, 0x80, 0x80,
  0x80, 0x80, 0x92, 0x65, 0x80, 0x80, 0x80, 0x80, 0x64, 0x80, 0x5e, 0x80,
  0x80, 0x80, 0x80, 0x91, 0x80, 0x80, 0x80, 0x80, 0x93, 0x80, 0x80, 0x6b,
  0x90, 0x93, 0x80, 0x80, 0x80, 0x80, 0x80, 0x80, 0x80, 0x80, 0x80, 0x80,
  0x80, 0x93, 0x80, 0x80, 0x80, 0x80, 0x80, 0x6c, 0x80, 0x80, 0x80, 0x80,
  0x91, 0x80, 0x80, 0x80, 0x9b, 0x80, 0x80, 0x80, 0x80, 0x80, 0x80, 0x80,
  0x80, 0x80, 0x80, 0x80, 0x80, 0x80, 0x80, 0x67, 0x80, 0x80, 0x80, 0x91,
  0x80, 0x5f, 0x80, 0x80, 0x80, 0x80, 0x80, 0x80, 0x80, 0x80, 0x80, 0x80,
  0x80, 0x80, 0x80, 0x80, 0x80, 0x80, 0x80, 0x80, 0x80, 0x80, 0x80, 0x80,
  0x80, 0x80, 0x80, 0x80, 0x80, 0x80, 0x80, 0x80, 0x70, 0x80, 0x80, 0x6f,
  0x80, 0x80, 0x80, 0x80, 0x80, 0x80, 0x80, 0x80, 0x80, 0x80, 0x80, 0x80,
  0x80, 0x80, 0x8e, 0x80, 0x70, 0x80, 0x80, 0x80, 0x80, 0x80, 0x80, 0x80,
  0x6d, 0x80, 0x80, 0x80, 0x80, 0x80, 0x80, 0x70, 0x80, 0x6e, 0x80, 0x80,
  0x71, 0x80, 0x80, 0x80, 0x80, 0x80, 0x80, 0x80, 0x80, 0x80, 0x8f, 0x80,
  0x80, 0x80, 0x80, 0x80, 0x80, 0x72, 0x80, 0x8d, 0x95, 0x80, 0x80, 0x80,
  0x80, 0x80, 0x80, 0x80, 0x80, 0x99, 0x93, 0x80, 0x71, 0x80, 0x80, 0x80,
  0x80, 0x80, 0x80, 0x80, 0x73, 0x96, 0x80, 0x80, 0x80, 0x80, 0x80, 0x80,
  0x80, 0x80, 0x80, 0x9e, 0x80, 0x80, 0x8f, 0x80, 0x80, 0x80, 0x80, 0x8f,
  0x80, 0x80, 0x80, 0x80, 0x80, 0x80, 0x80, 0x80, 0x80, 0x80, 0x80, 0x80,
  0x80, 0x93, 0x9a, 0x80, 0x80, 0x80, 0x80, 0x80, 0x80, 0x80, 0x80, 0x72,
  0x80, 0xa0, 0x80, 0x80, 0xad, 0x93, 0x80, 0x80, 0x92, 0x80, 0x80, 0x80,
  0x80, 0x80, 0x80, 0x80, 0x80, 0x80, 0x80, 0x80, 0x80, 0x80, 0x80, 0x80,
  0x80, 0x80, 0x80, 0x80, 0x72, 0x80, 0x80, 0x80, 0x80, 0x80, 0x80, 0x80,
  0x80, 0x80, 0x80, 0x80, 0x80, 0x80, 0x80, 0x71, 0x80, 0x80, 0x80, 0x80,
  0x80, 0x80, 0x80, 0x80, 0x80, 0x80, 0x80, 0x98, 0x80, 0x80, 0x99, 0x80,
  0x80, 0x80, 0x80, 0x80, 0x80, 0x80, 0x80, 0x96, 0x80, 0x80, 0x80, 0x80,
  0x80, 0x80, 0x80, 0x80, 0x80, 0x80, 0x80, 0x80, 0x80, 0x80, 0x80, 0x91,
  0x80, 0x80, 0x80, 0x80, 0x80, 0x98, 0x80, 0x80, 0x80, 0x80, 0x8d, 0x80,
  0x80, 0x80, 0x80, 0x99, 0x80, 0x80, 0x96, 0x80, 0x80, 0x80, 0x80, 0x80,
  0x8d, 0x8d, 0x80, 0x80, 0x8f, 0x80, 0x80, 0x90, 0x80, 0x80, 0x80, 0x80,
  0x80, 0x80, 0x80, 0x80, 0x95, 0x80, 0x80, 0x80, 0x80, 0x94, 0x80, 0x80,
  0x80, 0xa0, 0x80, 0x6a, 0x9b, 0x80, 0x80, 0x80, 0x9d, 0x80, 0x80, 0x91,
  0x80, 0x80, 0x80, 0x80, 0x80, 0x80, 0x80, 0x80, 0x80, 0x80, 0x80, 0x80,
  0x80, 0x80, 0x80, 0x80, 0x80, 0x80, 0x80, 0x80, 0x80, 0x80, 0x80, 0x80,
  0x80, 0x80, 0x80, 0x80, 0x80, 0x80, 0x80, 0x80, 0x80, 0x80, 0x80, 0x80,
  0x6d, 0x80, 0x80, 0x80, 0x72, 0x80, 0x80, 0x80, 0x80, 0x80, 0x8f, 0x80,
  0x80, 0x80, 0x80, 0x80, 0x90, 0x80, 0x80, 0x8e, 0x8e, 0x80, 0x80, 0x80,
  0x80, 0x80, 0x80, 0x80, 0x80, 0x80, 0x96, 0x80, 0x80, 0x80, 0x80, 0x80,
  0x80, 0x80, 0x80, 0x80, 0x80, 0x80, 0x80, 0x80, 0x80, 0x80, 0x8d, 0x80,
  0x80, 0x80, 0x80, 0x93, 0x80, 0x80, 0x80, 0x80, 0x80, 0x8d, 0x80, 0x80,
  0x80, 0x8e, 0x80, 0x80, 0x8e, 0x80, 0x80, 0x80, 0x80, 0x80, 0x80, 0x80,
  0x80, 0x80, 0x8e, 0x80, 0x80, 0x80, 0x80, 0x80, 0x80, 0x80, 0x80, 0x72,
  0x80, 0x80, 0x80, 0x80, 0x9b, 0x80, 0x80, 0x8e, 0x91, 0x80, 0x80, 0x8f,
  0x80, 0x92, 0x80, 0x80, 0x80, 0x6f, 0x80, 0x80, 0x80, 0x80, 0x80, 0x80,
  0x80, 0x80, 0x80, 0x80, 0x80, 0x80, 0x80, 0x80, 0x80, 0x80, 0x80, 0x80,
  0x80, 0x80, 0x80, 0x80, 0x80, 0x80, 0x80, 0x80, 0x80, 0x80, 0x80, 0x80,
  0x80, 0x80, 0x80, 0x80, 0x80, 0x80, 0x80, 0x80, 0x80, 0x80, 0x80, 0x80,
  0x80, 0x80, 0x71, 0x81, 0x80, 0x80, 0x80, 0x80, 0x80, 0x80, 0x80, 0x80,
  0x95, 0x80, 0x80, 0x80, 0x80, 0x80, 0x80, 0x80, 0x80, 0x70, 0x80, 0x80,
  0x80, 0x80, 0x80, 0x80, 0x80, 0x80, 0x80, 0x80, 0x80, 0x95, 0x80, 0x80,
  0x80, 0x80, 0x80, 0x80, 0x80, 0x80, 0x80, 0x80, 0x80, 0x80, 0x80, 0x81,
  0x80, 0x80, 0x80, 0x70, 0x80, 0x80, 0x80, 0x80, 0x80, 0x80, 0x80, 0x80,
  0x80, 0x80, 0x80, 0x80, 0x80, 0x80, 0x91, 0x80, 0x80, 0x80, 0x80, 0x80,
  0x80, 0x80, 0x80, 0x80, 0x80, 0x80, 0x62, 0x80, 0x6e, 0x80, 0x80, 0x80,
  0x80, 0x80, 0x80, 0x80, 0x80, 0x9b, 0xa1, 0xbb, 0x80, 0x6e, 0x80, 0x9a,
  0x96, 0x9e, 0x98, 0x80, 0x71, 0x80, 0x80, 0x80, 0x62, 0x80, 0x91, 0x9b,
  0x80, 0x80, 0x80, 0x80, 0x80, 0x80, 0x80, 0x80, 0x90, 0x80, 0x80, 0x80,
  0x80, 0x80, 0x80, 0x6d, 0x80, 0x80, 0x6b, 0x80, 0x80, 0x80, 0x80, 0x80,
  0x80, 0x80, 0x80, 0xa0, 0x80, 0x70, 0x60, 0x80, 0x80, 0x80, 0x80, 0x80,
  0x91, 0x80, 0x80, 0x80, 0x80, 0x80, 0x80, 0x80, 0x80, 0x80, 0x80, 0x80,
  0x80, 0x80, 0x80, 0x80, 0x80, 0x80, 0x80, 0x80, 0x6a, 0x80, 0x80, 0x6e,
  0x80, 0x80, 0x80, 0x80, 0x80, 0x80, 0x80, 0x80, 0x80, 0x66, 0x6f, 0x80,
  0x80, 0x80, 0x41, 0x80, 0x6a, 0x80, 0x80, 0x80, 0x80, 0x80, 0x93, 0x69,
  0x80, 0x80, 0x80, 0x80, 0x6e, 0x80, 0x92, 0x80, 0x80, 0x6f, 0x9b, 0x96,
  0x65, 0x59, 0x80, 0x92, 0x64, 0x80, 0x80, 0x80, 0x80, 0x80, 0x80, 0x80,
  0x80, 0x80, 0x80, 0x80, 0x80, 0x80, 0x91, 0x80, 0x80, 0x80, 0x80, 0x80,
  0x80, 0x80, 0x80, 0x80, 0x80, 0x80, 0x80, 0x70, 0x6f, 0x80, 0x80, 0x80,
  0x80, 0x91, 0x80, 0x80, 0x97, 0x80, 0x91, 0x80, 0x80, 0x80, 0x80, 0x80,
  0x80, 0x80, 0x80, 0x80, 0x80, 0x80, 0x80, 0x80, 0x93, 0x80, 0x80, 0x80,
  0x80, 0x80, 0x80, 0x80, 0x80, 0x80, 0x80, 0x80, 0x80, 0x80, 0x80, 0x80,
  0x80, 0x80, 0x80, 0x6d, 0x80, 0x80, 0x80, 0x80, 0x80, 0x80, 0x80, 0x80,
  0x80, 0x80, 0x80, 0x80, 0x80, 0x80, 0x80, 0x80, 0x80, 0x80, 0x80, 0x80,
  0x80, 0x80, 0x80, 0x80, 0x80, 0x80, 0x80, 0x80, 0x80, 0x6e, 0x80, 0x80,
  0x80, 0x80, 0x80, 0x80, 0x80, 0x80, 0x80, 0x80, 0x80, 0x80, 0x80, 0x80,
  0x80, 0x80, 0x80, 0x80, 0x80, 0x97, 0x80, 0x80, 0x80, 0x80, 0x80, 0x80,
  0x80, 0x70, 0x80, 0x97, 0x80, 0x80, 0x80, 0x80, 0x80, 0x80, 0x80, 0x80,
  0x9e, 0x80, 0x80, 0x64, 0x80, 0x80, 0x80, 0x80, 0x80, 0x80, 0x80, 0x9f,
  0x80, 0x80, 0x80, 0x80, 0x98, 0x80, 0x7f, 0x80, 0x80, 0x9d, 0x80, 0x80,
  0x80, 0x9b, 0x80, 0x80, 0x80, 0x80, 0x80, 0x80, 0x80, 0x81, 0x80, 0x80,
  0x80, 0x80, 0x68, 0x80, 0x80, 0x80, 0x80, 0x80, 0x80, 0x80, 0x9d, 0x65,
  0x80, 0x80, 0x80, 0x80, 0x80, 0x9b, 0x80, 0xa4, 0x80, 0x80, 0x80, 0x80,
  0x80, 0x80, 0x7f, 0x80, 0x61, 0x80, 0x7f, 0x80, 0x80, 0xa4, 0xa8, 0x80,
  0x80, 0x80, 0x80, 0x98, 0x80, 0x80, 0x80, 0x80, 0x80, 0x80, 0x80, 0x80,
  0x80, 0x80, 0x80, 0x80, 0x80, 0x80, 0x80, 0x80, 0x80, 0x80, 0x80, 0x7f,
  0x80, 0x65, 0x80, 0x80, 0x80, 0x80, 0x80, 0x80, 0x80, 0x80, 0x80, 0x80,
  0x80, 0x80, 0x80, 0x80, 0x80, 0x80, 0x80, 0x7f, 0x80, 0x80, 0x80, 0x80,
  0x80, 0x80, 0x80, 0x80, 0x80, 0x80, 0x80, 0x80, 0x80, 0x80, 0x80, 0x80,
  0x80, 0x80, 0x80, 0x80, 0x80, 0x80, 0x80, 0x80, 0x80, 0x80, 0x80, 0x80,
  0x67, 0x80, 0x80, 0x7f, 0x80, 0x80, 0xac, 0x65, 0x80, 0x80, 0x80, 0x80,
  0x80, 0x80, 0x80, 0x80, 0x80, 0x80, 0x80, 0x80, 0x80, 0x80, 0x80, 0x80,
  0x80, 0x80, 0x80, 0x80, 0x80, 0x80, 0x80, 0x80, 0x80, 0x80, 0x80, 0x80,
  0xa6, 0x80, 0x80, 0x80, 0x68, 0x80, 0x80, 0x80, 0x80, 0x80, 0x80, 0x7f,
  0x81, 0x80, 0xab, 0x80, 0x80, 0x80, 0x80, 0x80, 0x80, 0x80, 0xa4, 0x80,
  0x80, 0x60, 0x80, 0x80, 0x80, 0x80, 0x80, 0x80, 0x80, 0x80, 0x80, 0x80,
  0x80, 0x80, 0x80, 0x80, 0x67, 0x80, 0x80, 0xb8, 0x9b, 0x80, 0xab, 0x7f,
  0x80, 0x80, 0x80, 0x80, 0x80, 0x80, 0x80, 0x7f, 0x63, 0x80, 0x80, 0x80,
  0x80, 0x80, 0x80, 0x80, 0x80, 0x80, 0x80, 0x80, 0x80, 0x80, 0x9c, 0x80,
  0x80, 0x98, 0x66, 0x80, 0x80, 0x80, 0x80, 0x80, 0x5d, 0x80, 0x80, 0x66,
  0x80, 0x80, 0x80, 0x80, 0x80, 0x80, 0x80, 0x80, 0x80, 0x80, 0x80, 0x80,
  0x80, 0x80, 0x80, 0x80, 0x80, 0x80, 0x5c, 0x80, 0x80, 0x80, 0x80, 0x80,
  0x97, 0x80, 0x80, 0x80, 0x80, 0x80, 0x80, 0x80, 0x65, 0x80, 0x80, 0x80,
  0x80, 0x7f, 0x80, 0x80, 0x80, 0x80, 0x80, 0x80, 0x80, 0xac, 0x80, 0x80,
  0x80, 0x63, 0x99, 0x7f, 0x80, 0x80, 0x80, 0x80, 0x99, 0x80, 0x80, 0x80,
  0x80, 0x9e, 0x44, 0x80, 0xb4, 0x80, 0x7f, 0x80, 0xac, 0x5c, 0x80, 0x80,
  0x80, 0x80, 0x58, 0x80, 0x5f, 0x80, 0x80, 0x80, 0x80, 0x7f, 0x80, 0x80,
  0x80, 0x80, 0x80, 0xa9, 0x80, 0x80, 0x80, 0x80, 0x80, 0x80, 0x99, 0x97,
  0x80, 0x80, 0x80, 0x80, 0x80, 0x80, 0x80, 0x80, 0x80, 0x62, 0x59, 0x80,
  0xaa, 0x80, 0x80, 0x80, 0x80, 0x64, 0x80, 0x80, 0x80, 0x80, 0x80, 0x80,
  0x60, 0x80, 0x58, 0x80, 0x80, 0x80, 0x80, 0x80, 0x80, 0x80, 0x80, 0x80,
  0x80, 0x80, 0x80, 0x80, 0x99, 0x80, 0x80, 0x65, 0x80, 0x80, 0x80, 0x80,
  0x80, 0x9e, 0x80, 0x6b, 0x80, 0x7f, 0x80, 0x80, 0x8e, 0x7f, 0x80, 0x80,
  0x80, 0x7f, 0x8f, 0x92, 0x80, 0x80, 0x80, 0x80, 0x80, 0x80, 0x99, 0x71,
  0x80, 0x80, 0x80, 0x80, 0x80, 0x80, 0x80, 0x80, 0x80, 0x80, 0x80, 0x80,
  0x9a, 0x8e, 0x80, 0x80, 0x80, 0x80, 0x65, 0x80, 0x80, 0x94, 0x80, 0x80,
  0x80, 0x80, 0x80, 0x80, 0x7f, 0x80, 0x80, 0x80, 0x80, 0x80, 0x80, 0x80,
  0x80, 0x80, 0x70, 0x80, 0x80, 0x80, 0x80, 0x80, 0x80, 0x80, 0x80, 0x80,
  0x80, 0x80, 0x80, 0x80, 0x63, 0x80, 0x80, 0x80, 0x80, 0x80, 0x80, 0x91,
  0x80, 0x80, 0x47, 0x80, 0x70, 0x80, 0x80, 0x80, 0x80, 0x80, 0x90, 0x80,
  0x80, 0x80, 0x80, 0x80, 0x80, 0x80, 0x80, 0x80, 0x80, 0x80, 0x80, 0x80,
  0x80, 0x92, 0x67, 0x80, 0x80, 0x80, 0x92, 0x80, 0x6f, 0x96, 0x80, 0x80,
  0x6e, 0x8f, 0x80, 0x80, 0x80, 0x80, 0x80, 0x62, 0x80, 0x80, 0x80, 0x80,
  0x80, 0x80, 0x80, 0x80, 0x80, 0x8f, 0x80, 0x80, 0x80, 0x80, 0x80, 0x80,
  0x80, 0x80, 0x80, 0x80, 0x80, 0x80, 0x80, 0x80, 0x80, 0x80, 0x80, 0x80,
  0x80, 0x80, 0x80, 0x80, 0x80, 0x80, 0x80, 0x80, 0x80, 0x80, 0x80, 0x80,
  0x80, 0x80, 0x80, 0x80, 0x80, 0x80, 0x80, 0x80, 0x80, 0x80, 0x80, 0x80,
  0x8f, 0x92, 0x80, 0x80, 0x80, 0x80, 0x80, 0x80, 0x80, 0x80, 0x80, 0x80,
  0x80, 0x80, 0x80, 0x80, 0x80, 0x80, 0x80, 0x80, 0x80, 0x80, 0x93, 0x80,
  0x80, 0x80, 0x80, 0x80, 0x63, 0x80, 0x80, 0x80, 0x80, 0x80, 0x80, 0x80,
  0x80, 0x80, 0x69, 0x80, 0x80, 0x80, 0x80, 0x80, 0x93, 0x80, 0x96, 0x80,
  0x80, 0x80, 0x80, 0x80, 0x80, 0x80, 0x80, 0x6d, 0x80, 0x80, 0x80, 0x80,
  0x80, 0x80, 0x6a, 0x80, 0x80, 0x80, 0x80, 0x90, 0x80, 0x8f, 0x80, 0x66,
  0x80, 0x80, 0x80, 0x80, 0x80, 0x80, 0x80, 0x69, 0x80, 0x80, 0x80, 0x80,
  0x80, 0x80, 0x80, 0x80, 0x80, 0x80, 0x91, 0x80, 0x80, 0x80, 0x80, 0x80,
  0x80, 0x80, 0x80, 0x80, 0x80, 0x80, 0x80, 0x80, 0x80, 0x80, 0x80, 0x80,
  0x80, 0x80, 0x80, 0x80, 0x80, 0x80, 0x80, 0x80, 0x80, 0x80, 0x90, 0x80,
  0x6d, 0x80, 0x80, 0x5c, 0x72, 0x80, 0x80, 0x71, 0x80, 0x80, 0x80, 0x80,
  0x80, 0x80, 0x80, 0x80, 0x80, 0x80, 0x80, 0x80, 0x80, 0x71, 0x80, 0x80,
  0x80, 0x80, 0x80, 0x80, 0x80, 0x80, 0x80, 0x80, 0x80, 0x80, 0x80, 0x80,
  0x80, 0x80, 0x80, 0x80, 0x6e, 0x80, 0x80, 0x80, 0x80, 0x80, 0x80, 0x6f,
  0x80, 0x80, 0x80, 0x80, 0x80, 0x80, 0x80, 0x80, 0x95, 0x80, 0x80, 0x80,
  0x80, 0x80, 0x80, 0x80, 0x80, 0x80, 0x80, 0x80, 0x80, 0x80, 0x80, 0x80,
  0x80, 0x80, 0x80, 0x80, 0x80, 0x80, 0x80, 0x80, 0x80, 0x80, 0x80, 0x6d,
  0x80, 0x80, 0x80, 0x80, 0xb6, 0x6a, 0x80, 0x80, 0x80, 0x80, 0x80, 0x80,
  0x80, 0xac, 0x92, 0x94, 0x80, 0x9c, 0x80, 0x80, 0x80, 0x80, 0x80, 0x80,
  0x80, 0x80, 0x80, 0x80, 0x80, 0x80, 0x80, 0x6e, 0x80, 0x80, 0x80, 0x80,
  0x80, 0x80, 0x80, 0x80, 0x80, 0x80, 0x80, 0x80, 0x80, 0x80, 0x80, 0x80,
  0xbd, 0x80, 0x80, 0x80, 0x6d, 0x80, 0x6d, 0x80, 0x80, 0xaf, 0x80, 0x80,
  0x80, 0x80, 0x80, 0x80, 0x80, 0x80, 0x80, 0x80, 0x80, 0x80, 0x80, 0x80,
  0x80, 0x80, 0x80, 0x80, 0x80, 0x80, 0x80, 0x80, 0x80, 0x80, 0x80, 0x80,
  0x6e, 0x80, 0x80, 0x80, 0x80, 0x6e, 0x80, 0x6d, 0xa2, 0x80, 0x80, 0x80,
  0x80, 0x80, 0x80, 0x80, 0x80, 0x9b, 0x80, 0x80, 0x80, 0x80, 0x80, 0x80,
  0x80, 0x80, 0x80, 0x80, 0x80, 0x80, 0x80, 0x6b, 0x80, 0x80, 0x80, 0x80,
  0x80, 0x80, 0x80, 0x80, 0x80, 0x80, 0x80, 0x80, 0x80, 0x80, 0x6c, 0x80,
  0x80, 0x80, 0x80, 0x80, 0x80, 0x80, 0x80, 0x80, 0x80, 0x80, 0x80, 0x80,
  0x6a, 0x80, 0x80, 0x80, 0x80, 0x81, 0x62, 0x80, 0x80, 0x80, 0x80, 0x61,
  0x80, 0x80, 0x80, 0x80, 0x80, 0x80, 0x6e, 0x62, 0x80, 0x80, 0x80, 0x67,
  0x80, 0x80, 0x80, 0x80, 0x95, 0x96, 0x80, 0x80, 0x80, 0x80, 0x80, 0x80,
  0x80, 0x80, 0x80, 0x80, 0x80, 0x80, 0x80, 0x80, 0x80, 0x80, 0x80, 0x80,
  0x80, 0x6e, 0x68, 0x94, 0x80, 0x80, 0x80, 0x80, 0x80, 0x80, 0x80, 0x80,
  0x80, 0x80, 0x65, 0x5e, 0x98, 0x80, 0x80, 0x6b, 0x80, 0x80, 0x68, 0x80,
  0x80, 0x80, 0x80, 0x80, 0x80, 0x80, 0x80, 0x80, 0x80, 0x80, 0x98, 0x80,
  0x80, 0x80, 0x80, 0x80, 0x80, 0x80, 0x6d, 0x80, 0x80, 0x81, 0x80, 0x80,
  0x80, 0x95, 0x6e, 0x80, 0x80, 0x80, 0x80, 0x80, 0x80, 0x80, 0x69, 0x6c,
  0x99, 0x80, 0x80, 0x6b, 0x80, 0x80, 0x6b, 0x80, 0x80, 0x80, 0x80, 0x80,
  0x80, 0x95, 0x80, 0x80, 0x80, 0x80, 0x80, 0x80, 0x80, 0x94, 0x80, 0x80,
  0x80, 0x80, 0x80, 0x80, 0x80, 0x80, 0x98, 0x80, 0x80, 0x80, 0x80, 0x80,
  0x80, 0x80, 0x80, 0x80, 0x6d, 0x80, 0x80, 0x80, 0x80, 0x80, 0x80, 0x80,
  0x80, 0x80, 0x80, 0x80, 0x80, 0x80, 0x80, 0x80, 0x80, 0x95, 0x80, 0x80,
  0x80, 0x80, 0x9c, 0x80, 0x80, 0x80, 0x80, 0x80, 0x80, 0x80, 0x80, 0x80,
  0x80, 0x80, 0x99, 0x80, 0x80, 0x80, 0x80, 0x80, 0x80, 0x80, 0x80, 0x80,
  0x6c, 0x80, 0x80, 0x80, 0x80, 0x80, 0x80, 0x80, 0x80, 0x80, 0x80, 0x80,
  0x80, 0x80, 0x80, 0x80, 0x80, 0x98, 0x6b, 0x80, 0x80, 0x80, 0x80, 0x80,
  0x80, 0x80, 0x80, 0x80, 0x80, 0x80, 0x80, 0x80, 0x80, 0x80, 0x92, 0x80,
  0x80, 0x80, 0x80, 0x80, 0x80, 0x80, 0x80, 0x80, 0x80, 0x80, 0x80, 0x80,
  0x80, 0x80, 0x80, 0x80, 0x80, 0x80, 0x80, 0x80, 0x80, 0x80, 0x80, 0x68,
  0x80, 0x80, 0x80, 0x80, 0x80, 0x80, 0x80, 0x5d, 0x80, 0x80, 0x7f, 0x80,
  0x80, 0x80, 0x62, 0x95, 0x80, 0x80, 0x7f, 0x97, 0x80, 0x80, 0x80, 0x80,
  0x80, 0x80, 0x80, 0x80, 0x80, 0x80, 0x80, 0x80, 0x80, 0x80, 0x80, 0x80,
  0x80, 0x80, 0x80, 0x80, 0x80, 0x80, 0x80, 0x80, 0x80, 0x80, 0x80, 0x80,
  0x80, 0x80, 0x80, 0x67, 0x7f, 0x80, 0x7f, 0x80, 0x80, 0x80, 0x80, 0x80,
  0x80, 0x80, 0x7f, 0x7f, 0x80, 0x80, 0x80, 0x80, 0x80, 0x80, 0x80, 0x80,
  0x80, 0x80, 0x80, 0x80, 0x80, 0x80, 0x80, 0x80, 0x80, 0x80, 0x80, 0x80,
  0x80, 0x80, 0x80, 0x80, 0x80, 0x80, 0x6a, 0x80, 0x80, 0x80, 0x80, 0x80,
  0x7f, 0x80, 0x7e, 0x80, 0x80, 0x80, 0x80, 0x80, 0x80, 0x80, 0x80, 0x80,
  0x80, 0x9a, 0x80, 0x80, 0x80, 0x80, 0x80, 0x80, 0x80, 0x80, 0x80, 0x80,
  0x80, 0x80, 0x80, 0x80, 0x80, 0x80, 0x80, 0x80, 0x80, 0x80, 0x80, 0x80,
  0x80, 0x80, 0x80, 0x80, 0x80, 0x80, 0x80, 0xe1, 0x80, 0x6b, 0x53, 0x80,
  0x80, 0x97, 0x80, 0x80, 0x80, 0x81, 0x80, 0xa9, 0x80, 0xa2, 0x80, 0x80,
  0x80, 0x80, 0xb0, 0x80, 0x80, 0x80, 0x80, 0x80, 0x80, 0x80, 0x80, 0x80,
  0xba, 0x80, 0x80, 0x80, 0x80, 0x80, 0x67, 0x80, 0xa0, 0x80, 0x80, 0x80,
  0x80, 0x80, 0x80, 0x80, 0x80, 0x80, 0x80, 0x80, 0x80, 0x80, 0x80, 0x80,
  0x80, 0x81, 0x80, 0x81, 0x80, 0x80, 0x80, 0x80, 0x80, 0x80, 0x80, 0x80,
  0x80, 0x80, 0x80, 0x80, 0x80, 0x80, 0x80, 0x80, 0x6b, 0x80, 0x80, 0x80,
  0x80, 0x80, 0x80, 0x80, 0x9f, 0x80, 0x80, 0x80, 0x80, 0x80, 0x80, 0x80,
  0x80, 0x80, 0xb2, 0x80, 0x80, 0x80, 0x80, 0x80, 0x80, 0x81, 0x5a, 0x64,
  0x80, 0x80, 0x9a, 0x9d, 0x80, 0x80, 0x80, 0x80, 0x80, 0x80, 0x80, 0x80,
  0x80, 0x80, 0x80, 0xa2, 0x63, 0x80, 0x80, 0xaf, 0x80, 0x80, 0x80, 0x81,
  0x95, 0x80, 0xa8, 0x80, 0x96, 0x80, 0x80, 0xa8, 0x9f, 0x80, 0x80, 0x80,
  0x80, 0x80, 0x96, 0x95, 0x80, 0x80, 0x69, 0x80, 0x80, 0x80, 0x80, 0x80,
  0x80, 0x80, 0x80, 0x80, 0x80, 0x80, 0x80, 0x80, 0x80, 0x80, 0x80, 0x80,
  0x80, 0x80, 0x80, 0x80, 0x80, 0x80, 0x80, 0x96, 0x80, 0x80, 0x80, 0x80,
  0x80, 0x80, 0x80, 0x62, 0x80, 0x80, 0x80, 0x80, 0x80, 0x80, 0x80, 0x80,
  0x80, 0x80, 0x80, 0x80, 0x80, 0x80, 0x80, 0x80, 0x80, 0x80, 0x80, 0x80,
  0x80, 0x80, 0x80, 0x80, 0x80, 0x80, 0x80, 0x80, 0x67, 0x80, 0x80, 0x80,
  0x6c, 0x80, 0x97, 0x80, 0x80, 0x80, 0x80, 0x80, 0x80, 0x67, 0x80, 0x69,
  0x80, 0x81, 0x80, 0x80, 0x6b, 0x80, 0x80, 0x80, 0x80, 0x80, 0x80, 0x80,
  0x80, 0x80, 0x80, 0x80, 0x80, 0x80, 0x80, 0x80, 0x80, 0x80, 0x80, 0x80,
  0x80, 0x80, 0x80, 0x80, 0x80, 0x80, 0x66, 0x80, 0x69, 0x80, 0x80, 0x80,
  0x80, 0x80, 0x80, 0x80, 0x80, 0x80, 0x80, 0x80, 0x80, 0x80, 0x80, 0x80,
  0x80, 0x80, 0x93, 0x80, 0x80, 0x80, 0x80, 0x80, 0x80, 0x80, 0x80, 0x70,
  0x80, 0x93, 0x80, 0x72, 0x80, 0x80, 0x80, 0x80, 0x80, 0x8f, 0x80, 0x80,
  0x80, 0x80, 0x80, 0x80, 0x80, 0x80, 0x80, 0x80, 0x80, 0x80, 0x80, 0x80,
  0x80, 0x80, 0x80, 0x80, 0x80, 0x80, 0x80, 0x80, 0x80, 0x72, 0x90, 0x80,
  0x80, 0x80, 0x80, 0x80, 0x92, 0x80, 0x80, 0x6e, 0x80, 0x90, 0x80, 0x80,
  0x6c, 0x80, 0x80, 0x80, 0x80, 0x8e, 0x80, 0x80, 0x80, 0x80, 0x80, 0x80,
  0x80, 0x80, 0x80, 0x80, 0x80, 0x80, 0x80, 0x80, 0x93, 0x80, 0x80, 0x80,
  0x80, 0x80, 0x80, 0x80, 0x80, 0x80, 0x80, 0x80, 0x80, 0x80, 0x80, 0x80,
  0x80, 0x91, 0x80, 0x80, 0x80, 0x8e, 0x80, 0x80, 0x80, 0x80, 0x80, 0x80,
  0x80, 0x80, 0x80, 0x80, 0x80, 0x80, 0x71, 0x80, 0x80, 0x80, 0x80, 0x80,
  0x94, 0x80, 0x80, 0x80, 0x80, 0x80, 0x80, 0x80, 0x80, 0x80, 0x80, 0x80,
  0x80, 0x80, 0x80, 0x80, 0x80, 0x72, 0x80, 0x80, 0x80, 0x70, 0x80, 0x71,
  0x80, 0x80, 0x80, 0x80, 0x80, 0x80, 0x80, 0x80, 0x80, 0x80, 0x80, 0x8e,
  0x80, 0x80, 0x80, 0x80, 0x71, 0x80, 0x92, 0x80, 0xa6, 0x93, 0x80, 0x98,
  0x93, 0x80, 0x80, 0x80, 0x80, 0x92, 0x80, 0x97, 0x80, 0x80, 0x80, 0x80,
  0x80, 0x6c, 0x80, 0x80, 0x80, 0x50, 0x80, 0x6f, 0x80, 0x90, 0x80, 0x80,
  0x80, 0x80, 0x80, 0x9c, 0x80, 0x80, 0x95, 0x8e, 0x80, 0x80, 0x80, 0x80,
  0x80, 0x80, 0xaf, 0x80, 0x80, 0x80, 0x80, 0x80, 0x80, 0x80, 0x80, 0x80,
  0x80, 0x8e, 0x80, 0x80, 0x71, 0x80, 0x80, 0x80, 0x80, 0x71, 0x80, 0x80,
  0x80, 0x5b, 0x80, 0x80, 0x80, 0x94, 0x80, 0x80, 0x6e, 0x80, 0x80, 0x8e,
  0x80, 0x80, 0x91, 0x80, 0x93, 0x80, 0x80, 0x80, 0x80, 0x80, 0x95, 0x80,
  0x93, 0x9d, 0x80, 0x80, 0x80, 0x80, 0x80, 0x80, 0x80, 0x80, 0x80, 0x80,
  0x80, 0x80, 0x80, 0x80, 0x80, 0x80, 0x94, 0x80, 0x80, 0x80, 0x80, 0x80,
  0x80, 0x80, 0x80, 0x80, 0x80, 0x80, 0x80, 0x91, 0x80, 0x80, 0x80, 0x80,
  0x80, 0x80, 0x80, 0x90, 0x80, 0x80, 0x80, 0x80, 0x80, 0xa0, 0x80, 0x80,
  0x6e, 0x80, 0x80, 0x80, 0x80, 0x90, 0x80, 0x80, 0x80, 0x80, 0x80, 0x80,
  0x80, 0x80, 0x9a, 0x80, 0x64, 0x80, 0x80, 0x80, 0x80, 0x80, 0x80, 0x80,
  0x80, 0x80, 0x80, 0x80, 0x6c, 0x80, 0x80, 0x80, 0x80, 0x80, 0x80, 0x80,
  0x80, 0x80, 0x91, 0x80, 0x80, 0x96, 0x80, 0x80, 0x6f, 0x80, 0x80, 0x80,
  0x80, 0x97, 0x80, 0x80, 0x80, 0x80, 0x80, 0x80, 0x80, 0x80, 0x80, 0x80,
  0x6b, 0x80, 0x80, 0x80, 0x80, 0x6e, 0x80, 0x71, 0x80, 0x80, 0x73, 0x80,
  0x80, 0x80, 0x80, 0x80, 0x80, 0x80, 0x80, 0x80, 0x80, 0x80, 0x80, 0x80,
  0x80, 0x80, 0x80, 0x80, 0x80, 0x80, 0x80, 0x80, 0x80, 0x80, 0x80, 0x96,
  0x80, 0x80, 0x80, 0x80, 0x80, 0x80, 0x80, 0x80, 0x80, 0x80, 0x80, 0x80,
  0x80, 0x80, 0x80, 0x80, 0x80, 0x80, 0x80, 0x80, 0x80, 0x80, 0x80, 0x80,
  0x80, 0x80, 0x80, 0x80, 0x80, 0x80, 0x80, 0x80, 0x80, 0x80, 0x80, 0x80,
  0x80, 0x80, 0xae, 0x80, 0x80, 0x80, 0x80, 0xa0, 0x80, 0x80, 0x80, 0x80,
  0xa4, 0x80, 0x80, 0x80, 0x80, 0x5f, 0x80, 0x80, 0x80, 0x80, 0x80, 0x80,
  0x80, 0x80, 0x80, 0x80, 0x80, 0x80, 0x80, 0x80, 0x80, 0x80, 0x80, 0x97,
  0x6c, 0x80, 0x80, 0x80, 0x80, 0x80, 0x80, 0x80, 0x80, 0x80, 0x97, 0x80,
  0x80, 0x80, 0x80, 0x95, 0x80, 0x80, 0x80, 0x80, 0x96, 0x80, 0x80, 0x80,
  0x80, 0x58, 0x80, 0x80, 0x97, 0x80, 0x98, 0x64, 0x80, 0x80, 0x80, 0x95,
  0x80, 0x68, 0x80, 0x80, 0x80, 0x80, 0x80, 0x80, 0x66, 0x80, 0x80, 0x80,
  0x80, 0x80, 0x80, 0x80, 0x80, 0x80, 0xa1, 0x80, 0x80, 0x80, 0x80, 0x9c,
  0x80, 0x68, 0x80, 0x7f, 0xa6, 0x7f, 0x7f, 0x80, 0x80, 0x68, 0x80, 0x80,
  0x95, 0x80, 0xaf, 0x80, 0x80, 0x80, 0x80, 0x80, 0x80, 0x5e, 0x6b, 0x80,
  0x80, 0x80, 0x80, 0xa5, 0x80, 0x80, 0x80, 0x80, 0x80, 0x80, 0x80, 0x80,
  0x80, 0x80, 0x80, 0x80, 0x80, 0x80, 0x80, 0xa0, 0x80, 0x80, 0x80, 0x7f,
  0xa7, 0x7f, 0x80, 0x80, 0x80, 0x61, 0x80, 0x80, 0x80, 0x80, 0xa6, 0x80,
  0x80, 0x65, 0x9b, 0x95, 0x69, 0x54, 0x80, 0x69, 0x80, 0x80, 0x80, 0x9b,
  0x80, 0x80, 0x80, 0x80, 0x80, 0x80, 0x80, 0x80, 0x80, 0x80, 0x80, 0x80,
  0x80, 0x80, 0x80, 0x9d, 0x80, 0x80, 0x80, 0x7f, 0x95, 0x7f, 0x80, 0x80,
  0x80, 0x61, 0x80, 0x80, 0x97, 0x80, 0xaa, 0x80, 0x80, 0x69, 0x80, 0x99,
  0x80, 0x4f, 0x80, 0x80, 0x80, 0x80, 0x80, 0xa7, 0x80, 0x80, 0x80, 0x99,
  0x80, 0x80, 0x80, 0x80, 0x80, 0x80, 0x80, 0x80, 0x80, 0x80, 0x80, 0x80,
  0x80, 0x80, 0x80, 0x80, 0x80, 0x80, 0x80, 0x80, 0x80, 0x80, 0x80, 0x80,
  0x80, 0x80, 0x80, 0x80, 0x80, 0x80, 0x80, 0x80, 0x80, 0x80, 0x80, 0x80,
  0x80, 0x80, 0x80, 0x80, 0x80, 0x80, 0x80, 0x80, 0x80, 0x80, 0x6c, 0x80,
  0x80, 0x80, 0x80, 0x80, 0x80, 0x80, 0x80, 0x80, 0x80, 0x80, 0x80, 0x80,
  0x80, 0x80, 0x80, 0x80, 0x80, 0x80, 0x80, 0x80, 0x80, 0x80, 0x80, 0x80,
  0x80, 0x80, 0x80, 0x80, 0x80, 0x80, 0x80, 0x80, 0x80, 0x68, 0x69, 0x80,
  0x80, 0x80, 0x80, 0x80, 0x80, 0x80, 0x80, 0x80, 0x80, 0x80, 0x80, 0x80,
  0x80, 0x80, 0x80, 0x80, 0x80, 0x80, 0x80, 0x80, 0x80, 0x80, 0x80, 0x80,
  0x80, 0x80, 0x80, 0x80, 0x80, 0x80, 0x6a, 0x80, 0x80, 0x80, 0x80, 0x80,
  0x80, 0x80, 0x80, 0x80, 0x80, 0x80, 0x80, 0x80, 0x80, 0x80, 0x80, 0x80,
  0x80, 0x80, 0x6d, 0x80, 0x80, 0x80, 0x80, 0x80, 0x80, 0x80, 0x80, 0x80,
  0x80, 0x80, 0x97, 0x80, 0x80, 0x80, 0x80, 0x6a, 0x80, 0x80, 0x80, 0x80,
  0x80, 0x80, 0x80, 0x80, 0x80, 0x80, 0x80, 0x80, 0x80, 0x80, 0x80, 0x80,
  0x80, 0x80, 0x80, 0x80, 0x80, 0x80, 0x80, 0x80, 0x6b, 0x80, 0x80, 0x6e,
  0x80, 0x80, 0x94, 0x80, 0x80, 0x80, 0x80, 0x80, 0x80, 0x80, 0x91, 0x80,
  0x80, 0x80, 0x97, 0x9c, 0x80, 0x80, 0x95, 0x80, 0x80, 0x80, 0x80, 0x80,
  0x80, 0x80, 0x80, 0x80, 0x80, 0x80, 0x80, 0x80, 0x80, 0x80, 0x80, 0x80,
  0x91, 0x80, 0x80, 0x80, 0x80, 0x80, 0x80, 0x6a, 0x80, 0x80, 0x80, 0x80,
  0x80, 0x80, 0x80, 0x80, 0x80, 0x80, 0x80, 0x80, 0x80, 0x80, 0x80, 0x97,
  0x80, 0x80, 0x80, 0x80, 0x80, 0x80, 0x96, 0x80, 0x80, 0x80, 0x80, 0x80,
  0x80, 0x80, 0x80, 0x80, 0x80, 0x80, 0x80, 0x80, 0x80, 0x80, 0x80, 0x80,
  0x93, 0x94, 0x80, 0x80, 0x80, 0x80, 0x80, 0x80, 0x9e, 0x80, 0x80, 0x80,
  0x6b, 0x80, 0x80, 0x80, 0x6f, 0x80, 0x80, 0x80, 0x80, 0x5b, 0x80, 0x80,
  0x66, 0x80, 0x80, 0x80, 0x80, 0x80, 0x80, 0x80, 0x80, 0x80, 0x80, 0x80,
  0x80, 0x80, 0x80, 0x80, 0x80, 0x80, 0x80, 0x96, 0x9e, 0x80, 0x80, 0x69,
  0x80, 0x80, 0x6a, 0x80, 0x9e, 0x80, 0x80, 0x6a, 0x80, 0x80, 0x80, 0x80,
  0x62, 0x80, 0x80, 0x80, 0x80, 0x80, 0x80, 0x80, 0x80, 0x80, 0x80, 0x6f,
  0x80, 0x9e, 0x80, 0x99, 0x80, 0x80, 0x80, 0x6d, 0x80, 0x80, 0x80, 0xa1,
  0x80, 0x80, 0x80, 0x97, 0x80, 0x6a, 0x80, 0x6d, 0x80, 0x80, 0x6d, 0x80,
  0x80, 0x80, 0x80, 0x80, 0x80, 0x80, 0x80, 0x80, 0x80, 0x80, 0x80, 0x80,
  0x80, 0x9f, 0x80, 0x6b, 0x80, 0x80, 0x80, 0x6f, 0x6c, 0x80, 0x80, 0xa7,
  0x80, 0x80, 0x80, 0x67, 0x97, 0x80, 0x80, 0x80, 0x80, 0x80, 0x80, 0x80,
  0x80, 0x80, 0x80, 0x80, 0x80, 0x80, 0x80, 0x80, 0x80, 0x80, 0x6d, 0x80,
  0x80, 0x80, 0x80, 0x99, 0x80, 0x80, 0x80, 0x6e, 0x80, 0x6e, 0x80, 0x80,
  0x80, 0x80, 0x80, 0x80, 0x80, 0x9b, 0x80, 0x80, 0x80, 0x80, 0x80, 0x80,
  0x80, 0x80, 0x80, 0x80, 0x80, 0x80, 0x80, 0x80, 0x80, 0x80, 0x6c, 0x68,
  0x6f, 0x80, 0x80, 0x80, 0x80, 0x80, 0x80, 0x80, 0x80, 0x80, 0x80, 0x80,
  0x6d, 0x80, 0x80, 0x80, 0x80, 0x80, 0x6a, 0x80, 0x80, 0x80, 0x80, 0x80,
  0x80, 0x95, 0x80, 0x80, 0x80, 0x80, 0x80, 0x80, 0x80, 0x80, 0x80, 0x80,
  0x80, 0x80, 0x80, 0x80, 0x80, 0x80, 0x80, 0x6e, 0x80, 0x80, 0x80, 0x80,
  0x80, 0x6a, 0x80, 0x80, 0x6a, 0x80, 0x80, 0x80, 0x6a, 0x80, 0x80, 0x80,
  0x80, 0x80, 0x66, 0x80, 0x80, 0x80, 0x80, 0x6c, 0x6c, 0x80, 0x80, 0x80,
  0x80, 0x80, 0x91, 0x80, 0x80, 0x80, 0x6d, 0x6e, 0x80, 0x80, 0x80, 0x80,
  0xa0, 0x80, 0x80, 0x80, 0x80, 0x80, 0x80, 0x80, 0x66, 0x80, 0x80, 0x80,
  0x80, 0x80, 0x80, 0x80, 0x80, 0x65, 0x80, 0x80, 0x80, 0x80, 0x80, 0x80,
  0x80, 0x80, 0x80, 0x80, 0x80, 0x80, 0x80, 0x80, 0x80, 0x80, 0x80, 0x80,
  0x80, 0x80, 0x80, 0x80, 0x80, 0x64, 0x80, 0x80, 0x80, 0x80, 0x80, 0x80,
  0x80, 0x80, 0x80, 0x80, 0x66, 0x80, 0x80, 0x80, 0x80, 0x80, 0x68, 0x80,
  0x80, 0x7f, 0x80, 0x80, 0x80, 0x80, 0x60, 0x80, 0x69, 0x80, 0x80, 0x80,
  0x80, 0x80, 0x80, 0x9f, 0x80, 0xa4, 0x6a, 0x80, 0x80, 0x80, 0x66, 0x80,
  0x80, 0x80, 0x80, 0x80, 0x80, 0x80, 0x80, 0x80, 0x80, 0x80, 0x80, 0x80,
  0x80, 0x80, 0x80, 0x80, 0x80, 0x80, 0x80, 0x80, 0x80, 0x7f, 0x80, 0x68,
  0x80, 0x80, 0x80, 0x80, 0x68, 0x80, 0x80, 0x80, 0x80, 0x80, 0x80, 0x9a,
  0x80, 0x80, 0x80, 0x9e, 0x80, 0x80, 0x80, 0x61, 0x80, 0x80, 0x9b, 0x80,
  0xa0, 0x80, 0x69, 0x80, 0x80, 0x80, 0x80, 0x9b, 0x80, 0x80, 0x80, 0x80,
  0x80, 0x80, 0x80, 0x80, 0x80, 0x80, 0x80, 0x80, 0x80, 0x80, 0x80, 0x80,
  0x80, 0x80, 0x80, 0x80, 0x80, 0x80, 0x97, 0x80, 0x97, 0x80, 0x80, 0x80,
  0x80, 0x80, 0x80, 0x80, 0x80, 0x80, 0x80, 0x80, 0x80, 0x80, 0x63, 0x67,
  0x80, 0x80, 0x80, 0x80, 0x80, 0x80, 0x80, 0x80, 0x80, 0x80, 0x80, 0x9b,
  0x80, 0x80, 0x98, 0x80, 0x63, 0x80, 0x80, 0x80, 0x7f, 0x80, 0x80, 0x80,
  0x80, 0x80, 0x9d, 0x80, 0x80, 0x80, 0x80, 0x80, 0x80, 0x80, 0x80, 0x80,
  0x80, 0x80, 0x80, 0x69, 0x80, 0x80, 0x63, 0x80, 0x80, 0x80, 0x80, 0x80,
  0x80, 0x80, 0x80, 0x80, 0x80, 0x5b, 0x80, 0x98, 0x80, 0x80, 0x80, 0x80,
  0x80, 0x80, 0x80, 0x67, 0x80, 0x80, 0x80, 0x80, 0x80, 0x80, 0xaa, 0x80,
  0x80, 0x80, 0x80, 0x80, 0x6a, 0x80, 0x80, 0x5c, 0x80, 0x80, 0x80, 0x80,
  0x97, 0x80, 0x80, 0x80, 0x80, 0x80, 0x80, 0x80, 0x80, 0x80, 0x80, 0x80,
  0x80, 0x80, 0x80, 0x80, 0x80, 0xa8, 0x80, 0x80, 0x80, 0x80, 0x80, 0x80,
  0x80, 0x80, 0x80, 0x80, 0x80, 0x80, 0x80, 0x80, 0x80, 0x80, 0x80, 0x80,
  0x80, 0x80, 0x80, 0x80, 0x80, 0x80, 0x80, 0x80, 0x80, 0x80, 0x80, 0x63,
  0x80, 0x80, 0x97, 0x80, 0x9f, 0x80, 0x80, 0x80, 0x80, 0x80, 0x65, 0x80,
  0x80, 0xa9, 0x80, 0x80, 0x9e, 0x80, 0x80, 0x80, 0x80, 0x80, 0x80, 0x80,
  0x80, 0x80, 0x5a, 0x80, 0x67, 0x80, 0x80, 0x80, 0x80, 0x80, 0x80, 0x80,
  0x80, 0x80, 0x80, 0x80, 0xa2, 0x80, 0x80, 0x80, 0x80, 0x80, 0x80, 0x80,
  0x80, 0x80, 0x80, 0x80, 0x80, 0x80, 0x80, 0x80, 0x80, 0x9c, 0x80, 0x80,
  0xb0, 0x80, 0x80, 0x80, 0x80, 0x80, 0x80, 0x80, 0x80, 0x80, 0x66, 0x80,
  0x5b, 0x80, 0x68, 0x80, 0x5e, 0x80, 0x80, 0x80, 0x80, 0x80, 0x80, 0x80,
  0x80, 0x80, 0x80, 0x80, 0x80, 0x80, 0x80, 0x7f, 0x80, 0x9a, 0x80, 0x80,
  0x80, 0x7f, 0x80, 0x7f, 0x65, 0x80, 0x80, 0x80, 0x7f, 0x7f, 0x80, 0x80,
  0x80, 0x80, 0x80, 0x7f, 0x80, 0x80, 0x80, 0x67, 0x80, 0x80, 0x80, 0x80,
  0x80, 0x63, 0x80, 0x69, 0x80, 0x80, 0x80, 0x80, 0x80, 0x80, 0x80, 0x80,
  0x80, 0x80, 0x80, 0x7f, 0x80, 0x98, 0x99, 0x80, 0x80, 0x7f, 0x81, 0x80,
  0x80, 0x80, 0x80, 0x80, 0x7f, 0x7f, 0x80, 0x80, 0x80, 0x80, 0x80, 0x7f,
  0x80, 0x80, 0x80, 0x62, 0x80, 0x80, 0x80, 0x80, 0x80, 0x80, 0x80, 0x80,
  0x80, 0x80, 0x97, 0x80, 0x80, 0x80, 0x80, 0x80, 0x80, 0x80, 0x80, 0x7f,
  0x80, 0x80, 0x7f, 0x80, 0x80, 0x80, 0x9e, 0x80, 0x80, 0x80, 0x80, 0x9b,
  0x80, 0x7f, 0x80, 0x80, 0x80, 0x81, 0x80, 0x7f, 0x80, 0x80, 0x80, 0x80,
  0x80, 0x80, 0x80, 0x80, 0x80, 0x80, 0x80, 0x80, 0x80, 0x80, 0x80, 0x80,
  0x80, 0x80, 0x80, 0x80, 0x80, 0x80, 0x80, 0x7f, 0x7f, 0x80, 0x80, 0x80,
  0x80, 0x80, 0x80, 0x9d, 0x80, 0x80, 0x80, 0x80, 0x9f, 0x80, 0x80, 0x80,
  0x7f, 0x80, 0x80, 0x7f, 0x80, 0x80, 0x80, 0x80, 0x80, 0x80, 0x80, 0x80,
  0x80, 0x80, 0x69, 0xa1, 0x80, 0x80, 0x80, 0x80, 0x80, 0x80, 0x80, 0x81,
  0x80, 0x80, 0x80, 0x7f, 0x7f, 0x80, 0x80, 0x80, 0x80, 0x80, 0x80, 0x9c,
  0x80, 0x80, 0x80, 0x80, 0x80, 0x60, 0x80, 0x99, 0x80, 0x80, 0x80, 0x7f,
  0x9c, 0x80, 0x80, 0x80, 0x80, 0x80, 0x80, 0x80, 0x80, 0x81, 0x80, 0x80,
  0x80, 0x80, 0x80, 0x80, 0x80, 0x80, 0x80, 0x81, 0x80, 0x80, 0x9b, 0x7f,
  0x80, 0x63, 0x80, 0x80, 0x80, 0x80, 0x80, 0x98, 0x80, 0x80, 0x80, 0x80,
  0x68, 0x65, 0x63, 0x80, 0x80, 0x80, 0x80, 0x7f, 0x98, 0x80, 0x80, 0x80,
  0x9c, 0x80, 0x80, 0x80, 0x80, 0x80, 0x80, 0x61, 0x80, 0x80, 0x80, 0x80,
  0x80, 0x80, 0x80, 0x80, 0x80, 0x80, 0x80, 0x80, 0x80, 0x80, 0x80, 0x80,
  0x80, 0x80, 0x80, 0x7f, 0x80, 0x80, 0x80, 0x80, 0x80, 0x80, 0x80, 0x80,
  0x80, 0x5b, 0x80, 0x9a, 0x80, 0x80, 0x80, 0x80, 0x80, 0x80, 0x80, 0x80,
  0x80, 0x80, 0x80, 0x80, 0x99, 0x80, 0x81, 0x80, 0x80, 0x80, 0x80, 0x80,
  0x80, 0x80, 0x80, 0x80, 0x80, 0x66, 0x80, 0x80, 0x80, 0x80, 0x63, 0x80,
  0x80, 0x80, 0x80, 0x60, 0x80, 0x80, 0x80, 0x80, 0x80, 0x60, 0x80, 0xab,
  0x80, 0x80, 0x80, 0x80, 0x80, 0x80, 0x97, 0x80, 0x80, 0x80, 0x80, 0x53,
  0xa0, 0x64, 0x81, 0x80, 0x80, 0x80, 0x80, 0x60, 0x80, 0x80, 0x80, 0x9f,
  0x80, 0x80, 0x80, 0xa0, 0x80, 0x80, 0x80, 0x80, 0x80, 0x80, 0x80, 0x5b,
  0x80, 0x80, 0x80, 0x80, 0x80, 0x80, 0x80, 0xae, 0x80, 0x80, 0x80, 0x80,
  0x9d, 0xb2, 0x80, 0xa3, 0x64, 0x80, 0x80, 0x5d, 0x80, 0x80, 0x81, 0x80,
  0x9d, 0x6e, 0x80, 0x80, 0x80, 0x80, 0x80, 0x6f, 0x80, 0x80, 0x9b, 0xa4,
  0x80, 0x94, 0x80, 0x80, 0x80, 0x6d, 0x6e, 0x80, 0x80, 0x80, 0x8f, 0x6a,
  0x80, 0x80, 0x80, 0x90, 0x80, 0x80, 0x80, 0x80, 0x80, 0x80, 0x80, 0x6b,
  0x80, 0x80, 0x96, 0x80, 0x92, 0x80, 0x80, 0x80, 0x80, 0x80, 0xa1, 0x80,
  0x91, 0x6c, 0x80, 0x80, 0x80, 0x67, 0x80, 0xb2, 0x80, 0x92, 0xa2, 0x80,
  0x80, 0x80, 0x80, 0x80, 0x80, 0x80, 0xa7, 0x6e, 0x93, 0x80, 0x9c, 0x71,
  0x68, 0x80, 0x80, 0x6d, 0x80, 0x94, 0x80, 0x67, 0x80, 0x80, 0x97, 0x80,
  0x80, 0x94, 0x80, 0x80, 0x80, 0x80, 0x94, 0x80, 0xa1, 0x80, 0x80, 0x80,
  0x80, 0x66, 0x80, 0xa8, 0x80, 0x80, 0x80, 0x80, 0x80, 0x80, 0x80, 0x80,
  0x9b, 0x80, 0x97, 0x80, 0x80, 0x9d, 0x90, 0x6b, 0x6a, 0x80, 0x80, 0x80,
  0x92, 0x80, 0x80, 0x71, 0x80, 0x80, 0x80, 0x80, 0x80, 0x80, 0x80, 0x80,
  0x80, 0x80, 0x80, 0x80, 0x80, 0x80, 0x80, 0x6f, 0x80, 0x80, 0x80, 0x80,
  0x80, 0x80, 0x80, 0x80, 0x80, 0x5f, 0x80, 0x80, 0x80, 0x80, 0x80, 0x80,
  0x80, 0x80, 0x80, 0x80, 0x80, 0x80, 0x80, 0x80, 0x70, 0x80, 0x80, 0x80,
  0x80, 0x80, 0x80, 0x80, 0x6e, 0x80, 0x80, 0x80, 0x80, 0x9f, 0x80, 0x80,
  0x6b, 0x80, 0x80, 0x80, 0x95, 0x80, 0x80, 0x80, 0x80, 0x80, 0x80, 0x80,
  0x62, 0x70, 0x65, 0x80, 0x6c, 0x70, 0x80, 0x92, 0x80, 0x80, 0x80, 0x80,
  0x68, 0x80, 0x80, 0x80, 0x80, 0x80, 0x80, 0x80, 0x80, 0x80, 0x80, 0x80,
  0x80, 0x6c, 0x80, 0x6f, 0x80, 0x96, 0x80, 0x80, 0x70, 0x80, 0x80, 0x80,
  0x80, 0x80, 0x80, 0x80, 0x80, 0x80, 0x6c, 0x80, 0x80, 0x80, 0x80, 0x80,
  0x6d, 0x80, 0x80, 0x80, 0x80, 0x80, 0x80, 0x80, 0x6f, 0x80, 0x80, 0x80,
  0x80, 0x80, 0x80, 0x80, 0x80, 0x80, 0x71, 0x91, 0x80, 0x6f, 0x80, 0x80,
  0x80, 0x68, 0x80, 0x80, 0x80, 0x80, 0x80, 0x80, 0x80, 0x80, 0x8f, 0x80,
  0x80, 0x80, 0x80, 0x80, 0x80, 0x80, 0x69, 0x80, 0x80, 0x80, 0x80, 0x8f,
  0x80, 0x80, 0x80, 0x80, 0x80, 0x80, 0x92, 0x80, 0x80, 0x80, 0x80, 0x80,
  0x80, 0x80, 0x80, 0x80, 0x80, 0x80, 0x80, 0x80, 0x80, 0x80, 0x80, 0x97,
  0x6b, 0x80, 0x80, 0x80, 0x80, 0x9a, 0x80, 0x80, 0x80, 0x80, 0x80, 0x80,
  0x80, 0x80, 0x80, 0x80, 0x80, 0x80, 0x80, 0x80, 0x80, 0x80, 0x80, 0x80,
  0x95, 0x80, 0x80, 0x80, 0x80, 0x80, 0x80, 0x80, 0x80, 0x80, 0x80, 0x80,
  0x66, 0x80, 0x80, 0x80, 0x80, 0x80, 0x80, 0x80, 0x80, 0x80, 0x80, 0x80,
  0x6b, 0x9a, 0x8f, 0x80, 0x80, 0x80, 0x6c, 0x80, 0x80, 0x80, 0x80, 0x80,
  0x80, 0x80, 0x80, 0x80, 0x80, 0x80, 0x80, 0x80, 0x95, 0x80, 0x80, 0x80,
  0x80, 0x80, 0x80, 0x80, 0x80, 0x70, 0x80, 0x80, 0x80, 0x80, 0x80, 0x80,
  0x80, 0x80, 0x80, 0x80, 0x80, 0x80, 0x80, 0xce, 0x80, 0xaa, 0x80, 0x80,
  0x80, 0x80, 0xa2, 0x80, 0x80, 0x81, 0x80, 0x80, 0x96, 0x80, 0x80, 0x80,
  0x80, 0x80, 0x80, 0x80, 0x80, 0x80, 0x80, 0x80, 0x80, 0x80, 0x80, 0x80,
  0x80, 0x6a, 0x80, 0x80, 0x80, 0x80, 0xa3, 0x80, 0x95, 0x80, 0x80, 0x94,
  0x80, 0x9e, 0x80, 0x5f, 0x80, 0x80, 0x80, 0x80, 0x80, 0x80, 0x80, 0x80,
  0x80, 0x81, 0x80, 0x80, 0x80, 0x80, 0x80, 0x80, 0x80, 0x80, 0x80, 0x80,
  0x80, 0x80, 0x80, 0x80, 0x80, 0x80, 0x80, 0x80, 0x80, 0x80, 0x80, 0x80,
  0x80, 0x80, 0x9b, 0x81, 0x80, 0x95, 0x80, 0x80, 0x80, 0xa8, 0x80, 0x68,
  0x80, 0x9c, 0xb3, 0x80, 0x9c, 0x6c, 0x80, 0x6e, 0x80, 0x81, 0x80, 0x95,
  0x80, 0x80, 0x80, 0x80, 0x80, 0x80, 0x80, 0x80, 0x9c, 0x80, 0x80, 0x80,
  0x9c, 0x80, 0x94, 0x80, 0x80, 0x80, 0x80, 0x81, 0x80, 0x80, 0x97, 0xa4,
  0x80, 0x80, 0x80, 0x80, 0x80, 0x80, 0x80, 0xbb, 0x80, 0x80, 0x6c, 0x80,
  0x80, 0x80, 0x80, 0x80, 0x80, 0x80, 0x80, 0x80, 0x80, 0x80, 0x80, 0x80,
  0x80, 0x80, 0x80, 0x80, 0x80, 0x80, 0x80, 0x80, 0x80, 0x80, 0x80, 0x80,
  0x80, 0x80, 0x80, 0x80, 0x80, 0x80, 0x80, 0x80, 0x80, 0x80, 0x80, 0x80,
  0x80, 0x80, 0x80, 0x5b, 0x80, 0x80, 0x6c, 0x80, 0x80, 0x80, 0x80, 0x80,
  0x80, 0x80, 0x80, 0x80, 0x80, 0x80, 0x80, 0x80, 0x97, 0x80, 0x80, 0x80,
  0x80, 0x80, 0x80, 0x80, 0x80, 0x80, 0x80, 0x80, 0x80, 0x80, 0x80, 0x80,
  0x80, 0x80, 0x80, 0x80, 0x80, 0xa0, 0x80, 0x6d, 0x80, 0x80, 0x80, 0x80,
  0x80, 0x80, 0x80, 0x80, 0x80, 0x80, 0x80, 0x80, 0x80, 0x80, 0x6c, 0x80,
  0x80, 0x80, 0x80, 0x80, 0x96, 0x80, 0x80, 0x80, 0x94, 0x80, 0x80, 0x80,
  0x80, 0x80, 0x80, 0x80, 0x80, 0x80, 0x80, 0x80, 0x80, 0x80, 0x80, 0x9d,
  0x80, 0x64, 0x80, 0x80, 0x80, 0x80, 0x80, 0x80, 0x80, 0x6c, 0x80, 0x80,
  0x80, 0x80, 0x80, 0x80, 0x80, 0x80, 0x80, 0x80, 0xab, 0x80, 0x80, 0x80,
  0x80, 0x80, 0x80, 0x80, 0x80, 0x80, 0x80, 0x80, 0x80, 0x80, 0x80, 0x80,
  0x80, 0x80, 0x80, 0x80, 0x80, 0x80, 0x80, 0x80, 0x80, 0x67, 0x80, 0x80,
  0x80, 0x68, 0x80, 0x61, 0x80, 0x80, 0x80, 0x80, 0x80, 0x80, 0x80, 0x80,
  0x80, 0x80, 0x80, 0x80, 0x80, 0x80, 0x80, 0x80, 0x80, 0x80, 0x80, 0x80,
  0x80, 0x80, 0x94, 0x80, 0x80, 0x80, 0x80, 0x80, 0x80, 0x80, 0x80, 0x80,
  0x80, 0x67, 0x80, 0x80, 0x80, 0x80, 0x80, 0x80, 0x9e, 0x68, 0x80, 0x80,
  0x80, 0x65, 0x80, 0x80, 0x80, 0x80, 0x80, 0x6b, 0x80, 0x80, 0x80, 0x80,
  0x93, 0x80, 0x80, 0x80, 0x80, 0x80, 0x80, 0x80, 0x80, 0x80, 0x80, 0x80,
  0x80, 0x80, 0x80, 0x80, 0x80, 0x80, 0x80, 0x80, 0x80, 0x80, 0x80, 0x80,
  0x80, 0x95, 0x80, 0x80, 0x80, 0xa6, 0x80, 0x80, 0x7f, 0x80, 0x80, 0x80,
  0x80, 0x96, 0x80, 0x7f, 0x80, 0x80, 0x80, 0x80, 0x80, 0x80, 0x80, 0x80,
  0x80, 0x80, 0x80, 0x80, 0x80, 0x96, 0x80, 0x80, 0x80, 0x80, 0x80, 0x80,
  0x60, 0x80, 0x80, 0x80, 0xa7, 0x80, 0x80, 0x80, 0x80, 0x80, 0xa0, 0x80,
  0x80, 0x80, 0x80, 0x80, 0x7f, 0x80, 0x80, 0x80, 0x6a, 0x80, 0x80, 0x7f,
  0x80, 0x80, 0x80, 0x6a, 0x80, 0x80, 0x80, 0x80, 0x80, 0x80, 0x80, 0x80,
  0x65, 0x80, 0x80, 0x80, 0x80, 0x80, 0x80, 0x80, 0x80, 0x80, 0x96, 0x80,
  0xa9, 0x80, 0x80, 0x80, 0x80, 0x80, 0x80, 0x80, 0x80, 0x80, 0xa5, 0x6b,
  0x7f, 0x65, 0x80, 0x80, 0x80, 0x80, 0x80, 0x7f, 0x9b, 0x80, 0x80, 0x5c,
  0x80, 0x80, 0x80, 0x80, 0x80, 0x80, 0x80, 0x80, 0x80, 0x80, 0x80, 0x80,
  0x80, 0x9c, 0x80, 0x80, 0x9f, 0x80, 0x80, 0x61, 0x80, 0x9d, 0x80, 0x80,
  0x80, 0x80, 0x80, 0x80, 0x80, 0x80, 0x80, 0x80, 0x80, 0x80, 0x69, 0x80,
  0x80, 0x80, 0x80, 0x80, 0x80, 0x80, 0x80, 0xa5, 0x80, 0x80, 0x80, 0x80,
  0x80, 0x80, 0x80, 0x80, 0x80, 0x80, 0x62, 0x80, 0x61, 0x80, 0x80, 0x80,
  0x80, 0x80, 0x80, 0x80, 0x80, 0x6b, 0x80, 0x80, 0x80, 0x97, 0x9c, 0x80,
  0x80, 0x80, 0x80, 0x80, 0x5f, 0x97, 0x80, 0x80, 0x80, 0x80, 0x80, 0x80,
  0x80, 0x80, 0x80, 0x80, 0x80, 0x80, 0xaf, 0x80, 0x80, 0x80, 0x80, 0x80,
  0x68, 0x6b, 0x80, 0x80, 0x80, 0x80, 0x80, 0x80, 0x80, 0x80, 0x80, 0x80,
  0x80, 0x80, 0x80, 0x80, 0x80, 0x63, 0x80, 0x80, 0x80, 0x80, 0x80, 0x80,
  0x80, 0x80, 0xa2, 0x80, 0x80, 0x80, 0x80, 0x80, 0x80, 0x80, 0x80, 0x5e,
  0x80, 0x80, 0x96, 0x80, 0x80, 0x80, 0x80, 0x80, 0x80, 0x80, 0x80, 0x80,
  0x65, 0x9f, 0x80, 0x80, 0x99, 0x80, 0x80, 0x80, 0x80, 0x80, 0x80, 0x80,
  0x80, 0x96, 0x80, 0x80, 0x80, 0x80, 0x80, 0x80, 0x80, 0x80, 0x80, 0x80,
  0x80, 0x80, 0x80, 0x80, 0x80, 0x80, 0x80, 0x80, 0x80, 0x80, 0x80, 0x80,
  0x80, 0x80, 0x80, 0x80, 0x80, 0x95, 0x69, 0x80, 0x80, 0x80, 0x80, 0x80,
  0x80, 0x80, 0x80, 0x80, 0x80, 0x80, 0x80, 0x80, 0x80, 0x80, 0x80, 0x80,
  0x80, 0x80, 0x80, 0x80, 0x80, 0x80, 0x80, 0x80, 0x9f, 0x80, 0x80, 0x80,
  0x80, 0x80, 0x80, 0x80, 0x80, 0x80, 0xa3, 0x80, 0x80, 0x80, 0x80, 0x80,
  0x80, 0x80, 0x80, 0x80, 0x80, 0x80, 0x80, 0x80, 0x80, 0x80, 0x80, 0x80,
  0x80, 0x80, 0x80, 0x80, 0x80, 0x80, 0x80, 0x80, 0x80, 0x97, 0x80, 0x80,
  0x80, 0x80, 0xa9, 0x80, 0x9e, 0x80, 0x80, 0x80, 0x80, 0x80, 0x80, 0x80,
  0x80, 0x6b, 0x80, 0x80, 0x80, 0x80, 0x80, 0x95, 0x80, 0x80, 0xad, 0x80,
  0x80, 0x80, 0x80, 0x69, 0x80, 0x96, 0x80, 0x80, 0x80, 0x80, 0x80, 0x80,
  0x80, 0x80, 0x80, 0x80, 0x80, 0x80, 0x80, 0x80, 0x80, 0x80, 0x80, 0x80,
  0x80, 0x80, 0x80, 0x80, 0x80, 0x73, 0x80, 0x80, 0x80, 0x80, 0x80, 0x80,
  0x80, 0x70, 0x80, 0x80, 0x80, 0x80, 0x80, 0x80, 0x80, 0x80, 0x80, 0x80,
  0x80, 0x80, 0x80, 0x8c, 0x80, 0x80, 0x80, 0x80, 0x80, 0x80, 0x80, 0x80,
  0x80, 0x80, 0x80, 0x80, 0x80, 0x80, 0x80, 0x80, 0x80, 0x80, 0x80, 0x80,
  0x80, 0x80, 0x80, 0x80, 0x80, 0x80, 0x8c, 0x80, 0x80, 0x6f, 0x80, 0x80,
  0x80, 0x80, 0x80, 0x80, 0x80, 0x8e, 0x80, 0x80, 0x80, 0x80, 0x80, 0x80,
  0x80, 0x80, 0x80, 0x80, 0x80, 0x98, 0x8b, 0x80, 0x80, 0x80, 0x80, 0x80,
  0x80, 0x8b, 0x80, 0x80, 0x80, 0x80, 0x80, 0x80, 0x80, 0x80, 0x80, 0x80,
  0x80, 0x80, 0x80, 0x80, 0x70, 0x80, 0x80, 0x80, 0x80, 0x80, 0x80, 0x80,
  0x8c, 0x80, 0x80, 0x80, 0x80, 0x8d, 0x80, 0x80, 0x80, 0x80, 0x80, 0x80,
  0x90, 0x80, 0x80, 0xb4, 0x97, 0x80, 0x80, 0x74, 0x80, 0x80, 0x8f, 0x80,
  0x80, 0x8c, 0x80, 0x80, 0x80, 0x74, 0x80, 0x80, 0x91, 0x80, 0x80, 0x71,
  0x80, 0x80, 0x80, 0x80, 0x80, 0x80, 0x75, 0x80, 0x80, 0x80, 0x74, 0x80,
  0x74, 0x80, 0x74, 0x95, 0x8b, 0x80, 0x8f, 0x8e, 0x8b, 0x80, 0x80, 0xa3,
  0x90, 0x80, 0x80, 0x80, 0x80, 0x80, 0x80, 0x80, 0x80, 0x80, 0x80, 0x71,
  0x80, 0x80, 0x80, 0x74, 0x80, 0x80, 0x80, 0x80, 0x80, 0x80, 0x80, 0x80,
  0x80, 0x8b, 0x80, 0x80, 0x80, 0x80, 0x74, 0x80, 0x71, 0x80, 0x80, 0x80,
  0x80, 0x80, 0x80, 0x80, 0x6c, 0x70, 0x80, 0x64, 0x80, 0x80, 0x75, 0x80,
  0x75, 0x80, 0x69, 0x80, 0x80, 0x80, 0x80, 0x80, 0x80, 0x80, 0x80, 0x80,
  0x80, 0x80, 0x80, 0x80, 0x80, 0x80, 0x75, 0x80, 0x80, 0x80, 0x80, 0x80,
  0x80, 0x80, 0x80, 0x80, 0x80, 0x80, 0x73, 0x6e, 0x80, 0x80, 0x6f, 0x6f,
  0x80, 0x80, 0x80, 0x80, 0x80, 0x80, 0x80, 0x80, 0x80, 0x80, 0x80, 0x80,
  0x80, 0x9a, 0x80, 0x80, 0x80, 0x75, 0x80, 0x80, 0x80, 0x80, 0x80, 0x80,
  0x80, 0x80, 0x80, 0x80, 0x80, 0x80, 0x80, 0x8b, 0x73, 0x8c, 0x80, 0x80,
  0x80, 0x80, 0x80, 0x80, 0x80, 0x80, 0x80, 0x80, 0x80, 0x80, 0x80, 0x80,
  0x75, 0x80, 0x80, 0x80, 0x80, 0x80, 0x80, 0x75, 0x80, 0x80, 0x80, 0x80,
  0x80, 0x80, 0x80, 0x80, 0x75, 0x80, 0x80, 0x80, 0x80, 0x80, 0x80, 0x80,
  0x80, 0x80, 0x80, 0x80, 0x80, 0x80, 0x80, 0x80, 0x80, 0x80, 0x80, 0x80,
  0x8b, 0x80, 0x72, 0x80, 0x80, 0x80, 0x80, 0x80, 0x80, 0x80, 0x80, 0x80,
  0x73, 0x80, 0x80, 0x80, 0x80, 0x80, 0x80, 0x80, 0x80, 0x80, 0x80, 0x80,
  0x80, 0x80, 0x80, 0x80, 0x80, 0x80, 0x80, 0x80, 0x91, 0x80, 0x80, 0x80,
  0x80, 0x80, 0x80, 0x80, 0x80, 0x80, 0x80, 0x75, 0x80, 0x80, 0x72, 0x80,
  0x80, 0x80, 0x80, 0x80, 0x80, 0x80, 0x80, 0x80, 0x80, 0x80, 0x80, 0x80,
  0x80, 0x80, 0x80, 0x80, 0x80, 0x80, 0x80, 0x80, 0x95, 0x80, 0x80, 0x80,
  0x80, 0x80, 0x80, 0x7f, 0x80, 0x80, 0x80, 0x80, 0x80, 0x80, 0x80, 0x80,
  0x80, 0x80, 0x80, 0x80, 0x93, 0x80, 0x80, 0x80, 0x80, 0x80, 0x80, 0x80,
  0x66, 0x80, 0x91, 0x80, 0x93, 0x80, 0x80, 0x80, 0x80, 0x80, 0x80, 0x80,
  0x80, 0x7f, 0x80, 0x80, 0x91, 0x80, 0x80, 0x80, 0x80, 0x80, 0x80, 0x7f,
  0x80, 0x80, 0x80, 0x80, 0x80, 0x80, 0x80, 0x80, 0x80, 0x80, 0x80, 0x80,
  0x80, 0x80, 0x80, 0x80, 0x80, 0x80, 0x80, 0x80, 0x6e, 0x80, 0x80, 0x80,
  0x80, 0x80, 0x80, 0x80, 0x80, 0x80, 0x80, 0x80, 0x80, 0x80, 0x80, 0x80,
  0x80, 0x80, 0x80, 0x80, 0x80, 0x6c, 0x80, 0x7f, 0x80, 0x80, 0x80, 0x80,
  0x80, 0x80, 0x80, 0x80, 0x80, 0x80, 0x80, 0x80, 0x80, 0x80, 0x80, 0x80,
  0x80, 0x80, 0x80, 0x80, 0x80, 0x80, 0x80, 0x80, 0x80, 0x67, 0x80, 0x80,
  0x6e, 0x80, 0x80, 0x80, 0x80, 0x80, 0x80, 0x80, 0x80, 0x80, 0x80, 0x80,
  0x80, 0x80, 0x80, 0x80, 0x80, 0x6d, 0x93, 0x80, 0x80, 0x80, 0x80, 0x80,
  0x80, 0x80, 0x80, 0x80, 0x80, 0x80, 0x80, 0x9c, 0x93, 0x80, 0x80, 0x9a,
  0x80, 0x80, 0x80, 0x80, 0x80, 0x67, 0x80, 0x80, 0x80, 0x80, 0x80, 0x80,
  0x80, 0x6a, 0x80, 0x80, 0x80, 0x80, 0x80, 0x80, 0x80, 0x80, 0x80, 0x80,
  0x80, 0x80, 0x9b, 0x80, 0x65, 0x80, 0x80, 0x80, 0x80, 0x80, 0x80, 0x80,
  0x80, 0x80, 0x80, 0x9a, 0x80, 0x80, 0x80, 0x80, 0x98, 0x80, 0x80, 0x80,
  0x80, 0x67, 0x80, 0x80, 0x80, 0x80, 0x80, 0x80, 0x80, 0x80, 0x80, 0x80,
  0x80, 0x80, 0x80, 0x80, 0x80, 0x80, 0x80, 0x80, 0x80, 0x80, 0x80, 0x80,
  0x6e, 0x80, 0x80, 0x80, 0x80, 0x80, 0x80, 0x80, 0x80, 0x80, 0x80, 0x80,
  0x80, 0x80, 0x9a, 0x80, 0x80, 0x80, 0x80, 0x80, 0x80, 0x67, 0x80, 0x80,
  0x80, 0x80, 0x80, 0x80, 0x80, 0x6d, 0x95, 0x80, 0x80, 0x80, 0x93, 0x80,
  0x80, 0x80, 0x92, 0x80, 0x80, 0x80, 0x80, 0x67, 0x80, 0x80, 0x80, 0x80,
  0x80, 0x80, 0x80, 0x80, 0x80, 0x98, 0x80, 0x90, 0x91, 0x6f, 0x91, 0x97,
  0x80, 0x80, 0x80, 0x80, 0x6f, 0x62, 0x80, 0x80, 0x80, 0x80, 0x97, 0x80,
  0x80, 0x6b, 0x80, 0x80, 0x80, 0x80, 0xa0, 0x80, 0x80, 0x91, 0x80, 0x80,
  0x80, 0x80, 0x80, 0x66, 0x80, 0x80, 0x80, 0x80, 0x80, 0x9f, 0x80, 0x80,
  0x80, 0x80, 0x91, 0x9f, 0x80, 0x80, 0x80, 0x9c, 0x95, 0x80, 0x80, 0x80,
  0x63, 0x69, 0x80, 0x80, 0x80, 0x80, 0x80, 0x80, 0x80, 0x80, 0x80, 0x80,
  0x80, 0x80, 0x92, 0x80, 0x80, 0x93, 0x80, 0x80, 0x80, 0x80, 0x80, 0x69,
  0x80, 0x80, 0x80, 0x80, 0x80, 0x80, 0x80, 0x80, 0x6b, 0x80, 0x95, 0x94,
  0x80, 0x80, 0x80, 0x80, 0x80, 0x80, 0x80, 0x7f, 0x7f, 0x80, 0x80, 0x80,
  0x80, 0x80, 0x7f, 0x99, 0x80, 0x80, 0x80, 0x80, 0x80, 0x80, 0x80, 0x80,
  0x80, 0x68, 0x80, 0x80, 0x80, 0x80, 0x80, 0x80, 0x80, 0x80, 0x80, 0x61,
  0x80, 0x80, 0x80, 0x80, 0x80, 0x80, 0x80, 0x80, 0x80, 0x80, 0x80, 0x80,
  0x80, 0x80, 0x80, 0x7f, 0x80, 0x80, 0x7f, 0x66, 0x80, 0x80, 0x7f, 0x7f,
  0x80, 0x80, 0x80, 0x80, 0x80, 0x80, 0x80, 0x80, 0x80, 0x80, 0x65, 0x80,
  0x80, 0x7f, 0x80, 0x80, 0x80, 0x80, 0x80, 0x80, 0x80, 0x80, 0x80, 0x80,
  0x80, 0x80, 0x80, 0x80, 0x80, 0x80, 0x80, 0x80, 0x80, 0x80, 0x80, 0x7f,
  0x99, 0x80, 0x7f, 0x80, 0x80, 0x80, 0x7f, 0x80, 0x80, 0x80, 0x80, 0x80,
  0x80, 0x80, 0x80, 0x80, 0x99, 0x80, 0x80, 0x80, 0x80, 0x80, 0x80, 0x9f,
  0x80, 0x80, 0x80, 0x80, 0x80, 0x80, 0x80, 0x80, 0x80, 0x9c, 0x80, 0x80,
  0x80, 0x80, 0xaf, 0x81, 0x80, 0x80, 0x80, 0x80, 0x80, 0x80, 0x80, 0x9e,
  0x80, 0x80, 0x80, 0x80, 0x99, 0xa7, 0x80, 0x81, 0x81, 0x80, 0x80, 0x9a,
  0x80, 0x80, 0x9a, 0x80, 0x80, 0xa6, 0x80, 0x80, 0x80, 0x80, 0x80, 0x54,
  0x58, 0x80, 0x80, 0x81, 0x80, 0x64, 0x80, 0x81, 0x80, 0x64, 0x98, 0x81,
  0x80, 0x80, 0xa9, 0x7f, 0x63, 0x80, 0x80, 0x80, 0x80, 0x67, 0x80, 0x5b,
  0x80, 0xa0, 0x80, 0x5f, 0x81, 0x80, 0x80, 0xbf, 0x80, 0x80, 0x9f, 0x68,
  0x80, 0xa2, 0x80, 0x80, 0x68, 0x80, 0x80, 0xb5, 0x61, 0x5f, 0x80, 0x80,
  0x80, 0x80, 0x80, 0x81, 0x80, 0x80, 0x80, 0x81, 0x80, 0x65, 0x80, 0x80,
  0x80, 0x80, 0x63, 0x80, 0x80, 0x80, 0x9a, 0x80, 0x80, 0x82, 0x98, 0x80,
  0x80, 0x80, 0x7f, 0xb4, 0x80, 0x80, 0x80, 0x5a, 0x80, 0x80, 0x80, 0x80,
  0x80, 0xa4, 0x80, 0xb2, 0x51, 0x80, 0x80, 0xb3, 0x80, 0x80, 0x80, 0x81,
  0x80, 0x80, 0x80, 0x81, 0x68, 0xa2, 0x80, 0x80, 0x80, 0x69, 0x80, 0x80,
  0x80, 0x80, 0x80, 0x80, 0x97, 0x80, 0x80, 0x81, 0x81, 0xa2, 0xb1, 0x68,
  0x80, 0x80, 0x80, 0x80, 0x80, 0x9b, 0x80, 0x80, 0x80, 0x80, 0x81, 0x64,
  0x80, 0x80, 0x80, 0x80, 0x80, 0x80, 0x80, 0x80, 0x80, 0x80, 0x63, 0x81,
  0x81, 0x80, 0xad, 0x80, 0x80, 0x80, 0x80, 0x80, 0x80, 0x80, 0x80, 0x5e,
  0x80, 0x80, 0x80, 0x80, 0x81, 0x9d, 0x80, 0x9a, 0x80, 0x80, 0x99, 0x80,
  0x67, 0x80, 0x61, 0x80, 0x80, 0x80, 0x80, 0x80, 0x9c, 0x80, 0x5a, 0x57,
  0x80, 0x80, 0x81, 0x80, 0x80, 0x65, 0x5f, 0x81, 0x81, 0x67, 0x80, 0x80,
  0x80, 0x80, 0x63, 0x65, 0x80, 0x80, 0x80, 0x63, 0x80, 0x80, 0x80, 0x81,
  0x81, 0x80, 0x5f, 0x80, 0x66, 0x80, 0x80, 0x80, 0x80, 0x60, 0x80, 0x80,
  0x80, 0x80, 0x80, 0x80, 0x80, 0x80, 0x63, 0x80, 0x80, 0x80, 0x81, 0x80,
  0x6d, 0x80, 0x80, 0xa6, 0x80, 0x80, 0x9b, 0x5f, 0x80, 0x80, 0x7f, 0x80,
  0x80, 0x80, 0x80, 0x80, 0x80, 0x80, 0x80, 0x80, 0x80, 0x80, 0x6a, 0x80,
  0x80, 0x80, 0x80, 0x80, 0x80, 0x80, 0xa4, 0x80, 0x80, 0x80, 0x65, 0x80,
  0x80, 0x80, 0x80, 0xa4, 0x6b, 0x94, 0x80, 0x80, 0x80, 0x80, 0x80, 0x80,
  0x80, 0x80, 0x99, 0x80, 0x7f, 0x80, 0x80, 0x80, 0x80, 0x6b, 0x80, 0x7f,
  0x80, 0x80, 0x80, 0x80, 0x80, 0x7f, 0x80, 0x80, 0x80, 0x80, 0x6b, 0x80,
  0x80, 0x80, 0x80, 0x80, 0x62, 0x80, 0x80, 0x80, 0x80, 0x80, 0x80, 0x80,
  0x6d, 0x80, 0x80, 0x80, 0x80, 0x67, 0x80, 0x80, 0x80, 0x80, 0x80, 0x7f,
  0x80, 0x80, 0x64, 0x80, 0x80, 0x80, 0x80, 0x80, 0x80, 0x80, 0x80, 0x80,
  0x80, 0x80, 0x80, 0x80, 0x80, 0x80, 0x80, 0x80, 0x69, 0x80, 0x80, 0x80,
  0x67, 0x80, 0x80, 0x80, 0x7f, 0x80, 0x80, 0x80, 0x80, 0x6d, 0x80, 0x80,
  0x5f, 0x6b, 0x80, 0x80, 0x81, 0x64, 0x80, 0x7f, 0x7f, 0x80, 0x80, 0x80,
  0x80, 0x80, 0x80, 0x7f, 0x80, 0x80, 0x65, 0x80, 0x6c, 0x7f, 0x6b, 0x65,
  0x80, 0x63, 0x80, 0x80, 0x80, 0x80, 0x80, 0x80, 0x80, 0x80, 0x80, 0x9e,
  0x80, 0x80, 0x6b, 0x6d, 0x80, 0x80, 0x80, 0x80, 0x60, 0x80, 0x63, 0x80,
  0x9b, 0x80, 0x7f, 0x7f, 0x7f, 0x80, 0x80, 0x80, 0x80, 0x80, 0x80, 0x7f,
  0x95, 0x80, 0x80, 0x80, 0x80, 0x7f, 0x80, 0x80, 0x80, 0x80, 0x80, 0x7f,
  0x6b, 0x80, 0x80, 0x80, 0x80, 0x80, 0x80, 0x80, 0x64, 0x80, 0x80, 0x80,
  0x96, 0x80, 0x80, 0x80, 0x68, 0x80, 0x80, 0x80, 0xa9, 0x80, 0x80, 0x7e,
  0x7f, 0x80, 0x41, 0x96, 0x80, 0x80, 0x80, 0x80, 0x80, 0x80, 0x80, 0x80,
  0x9a, 0x80, 0x80, 0x80, 0x80, 0x80, 0x80, 0x9a, 0x80, 0x80, 0x80, 0x80,
  0x80, 0x80, 0x80, 0x68, 0x80, 0x80, 0x80, 0x69, 0xb2, 0x80, 0xa2, 0x62,
  0x80, 0x80, 0x80, 0x6e, 0x81, 0x80, 0x80, 0x80, 0x80, 0x80, 0x80, 0x80,
  0x80, 0x80, 0x80, 0x80, 0x80, 0x80, 0x80, 0x80, 0x63, 0x80, 0x80, 0x80,
  0x80, 0x80, 0x80, 0x60, 0x93, 0x80, 0x81, 0x80, 0x80, 0x80, 0x80, 0x80,
  0x80, 0x80, 0x80, 0x80, 0x9c, 0x80, 0x81, 0x80, 0x80, 0x80, 0x80, 0x80,
  0x81, 0x80, 0x80, 0x80, 0x80, 0x80, 0x80, 0x80, 0x80, 0x80, 0x80, 0x80,
  0x80, 0x80, 0x80, 0x80, 0x80, 0x80, 0x80, 0x80, 0x6d, 0x80, 0x80, 0x66,
  0x80, 0x80, 0x81, 0x80, 0x80, 0x80, 0x80, 0x80, 0x80, 0x80, 0x80, 0x80,
  0x80, 0x80, 0x81, 0x80, 0x80, 0x80, 0x80, 0x80, 0x94, 0x80, 0x80, 0x6d,
  0x80, 0x80, 0x5f, 0x80, 0x80, 0x80, 0x80, 0x80, 0x80, 0x80, 0x93, 0x80,
  0x80, 0x80, 0x80, 0x80, 0x80, 0x80, 0x80, 0x80, 0x80, 0x80, 0x80, 0x80,
  0x80, 0x80, 0x80, 0x80, 0x80, 0x80, 0x80, 0x80, 0x80, 0x80, 0x81, 0x80,
  0x80, 0x80, 0x80, 0x80, 0x80, 0x80, 0x80, 0x80, 0x80, 0x80, 0x80, 0x80,
  0x80, 0x80, 0x80, 0x80, 0x80, 0x80, 0x80, 0x80, 0x80, 0x80, 0x80, 0x80,
  0x80, 0x80, 0x80, 0x80, 0x80, 0x80, 0x80, 0x80, 0x80, 0x80, 0x80, 0x80,
  0x80, 0x80, 0x80, 0x80, 0x80, 0x80, 0x80, 0x80, 0x80, 0x80, 0x80, 0x80,
  0x80, 0x80, 0x80, 0x80, 0x80, 0x80, 0x80, 0x80, 0x80, 0x73, 0x80, 0x80,
  0x80, 0x80, 0x80, 0x73, 0x80, 0x80, 0x80, 0x80, 0x80, 0x80, 0x80, 0x80,
  0x80, 0x80, 0x80, 0x80, 0x80, 0x80, 0x80, 0x80, 0x80, 0x80, 0x80, 0x6f,
  0x80, 0x71, 0x80, 0x80, 0x80, 0x80, 0x80, 0x80, 0x80, 0x80, 0x80, 0x72,
  0x80, 0x80, 0x80, 0x80, 0x80, 0x80, 0x80, 0x72, 0x80, 0x80, 0x6f, 0x6d,
  0x80, 0x80, 0x80, 0x80, 0x80, 0x80, 0x80, 0x80, 0x80, 0x80, 0x80, 0x80,
  0x80, 0x80, 0x80, 0x80, 0x80, 0x80, 0x6f, 0x80, 0x80, 0x6c, 0x80, 0x80,
  0x80, 0x80, 0x70, 0x80, 0x80, 0x80, 0x80, 0x80, 0x80, 0x80, 0x80, 0x80,
  0x80, 0x80, 0x73, 0x80, 0x70, 0x80, 0x80, 0xa5, 0x80, 0x80, 0x80, 0x80,
  0x80, 0x80, 0x8f, 0x80, 0x80, 0x80, 0x8e, 0x80, 0x80, 0x80, 0x80, 0x80,
  0x96, 0x80, 0x80, 0x80, 0x80, 0x80, 0x80, 0x80, 0x80, 0x80, 0x80, 0x80,
  0x80, 0x80, 0x80, 0x80, 0x80, 0x80, 0x80, 0x80, 0x80, 0x80, 0x80, 0x80,
  0x80, 0x80, 0x80, 0x8e, 0x80, 0x80, 0x80, 0x80, 0x80, 0x80, 0x80, 0x71,
  0x80, 0x80, 0x80, 0x80, 0x80, 0x6f, 0x80, 0x80, 0x80, 0x80, 0x80, 0x80,
  0x80, 0x8d, 0x80, 0x80, 0x80, 0x80, 0x80, 0x80, 0x8f, 0x80, 0x80, 0x80,
  0x80, 0x92, 0x63, 0x70, 0x80, 0x80, 0x80, 0x80, 0x71, 0x80, 0x80, 0x80,
  0x80, 0x70, 0x80, 0x80, 0x70, 0x80, 0x70, 0x80, 0x94, 0x80, 0x80, 0x80,
  0x80, 0x80, 0x80, 0x80, 0x80, 0x80, 0x6a, 0x80, 0x6e, 0x73, 0x80, 0x80,
  0x80, 0x80, 0x98, 0x80, 0x80, 0x6d, 0x80, 0x80, 0x80, 0x70, 0x80, 0x80,
  0x90, 0x80, 0x80, 0x80, 0x95, 0x80, 0x6e, 0x80, 0x80, 0x80, 0x80, 0x6e,
  0x8e, 0x80, 0x8e, 0x80, 0x6f, 0x80, 0x80, 0x80, 0x80, 0x80, 0x72, 0x80,
  0x80, 0x70, 0x80, 0x80, 0x93, 0x8f, 0x6e, 0x94, 0x80, 0x80, 0x98, 0x80,
  0x80, 0x80, 0x90, 0x94, 0x80, 0x71, 0x6e, 0x80, 0x8e, 0x80, 0x80, 0x80,
  0x92, 0x80, 0x71, 0x80, 0x80, 0x80, 0x80, 0x80, 0x80, 0x80, 0x8e, 0x80,
  0x80, 0x80, 0x80, 0x80, 0x80, 0x80, 0x80, 0x80, 0x80, 0x80, 0x80, 0x80,
  0x80, 0x96, 0x80, 0x8d, 0x80, 0x80, 0x6d, 0x80, 0x80, 0x98, 0x80, 0x93,
  0x80, 0x80, 0x5f, 0x80, 0x80, 0x80, 0x80, 0x80, 0x68, 0x80, 0x80, 0x80,
  0x80, 0x71, 0x80, 0x80, 0x73, 0x80, 0x80, 0x80, 0x99, 0x80, 0x80, 0x80,
  0x80, 0x80, 0x80, 0x6f, 0x8d, 0x80, 0x80, 0x80, 0x80, 0x80, 0x80, 0x80,
  0x80, 0x6b, 0x80, 0x80, 0x80, 0x80, 0x80, 0x80, 0x80, 0x9e, 0x80, 0x80,
  0x80, 0x80, 0x80, 0x80, 0x80, 0x81, 0x80, 0x80, 0x80, 0x80, 0x80, 0x80,
  0x80, 0x80, 0x80, 0x69, 0x80, 0x80, 0x80, 0x5b, 0x80, 0x80, 0x80, 0x80,
  0x80, 0x80, 0x80, 0x80, 0x80, 0x80, 0x80, 0x95, 0xb3, 0x80, 0x80, 0x80,
  0x80, 0x80, 0x80, 0x80, 0x80, 0x80, 0x80, 0x9f, 0x9f, 0x80, 0x80, 0x66,
  0x9e, 0x81, 0x80, 0x80, 0x80, 0x80, 0x80, 0x80, 0x65, 0x9b, 0x80, 0x80,
  0x80, 0x80, 0x80, 0x80, 0x9e, 0x80, 0x80, 0x80, 0x9f, 0x80, 0x80, 0x9a,
  0x99, 0x80, 0x80, 0x80, 0x80, 0x80, 0x80, 0x80, 0x80, 0x80, 0x80, 0x80,
  0x80, 0x80, 0x80, 0x80, 0x80, 0x80, 0xa1, 0x80, 0x94, 0x81, 0x80, 0x80,
  0x80, 0x80, 0x80, 0x80, 0x63, 0x9b, 0x80, 0x80, 0x80, 0x80, 0x80, 0x80,
  0x80, 0x6b, 0x65, 0x80, 0xa8, 0x80, 0x80, 0x80, 0x80, 0x80, 0x80, 0x80,
  0x80, 0x80, 0x80, 0x80, 0x80, 0x80, 0x80, 0x80, 0x80, 0x80, 0x80, 0x80,
  0x80, 0x80, 0x80, 0x80, 0x80, 0x80, 0x95, 0x80, 0x80, 0x80, 0x80, 0x80,
  0x80, 0x80, 0x80, 0x80, 0x80, 0x80, 0x80, 0x80, 0x80, 0x80, 0x60, 0x80,
  0x80, 0x80, 0x80, 0xa3, 0x80, 0x80, 0x80, 0x9f, 0x80, 0x80, 0x80, 0x80,
  0x80, 0x60, 0x80, 0x80, 0x69, 0x80, 0x80, 0xa5, 0x80, 0x80, 0x80, 0x80,
  0xc8, 0x80, 0xad, 0x80, 0x80, 0x80, 0x80, 0x69, 0x80, 0x80, 0xa3, 0x80,
  0x80, 0x6b, 0x80, 0x80, 0x80, 0x80, 0x80, 0x80, 0x80, 0x80, 0x95, 0x80,
  0x80, 0x80, 0x9d, 0x99, 0x80, 0x80, 0x80, 0x80, 0x80, 0x80, 0x80, 0x80,
  0x80, 0x80, 0x80, 0x80, 0x80, 0x80, 0x9b, 0x80, 0x9e, 0x80, 0x80, 0x80,
