unsigned char acdnet_model[] = {
  0x18, 0x00, 0x00, 0x00, 0x54, 0x46, 0x4c, 0x33, 0x00, 0x00, 0x0e, 0x00,
  0x18, 0x00, 0x0c, 0x00, 0x08, 0x00, 0x04, 0x00, 0x10, 0x00, 0x14, 0x00,
  0x0e, 0x00, 0x00, 0x00, 0x38, 0x00, 0x00, 0x00, 0x3c, 0x00, 0x00, 0x00,
  0x03, 0x00, 0x00, 0x00, 0x08, 0x00, 0x00, 0x00, 0x98, 0x00, 0x00, 0x00,
  0x1c, 0x00, 0x00, 0x00, 0x54, 0x69, 0x6e, 0x79, 0x4e, 0x65, 0x75, 0x72,
  0x61, 0x6c, 0x4e, 0x65, 0x74, 0x77, 0x6f, 0x72, 0x6b, 0x20, 0x43, 0x6f,
  0x6e, 0x76, 0x65, 0x72, 0x74, 0x65, 0x64, 0x2e, 0x00, 0x00, 0x00, 0x00,
  0x01, 0x00, 0x00, 0x00, 0xf4, 0x00, 0x00, 0x00, 0x19, 0x00, 0x00, 0x00,
  0x20, 0x54, 0x00, 0x00, 0x04, 0x54, 0x00, 0x00, 0xf4, 0x53, 0x00, 0x00,
  0xe4, 0x53, 0x00, 0x00, 0xd4, 0x53, 0x00, 0x00, 0xc4, 0x53, 0x00, 0x00,
  0xb4, 0x53, 0x00, 0x00, 0xa4, 0x53, 0x00, 0x00, 0x94, 0x53, 0x00, 0x00,
  0x84, 0x53, 0x00, 0x00, 0x74, 0x53, 0x00, 0x00, 0x64, 0x53, 0x00, 0x00,
  0x54, 0x53, 0x00, 0x00, 0x44, 0x53, 0x00, 0x00, 0x34, 0x53, 0x00, 0x00,
  0x24, 0x53, 0x00, 0x00, 0x14, 0x53, 0x00, 0x00, 0x04, 0x53, 0x00, 0x00,
  0xf4, 0x52, 0x00, 0x00, 0xe4, 0x52, 0x00, 0x00, 0xd4, 0x52, 0x00, 0x00,
  0xc4, 0x52, 0x00, 0x00, 0xb4, 0x52, 0x00, 0x00, 0xa4, 0x52, 0x00, 0x00,
  0x94, 0x52, 0x00, 0x00, 0x1d, 0x00, 0x00, 0x00, 0x88, 0x52, 0x00, 0x00,
  0x38, 0x52, 0x00, 0x00, 0xa8, 0x51, 0x00, 0x00, 0x80, 0x51, 0x00, 0x00,
  0x78, 0x48, 0x00, 0x00, 0x4c, 0x48, 0x00, 0x00, 0xf8, 0x47, 0x00, 0x00,
  0xc0, 0x47, 0x00, 0x00, 0x8c, 0x47, 0x00, 0x00, 0x38, 0x47, 0x00, 0x00,
  0xfc, 0x3c, 0x00, 0x00, 0xe4, 0x3c, 0x00, 0x00, 0xbc, 0x3c, 0x00, 0x00,
  0x68, 0x3c, 0x00, 0x00, 0xf8, 0x37, 0x00, 0x00, 0xa8, 0x37, 0x00, 0x00,
  0x50, 0x37, 0x00, 0x00, 0xe4, 0x36, 0x00, 0x00, 0xa4, 0x36, 0x00, 0x00,
  0x84, 0x36, 0x00, 0x00, 0x34, 0x36, 0x00, 0x00, 0x64, 0x2f, 0x00, 0x00,
  0xc4, 0x25, 0x00, 0x00, 0x6c, 0x25, 0x00, 0x00, 0x98, 0x1a, 0x00, 0x00,
  0x68, 0x10, 0x00, 0x00, 0x5c, 0x0a, 0x00, 0x00, 0xdc, 0x01, 0x00, 0x00,
  0x90, 0x01, 0x00, 0x00, 0x00, 0x00, 0x0e, 0x00, 0x18, 0x00, 0x08, 0x00,
  0x14, 0x00, 0x10, 0x00, 0x04, 0x00, 0x0c, 0x00, 0x0e, 0x00, 0x00, 0x00,
  0x00, 0x01, 0x00, 0x00, 0x20, 0x00, 0x00, 0x00, 0x0c, 0x00, 0x00, 0x00,
  0x5c, 0x01, 0x00, 0x00, 0x60, 0x01, 0x00, 0x00, 0x0a, 0x00, 0x00, 0x00,
  0x6d, 0x61, 0x69, 0x6e, 0x5f, 0x67, 0x72, 0x61, 0x70, 0x68, 0x00, 0x00,
  0x36, 0x00, 0x00, 0x00, 0xf0, 0x6b, 0x00, 0x00, 0x7c, 0x6b, 0x00, 0x00,
  0x10, 0x6b, 0x00, 0x00, 0xbc, 0x6a, 0x00, 0x00, 0x54, 0x6a, 0x00, 0x00,
  0xe8, 0x69, 0x00, 0x00, 0x80, 0x69, 0x00, 0x00, 0x18, 0x69, 0x00, 0x00,
  0xb4, 0x68, 0x00, 0x00, 0x50, 0x68, 0x00, 0x00, 0x04, 0x68, 0x00, 0x00,
  0xac, 0x67, 0x00, 0x00, 0x50, 0x67, 0x00, 0x00, 0xf4, 0x66, 0x00, 0x00,
  0x98, 0x66, 0x00, 0x00, 0x3c, 0x66, 0x00, 0x00, 0xdc, 0x65, 0x00, 0x00,
  0xb0, 0x65, 0x00, 0x00, 0x40, 0x65, 0x00, 0x00, 0x0c, 0x65, 0x00, 0x00,
  0xa8, 0x64, 0x00, 0x00, 0x40, 0x64, 0x00, 0x00, 0xe8, 0x63, 0x00, 0x00,
  0x84, 0x63, 0x00, 0x00, 0x1c, 0x63, 0x00, 0x00, 0xb0, 0x62, 0x00, 0x00,
  0x44, 0x62, 0x00, 0x00, 0xec, 0x61, 0x00, 0x00, 0xc8, 0x61, 0x00, 0x00,
  0x6c, 0x61, 0x00, 0x00, 0x0c, 0x61, 0x00, 0x00, 0xa8, 0x60, 0x00, 0x00,
  0x44, 0x60, 0x00, 0x00, 0xe4, 0x5f, 0x00, 0x00, 0x88, 0x5f, 0x00, 0x00,
  0x58, 0x5f, 0x00, 0x00, 0xf4, 0x5e, 0x00, 0x00, 0x88, 0x5e, 0x00, 0x00,
  0x24, 0x5e, 0x00, 0x00, 0xf4, 0x5d, 0x00, 0x00, 0xa4, 0x5d, 0x00, 0x00,
  0x4c, 0x5d, 0x00, 0x00, 0xe8, 0x5c, 0x00, 0x00, 0x80, 0x5c, 0x00, 0x00,
  0x18, 0x5c, 0x00, 0x00, 0xb0, 0x5b, 0x00, 0x00, 0x48, 0x5b, 0x00, 0x00,
  0xe4, 0x5a, 0x00, 0x00, 0x80, 0x5a, 0x00, 0x00, 0x1c, 0x5a, 0x00, 0x00,
  0xb4, 0x59, 0x00, 0x00, 0x4c, 0x59, 0x00, 0x00, 0xe4, 0x58, 0x00, 0x00,
  0x8c, 0x58, 0x00, 0x00, 0x19, 0x00, 0x00, 0x00, 0x58, 0x58, 0x00, 0x00,
  0xf8, 0x57, 0x00, 0x00, 0xa4, 0x57, 0x00, 0x00, 0x50, 0x57, 0x00, 0x00,
  0x1c, 0x57, 0x00, 0x00, 0xcc, 0x56, 0x00, 0x00, 0x88, 0x56, 0x00, 0x00,
  0x44, 0x56, 0x00, 0x00, 0x00, 0x56, 0x00, 0x00, 0xbc, 0x55, 0x00, 0x00,
  0x78, 0x55, 0x00, 0x00, 0x34, 0x55, 0x00, 0x00, 0xf0, 0x54, 0x00, 0x00,
  0xac, 0x54, 0x00, 0x00, 0x68, 0x54, 0x00, 0x00, 0x24, 0x54, 0x00, 0x00,
  0xe0, 0x53, 0x00, 0x00, 0x9c, 0x53, 0x00, 0x00, 0x58, 0x53, 0x00, 0x00,
  0x04, 0x53, 0x00, 0x00, 0xc0, 0x52, 0x00, 0x00, 0x74, 0x52, 0x00, 0x00,
  0x3c, 0x52, 0x00, 0x00, 0x0c, 0x52, 0x00, 0x00, 0xd8, 0x51, 0x00, 0x00,
  0x01, 0x00, 0x00, 0x00, 0x1c, 0x00, 0x00, 0x00, 0x01, 0x00, 0x00, 0x00,
  0x11, 0x00, 0x00, 0x00, 0x7e, 0xad, 0xff, 0xff, 0x04, 0x00, 0x00, 0x00,
  0x3c, 0x00, 0x00, 0x00, 0xf1, 0xff, 0xff, 0xff, 0x6d, 0xf9, 0xff, 0xff,
  0x36, 0xfd, 0xff, 0xff, 0x66, 0xfc, 0xff, 0xff, 0x42, 0xfa, 0xff, 0xff,
  0x50, 0x00, 0x00, 0x00, 0xc9, 0xfa, 0xff, 0xff, 0x32, 0xfc, 0xff, 0xff,
  0x96, 0xfc, 0xff, 0xff, 0x8e, 0xfa, 0xff, 0xff, 0xfe, 0xfc, 0xff, 0xff,
  0x36, 0xfa, 0xff, 0xff, 0xd8, 0xf8, 0xff, 0xff, 0x17, 0xfd, 0xff, 0xff,
  0x12, 0xfc, 0xff, 0xff, 0xc6, 0xad, 0xff, 0xff, 0x04, 0x00, 0x00, 0x00,
  0x70, 0x08, 0x00, 0x00, 0x80, 0x80, 0x80, 0x80, 0x80, 0x80, 0x80, 0x80,
  0x71, 0x75, 0x80, 0x80, 0x80, 0x80, 0x80, 0x80, 0x80, 0x76, 0x8b, 0x80,
  0x80, 0x80, 0x80, 0x80, 0x80, 0x74, 0x80, 0x80, 0x80, 0x80, 0x80, 0x80,
  0x8a, 0x91, 0x80, 0x80, 0x80, 0x80, 0x80, 0x80, 0x73, 0x80, 0x80, 0x80,
  0x80, 0x80, 0x80, 0x80, 0x80, 0x80, 0x80, 0x80, 0x80, 0x74, 0x66, 0x80,
  0x80, 0x68, 0x80, 0x80, 0x89, 0x80, 0x80, 0xa2, 0x80, 0x80, 0x80, 0x80,
  0x97, 0x8e, 0x80, 0x74, 0x77, 0x80, 0x80, 0x96, 0x80, 0x80, 0x9b, 0x80,
  0x80, 0x76, 0x80, 0x94, 0x9c, 0x80, 0x74, 0x92, 0x80, 0x80, 0x80, 0x80,
  0x80, 0x80, 0x80, 0x80, 0x80, 0x80, 0x73, 0x80, 0x80, 0x74, 0x80, 0x80,
  0x80, 0x80, 0x80, 0x80, 0x70, 0x80, 0x80, 0x80, 0x80, 0x80, 0x80, 0x80,
  0x76, 0x80, 0x80, 0x80, 0x80, 0x80, 0x80, 0x80, 0x80, 0x80, 0x8b, 0x80,
  0x93, 0x8d, 0x80, 0x80, 0x80, 0x80, 0x80, 0x90, 0x71, 0x80, 0x97, 0x80,
  0x80, 0x95, 0x80, 0x80, 0x8f, 0x80, 0x8d, 0x80, 0x80, 0x80, 0x80, 0x73,
  0x80, 0x80, 0x80, 0x80, 0x80, 0x80, 0x80, 0x80, 0x80, 0x80, 0x6a, 0x80,
  0x80, 0x80, 0x80, 0x80, 0x6d, 0x80, 0x80, 0x68, 0x80, 0x80, 0x80, 0x80,
  0x80, 0x65, 0x80, 0x80, 0x8f, 0x80, 0x69, 0x8e, 0x70, 0x80, 0xb5, 0x80,
  0x8d, 0x80, 0x91, 0xaa, 0xb1, 0x80, 0x80, 0x80, 0x80, 0x80, 0x98, 0x80,
  0x80, 0x80, 0x80, 0x80, 0x6b, 0x80, 0x8e, 0x9e, 0x80, 0x80, 0x68, 0x91,
  0x80, 0x8d, 0x80, 0x80, 0x6d, 0x80, 0x80, 0x80, 0x80, 0x5b, 0x6d, 0x80,
  0x80, 0x80, 0xa0, 0x80, 0x80, 0x80, 0x71, 0x70, 0x80, 0x80, 0x80, 0x80,
  0x9a, 0x95, 0x80, 0x80, 0x80, 0x9b, 0x80, 0x80, 0x80, 0x80, 0x80, 0x80,
  0x80, 0x72, 0x80, 0x80, 0x90, 0x80, 0x80, 0x80, 0x80, 0x80, 0x80, 0x80,
  0x80, 0x80, 0x80, 0x80, 0x80, 0x80, 0x6f, 0x80, 0x80, 0x80, 0x96, 0x80,
  0xab, 0x9a, 0x80, 0x80, 0x80, 0x8b, 0x80, 0x8e, 0x80, 0x8f, 0x80, 0x80,
  0x80, 0x8c, 0x92, 0x94, 0x8f, 0x80, 0x80, 0x6a, 0x80, 0x80, 0x8b, 0x80,
  0x91, 0x80, 0x80, 0x80, 0x74, 0x74, 0x80, 0x80, 0x80, 0x80, 0x71, 0x64,
  0x80, 0x80, 0x80, 0x80, 0x80, 0x80, 0x80, 0x80, 0x80, 0x80, 0x80, 0x76,
  0x80, 0x80, 0x80, 0x73, 0x80, 0x80, 0x80, 0x80, 0x80, 0x80, 0x80, 0x80,
  0x8e, 0x80, 0x6e, 0x80, 0x80, 0x80, 0x72, 0x80, 0x80, 0x80, 0x80, 0x80,
  0x80, 0x80, 0x80, 0x80, 0x8a, 0x73, 0x80, 0x8a, 0x80, 0x80, 0x80, 0x80,
  0x80, 0x8a, 0x80, 0x80, 0x80, 0x80, 0x80, 0x80, 0x8f, 0x80, 0x80, 0x80,
  0x64, 0x80, 0x80, 0x80, 0x80, 0x80, 0x80, 0x80, 0x80, 0x8a, 0x80, 0x80,
  0x76, 0x80, 0x76, 0x75, 0x6c, 0x80, 0x80, 0x80, 0x80, 0x80, 0x80, 0x80,
  0x75, 0x80, 0x80, 0x80, 0x80, 0x80, 0x8b, 0x75, 0x80, 0x80, 0x80, 0x80,
  0x80, 0x80, 0xa0, 0x80, 0x80, 0xbb, 0x7f, 0x99, 0x80, 0x80, 0x6a, 0x95,
  0x61, 0x80, 0x80, 0x80, 0x80, 0x94, 0x80, 0x94, 0x97, 0x80, 0x80, 0x80,
  0x80, 0x80, 0x80, 0x6a, 0xa4, 0x80, 0x80, 0x61, 0x80, 0x80, 0x80, 0x65,
  0x80, 0x80, 0x80, 0x80, 0x80, 0x80, 0x80, 0x6a, 0x80, 0x80, 0x80, 0x93,
  0x80, 0x80, 0x80, 0x80, 0x67, 0x80, 0xa4, 0x80, 0x62, 0x80, 0x80, 0x80,
  0x80, 0x80, 0x80, 0x80, 0x80, 0x80, 0x80, 0x68, 0x80, 0x80, 0x80, 0x80,
  0x80, 0x80, 0x80, 0x80, 0x80, 0x80, 0x97, 0x80, 0x6b, 0x80, 0x80, 0x80,
  0x80, 0x80, 0x80, 0x80, 0x80, 0x80, 0x80, 0x9a, 0x80, 0x80, 0xa4, 0x80,
  0x80, 0x9d, 0x80, 0xaf, 0xa7, 0x80, 0x80, 0x80, 0x80, 0x80, 0x94, 0x80,
  0xa1, 0x80, 0x80, 0x80, 0x9b, 0x80, 0x80, 0xad, 0x80, 0x80, 0x80, 0x80,
  0x80, 0x80, 0x80, 0x80, 0x80, 0x80, 0x80, 0x80, 0x80, 0x80, 0x80, 0x80,
  0x96, 0x80, 0x80, 0x80, 0x81, 0x81, 0x7f, 0x7f, 0x80, 0x80, 0x81, 0x81,
  0x7d, 0x80, 0xaf, 0x80, 0xa2, 0x80, 0x80, 0x80, 0x81, 0x7f, 0x7f, 0x80,
  0x80, 0xb5, 0x80, 0x7d, 0x80, 0xbd, 0xa9, 0x80, 0x80, 0x80, 0x62, 0x81,
  0x7f, 0x7f, 0x7f, 0x80, 0xa5, 0x7f, 0x7d, 0x7f, 0xb4, 0xc0, 0xad, 0x80,
  0x80, 0x81, 0xb0, 0x7f, 0x7f, 0x7f, 0x81, 0x81, 0x81, 0x7f, 0x80, 0xac,
  0xcb, 0x80, 0x80, 0x7f, 0x80, 0xa7, 0x7f, 0x7f, 0x80, 0x81, 0x81, 0xa5,
  0x7f, 0x80, 0x81, 0xbf, 0x7f, 0x7f, 0x7f, 0x80, 0x81, 0x62, 0x7f, 0x80,
  0x82, 0x81, 0x80, 0x7f, 0x80, 0xa0, 0xd5, 0x7f, 0x7f, 0x7f, 0x80, 0xbb,
  0x80, 0x7f, 0x80, 0x81, 0xa2, 0x80, 0x80, 0x80, 0x81, 0x81, 0x80, 0x80,
  0x7f, 0x80, 0xb8, 0x80, 0x7f, 0xa8, 0x81, 0x9f, 0x80, 0x80, 0x80, 0x81,
  0x81, 0x80, 0x80, 0x7f, 0x80, 0xc2, 0x7f, 0x7f, 0x80, 0x81, 0x9e, 0x80,
  0x80, 0x80, 0x80, 0x81, 0x80, 0x80, 0x7f, 0x80, 0x80, 0x80, 0x80, 0x80,
  0x80, 0x6d, 0x80, 0x80, 0x80, 0x80, 0x80, 0x80, 0x80, 0x80, 0x80, 0x68,
  0x80, 0x93, 0x5b, 0x6c, 0x80, 0x80, 0x80, 0x80, 0x80, 0x80, 0x80, 0x80,
  0x80, 0x80, 0x80, 0x80, 0x6b, 0x80, 0x80, 0x71, 0x80, 0x80, 0x80, 0x80,
  0x80, 0x80, 0x90, 0x80, 0x9f, 0x98, 0x80, 0x8f, 0x80, 0x80, 0x6f, 0x80,
  0x80, 0x80, 0x80, 0x80, 0x71, 0x91, 0x80, 0x80, 0x95, 0x69, 0xa0, 0x80,
  0x80, 0xae, 0x80, 0x80, 0x80, 0x80, 0x9c, 0x80, 0x80, 0x80, 0x80, 0x80,
  0x80, 0x69, 0x80, 0x80, 0x80, 0x80, 0x80, 0x80, 0x80, 0x65, 0x80, 0x92,
  0x80, 0x7f, 0x80, 0x80, 0x80, 0x80, 0x80, 0x80, 0x80, 0x80, 0x80, 0x80,
  0x80, 0x80, 0x80, 0x80, 0x80, 0xb6, 0x70, 0x91, 0x98, 0x80, 0xa8, 0x80,
  0x80, 0x6a, 0x80, 0x80, 0x92, 0x80, 0x80, 0x80, 0x80, 0x80, 0x6e, 0x80,
  0x80, 0x80, 0x80, 0x80, 0x80, 0x80, 0x67, 0x80, 0x80, 0x80, 0x80, 0x80,
  0x80, 0x80, 0x80, 0x80, 0x94, 0x80, 0x80, 0x6d, 0x80, 0x80, 0x9d, 0x80,
  0x80, 0x80, 0x80, 0x80, 0x80, 0x80, 0x80, 0x96, 0x80, 0x80, 0x63, 0x80,
  0x80, 0x9c, 0x80, 0x80, 0x80, 0x80, 0x80, 0xa5, 0x80, 0x80, 0x80, 0x80,
  0x80, 0x65, 0x80, 0x80, 0xaa, 0x80, 0x80, 0x65, 0x80, 0x92, 0xa1, 0x80,
  0x80, 0x80, 0x80, 0x80, 0x80, 0x80, 0x80, 0x9b, 0x80, 0x80, 0x64, 0x91,
  0x94, 0x9c, 0x80, 0x80, 0x80, 0x80, 0x80, 0x80, 0x80, 0x80, 0x9b, 0x80,
  0x80, 0x6e, 0x96, 0x80, 0x9d, 0x80, 0x80, 0x80, 0x6c, 0x80, 0x80, 0x80,
  0x99, 0xb0, 0x80, 0x91, 0x80, 0x80, 0x80, 0x80, 0x80, 0x80, 0x80, 0x80,
  0x80, 0x80, 0x80, 0x80, 0x80, 0x80, 0x80, 0x80, 0x80, 0x80, 0x80, 0x80,
  0x80, 0x80, 0x80, 0x80, 0x80, 0x80, 0x80, 0x80, 0x80, 0x80, 0x80, 0x80,
  0x80, 0x80, 0x80, 0x80, 0x80, 0x80, 0x80, 0x80, 0x80, 0x80, 0x80, 0x80,
  0x80, 0x80, 0x80, 0x80, 0x80, 0x80, 0x80, 0x6a, 0x80, 0x80, 0x80, 0x80,
  0x80, 0x71, 0x80, 0x80, 0x80, 0x80, 0x80, 0x80, 0x80, 0x80, 0x6d, 0x80,
  0x80, 0x80, 0x80, 0x80, 0x80, 0x80, 0x80, 0x80, 0x80, 0x80, 0x80, 0x80,
  0x80, 0x70, 0x80, 0x80, 0x80, 0x80, 0x80, 0x80, 0x80, 0x80, 0x80, 0x80,
  0x80, 0x64, 0x80, 0x80, 0x68, 0x80, 0x80, 0x80, 0x80, 0x6f, 0x63, 0x80,
  0x80, 0xa3, 0x70, 0x80, 0x92, 0x80, 0x80, 0x9f, 0x80, 0x80, 0x72, 0x80,
  0x80, 0x80, 0x80, 0x80, 0x80, 0x6f, 0x71, 0x80, 0x71, 0x80, 0xa6, 0x80,
  0x80, 0x80, 0x80, 0x80, 0x80, 0x80, 0x6f, 0x80, 0x80, 0x80, 0x6f, 0x80,
  0x80, 0x66, 0x93, 0x80, 0x80, 0x80, 0x67, 0x60, 0x80, 0x80, 0x92, 0x80,
  0x6c, 0x8f, 0x92, 0x80, 0x80, 0x80, 0x91, 0x80, 0x6d, 0x80, 0x80, 0x80,
  0x80, 0x80, 0x80, 0x69, 0x80, 0x80, 0x80, 0x80, 0x80, 0x80, 0x80, 0x80,
  0x80, 0x80, 0x80, 0x80, 0x80, 0x80, 0x80, 0x80, 0x80, 0x80, 0x80, 0x80,
  0x80, 0x80, 0x71, 0x73, 0x80, 0x80, 0x80, 0x80, 0x80, 0x80, 0x80, 0x80,
  0x80, 0x73, 0x80, 0x80, 0x92, 0x6f, 0x80, 0x80, 0x80, 0x80, 0x80, 0x80,
  0x80, 0x92, 0x80, 0x80, 0x80, 0x80, 0x80, 0x80, 0x80, 0x80, 0x80, 0x80,
  0x80, 0x94, 0x80, 0x80, 0x80, 0x80, 0x80, 0x80, 0x80, 0x73, 0x80, 0x72,
  0x80, 0x80, 0x8d, 0x91, 0xa5, 0x93, 0x97, 0x92, 0x80, 0x80, 0x80, 0x80,
  0x6d, 0x80, 0x70, 0x80, 0x94, 0x8e, 0xad, 0x80, 0x80, 0x80, 0x80, 0x80,
  0x80, 0x80, 0x80, 0x71, 0x80, 0x80, 0x80, 0x90, 0x80, 0x94, 0x92, 0x9c,
  0x80, 0x80, 0x80, 0x80, 0x80, 0x80, 0x80, 0x80, 0x80, 0x80, 0x80, 0x80,
  0x80, 0x80, 0x9f, 0x80, 0x6f, 0x80, 0x80, 0x80, 0x80, 0x80, 0x65, 0x80,
  0x80, 0x80, 0x80, 0x90, 0x80, 0x95, 0x80, 0x70, 0x80, 0x80, 0x80, 0x80,
  0x80, 0x6c, 0x80, 0x71, 0x80, 0x80, 0x80, 0xb1, 0x63, 0x80, 0x80, 0x80,
  0x80, 0xa1, 0x80, 0x62, 0x80, 0x5b, 0x9b, 0x80, 0x5c, 0x80, 0x80, 0x80,
  0x80, 0x9c, 0x5f, 0x80, 0x9d, 0x80, 0x80, 0x80, 0x61, 0x67, 0x80, 0x57,
  0x80, 0x80, 0x80, 0x80, 0xb6, 0x80, 0x80, 0x80, 0x80, 0x80, 0xad, 0x80,
  0x5d, 0x80, 0x66, 0x80, 0x80, 0x80, 0x80, 0x80, 0x80, 0x80, 0x80, 0x80,
  0x49, 0x80, 0x80, 0x80, 0x80, 0x80, 0x80, 0x80, 0xb3, 0x80, 0x5e, 0x80,
  0xa2, 0x80, 0x4e, 0x66, 0x5f, 0x9e, 0x80, 0x80, 0x80, 0x80, 0x80, 0xa4,
  0x80, 0x66, 0x80, 0x80, 0x80, 0x80, 0x80, 0x60, 0x80, 0x80, 0x80, 0x80,
  0x80, 0x80, 0x59, 0x80, 0x80, 0x80, 0x80, 0x80, 0x80, 0x80, 0x80, 0x99,
  0x80, 0x80, 0x80, 0x80, 0x80, 0x80, 0xa7, 0x5e, 0x80, 0x80, 0x80, 0x80,
  0x80, 0x80, 0x80, 0x80, 0x80, 0x80, 0x80, 0x80, 0x80, 0x80, 0x80, 0x80,
  0x5d, 0x80, 0x80, 0x80, 0x80, 0x80, 0x80, 0x80, 0x80, 0x80, 0x80, 0x80,
  0x80, 0x80, 0x80, 0x80, 0x80, 0x80, 0x77, 0x80, 0x80, 0x80, 0x80, 0x80,
  0x80, 0x80, 0x80, 0x80, 0x80, 0x80, 0x80, 0x80, 0x80, 0x80, 0x80, 0x80,
  0x80, 0x80, 0x80, 0x80, 0x80, 0x92, 0x80, 0x80, 0x80, 0x80, 0x80, 0x80,
  0x80, 0x80, 0x80, 0x80, 0x80, 0x80, 0x80, 0x8c, 0x80, 0xa6, 0x91, 0x80,
  0x80, 0x89, 0x80, 0x77, 0x8c, 0x75, 0x80, 0x77, 0x80, 0x8b, 0x88, 0x80,
  0x99, 0x8c, 0x80, 0x80, 0x80, 0x80, 0x80, 0x80, 0x80, 0x80, 0x77, 0x80,
  0x80, 0x71, 0x74, 0x6c, 0x80, 0x80, 0x78, 0x80, 0x80, 0x80, 0x80, 0x80,
  0x80, 0x80, 0x80, 0x74, 0x80, 0x80, 0x80, 0x80, 0x80, 0x80, 0x93, 0x80,
  0x78, 0x80, 0x80, 0x80, 0x80, 0x80, 0x80, 0x80, 0x80, 0x80, 0x78, 0x80,
  0x80, 0x80, 0x80, 0x80, 0x78, 0x80, 0x80, 0x80, 0x80, 0x76, 0x80, 0x80,
  0x80, 0x80, 0x80, 0x77, 0x80, 0x80, 0x80, 0x80, 0x80, 0x80, 0x80, 0x80,
  0x76, 0x7f, 0x80, 0x7f, 0x7f, 0x7f, 0x7e, 0x7f, 0x7f, 0x7f, 0x7f, 0x7f,
  0x7f, 0x80, 0x42, 0x7f, 0x7f, 0x80, 0x7f, 0x7f, 0x7f, 0x7e, 0x7f, 0x7f,
  0x7f, 0x7f, 0x7f, 0x7f, 0x80, 0x80, 0x7f, 0x7f, 0x80, 0x7f, 0x80, 0x7f,
  0xb2, 0x7f, 0x7f, 0x80, 0x7f, 0x7f, 0x7f, 0x80, 0x80, 0x7f, 0x81, 0x81,
  0x83, 0x81, 0x7f, 0x7f, 0x7f, 0xb1, 0xd2, 0x82, 0xb5, 0x81, 0x80, 0x27,
  0x7f, 0x80, 0x47, 0x82, 0x80, 0x80, 0x46, 0x4c, 0x80, 0xc3, 0x82, 0xff,
  0x50, 0x80, 0xea, 0x7f, 0x81, 0x80, 0x82, 0x80, 0x49, 0x7f, 0x7f, 0x80,
  0x87, 0x81, 0xe9, 0x33, 0x7f, 0xe3, 0x7f, 0x81, 0x81, 0x82, 0x51, 0xc7,
  0x81, 0x81, 0xaf, 0x80, 0x82, 0x4f, 0x80, 0x83, 0x48, 0x82, 0x81, 0x80,
  0x82, 0x82, 0x81, 0x81, 0x80, 0x80, 0x80, 0x82, 0xb5, 0x80, 0x83, 0x80,
  0x83, 0x81, 0x49, 0x82, 0x83, 0x4e, 0x80, 0x80, 0x80, 0x80, 0x82, 0x80,
  0x80, 0x82, 0x80, 0x83, 0x69, 0x80, 0xaf, 0x81, 0x80, 0x7f, 0x80, 0x80,
  0x80, 0x80, 0x80, 0x80, 0x5f, 0x80, 0x80, 0x80, 0x80, 0x80, 0x80, 0x80,
  0x7f, 0x65, 0x80, 0x80, 0x80, 0x80, 0x80, 0x80, 0x80, 0x80, 0x80, 0x61,
  0x80, 0x81, 0x80, 0x7f, 0x80, 0x80, 0x80, 0x80, 0x80, 0x80, 0x80, 0x80,
  0x80, 0x57, 0x66, 0x81, 0x81, 0x5d, 0x7e, 0x80, 0x80, 0x80, 0x67, 0x5f,
  0x7f, 0x80, 0xa5, 0x81, 0x58, 0x80, 0x81, 0xa1, 0x80, 0x7e, 0x7f, 0x9a,
  0x80, 0x80, 0x7f, 0x7f, 0x80, 0x80, 0x81, 0x62, 0x80, 0x81, 0xb3, 0x80,
  0x7f, 0x80, 0x80, 0x81, 0xa0, 0x80, 0xa0, 0x80, 0x62, 0xab, 0x80, 0x80,
  0x69, 0x81, 0x80, 0x80, 0x80, 0x80, 0x80, 0x5c, 0x80, 0x59, 0x80, 0x80,
  0x81, 0x80, 0x80, 0x80, 0x81, 0x80, 0x80, 0x80, 0x80, 0x80, 0x80, 0x80,
  0x60, 0x80, 0x80, 0x81, 0x80, 0x80, 0x80, 0x99, 0x80, 0x80, 0x80, 0x80,
  0x80, 0x80, 0x80, 0x80, 0x80, 0x80, 0x81, 0x80, 0x80, 0x9f, 0x80, 0x81,
  0x82, 0x80, 0x80, 0x7e, 0x80, 0x80, 0x58, 0x61, 0x80, 0x80, 0x80, 0x80,
  0x81, 0x80, 0x81, 0x82, 0x80, 0xa9, 0x7d, 0x80, 0x80, 0x5a, 0x80, 0x80,
  0xad, 0x80, 0x80, 0x81, 0x80, 0x81, 0x82, 0x58, 0x80, 0x7d, 0x80, 0x80,
  0x7f, 0x65, 0x80, 0x80, 0x62, 0x80, 0x54, 0x80, 0x80, 0x9b, 0x61, 0x80,
  0x7f, 0x80, 0x80, 0x7f, 0x7f, 0x80, 0x80, 0x81, 0x80, 0x62, 0xa3, 0x80,
  0x80, 0x80, 0x80, 0x7f, 0x9a, 0x80, 0x80, 0x7f, 0x80, 0x80, 0x81, 0x80,
  0x80, 0xa1, 0x80, 0x80, 0x80, 0x80, 0x7f, 0xa8, 0x80, 0x80, 0x7f, 0x80,
  0x80, 0x7f, 0x80, 0x80, 0x9c, 0x5e, 0x80, 0x7f, 0x7f, 0xa7, 0x5e, 0x80,
  0x80, 0x7f, 0x80, 0x80, 0x7f, 0x80, 0x7f, 0x7f, 0x52, 0x80, 0x7f, 0x7f,
  0x9f, 0x64, 0x61, 0xa7, 0x7f, 0x80, 0x7f, 0x80, 0x80, 0x7f, 0x7f, 0x5f,
  0x80, 0x9c, 0x80, 0x80, 0x7f, 0x80, 0xb2, 0x7f, 0x80, 0x7f, 0x80, 0x80,
  0x80, 0x70, 0x80, 0x6d, 0x80, 0x80, 0x80, 0x80, 0x91, 0x80, 0x80, 0x80,
  0x65, 0x80, 0x6e, 0x80, 0x6c, 0xa8, 0x6a, 0x80, 0x98, 0x7f, 0x5f, 0x93,
  0x80, 0x80, 0x94, 0x80, 0x80, 0x6f, 0x6e, 0x80, 0x80, 0x80, 0x80, 0x80,
  0x7f, 0x80, 0x80, 0x80, 0x80, 0x80, 0x80, 0x80, 0x6f, 0x80, 0x7f, 0x80,
  0x80, 0x80, 0x80, 0x7f, 0x80, 0x80, 0x80, 0x80, 0x80, 0x80, 0x80, 0x59,
  0x80, 0x7f, 0x70, 0x80, 0x80, 0x80, 0x92, 0x80, 0x6c, 0x93, 0x80, 0x80,
  0x6b, 0x80, 0x80, 0x80, 0x7f, 0x80, 0x80, 0x80, 0x80, 0x7f, 0x80, 0x80,
  0x80, 0x80, 0x80, 0x70, 0x80, 0x80, 0x63, 0x80, 0x80, 0x81, 0x80, 0x80,
  0x80, 0x80, 0x80, 0x80, 0x80, 0x80, 0x80, 0x92, 0x80, 0x61, 0x80, 0x80,
  0x9c, 0xa2, 0x80, 0x97, 0x80, 0x80, 0x80, 0x80, 0x80, 0x80, 0x80, 0x80,
  0x70, 0x80, 0x80, 0x99, 0x80, 0x80, 0x80, 0x80, 0x80, 0x80, 0x80, 0x80,
  0x80, 0x80, 0x80, 0x80, 0x80, 0x80, 0x80, 0x80, 0x80, 0x80, 0x80, 0x80,
  0x80, 0x80, 0x80, 0x80, 0x80, 0x80, 0x80, 0x80, 0x80, 0x80, 0x80, 0x80,
  0x80, 0x80, 0x80, 0x8d, 0x80, 0x80, 0x80, 0x80, 0x80, 0x80, 0x80, 0x80,
  0x80, 0x80, 0x80, 0x76, 0x80, 0x80, 0x80, 0x80, 0x80, 0x80, 0x80, 0x80,
  0x80, 0x97, 0x80, 0x80, 0x80, 0x80, 0x80, 0xac, 0x80, 0x80, 0x96, 0x80,
  0x98, 0x80, 0x80, 0x76, 0x8e, 0x80, 0x80, 0x80, 0x80, 0x80, 0x8c, 0x80,
  0x8e, 0x8a, 0x80, 0x96, 0x63, 0x80, 0x75, 0x68, 0x80, 0x80, 0x80, 0x80,
  0x75, 0x69, 0x8b, 0x80, 0x61, 0x80, 0x80, 0x80, 0x80, 0x80, 0x73, 0x80,
  0x80, 0x80, 0x80, 0x80, 0x80, 0x80, 0x80, 0x80, 0x80, 0x80, 0x80, 0x8a,
  0x80, 0x80, 0x80, 0x80, 0x80, 0x80, 0x80, 0x80, 0x80, 0x80, 0x80, 0x80,
  0x80, 0x80, 0x80, 0x80, 0x80, 0x80, 0x8b, 0x80, 0x80, 0x75, 0x80, 0x80,
  0x80, 0x80, 0x80, 0x80, 0x42, 0xb6, 0xff, 0xff, 0x04, 0x00, 0x00, 0x00,
  0xfa, 0x05, 0x00, 0x00, 0x80, 0x80, 0x80, 0x80, 0x99, 0x80, 0x80, 0x80,
  0x80, 0x93, 0xa7, 0x45, 0x80, 0x94, 0x93, 0x71, 0x80, 0x5a, 0x80, 0x53,
  0x80, 0x80, 0x80, 0x80, 0x80, 0x75, 0x80, 0x80, 0x70, 0x80, 0x77, 0x97,
  0x6e, 0x80, 0x55, 0x93, 0x80, 0x71, 0x80, 0x91, 0x3c, 0x44, 0x77, 0x98,
  0x5e, 0x74, 0x6f, 0x75, 0x77, 0x5f, 0x64, 0x80, 0x8f, 0x75, 0x63, 0x80,
  0x80, 0x8d, 0x8a, 0x80, 0x80, 0x80, 0x80, 0x6f, 0x80, 0x80, 0x80, 0x8b,
  0x80, 0x80, 0x76, 0x5b, 0x80, 0x8e, 0x64, 0x77, 0x80, 0x80, 0x80, 0x6c,
  0x72, 0x80, 0x80, 0x80, 0x80, 0x8d, 0x80, 0x80, 0x80, 0x80, 0x81, 0x5e,
  0x8d, 0x4f, 0x81, 0x80, 0x81, 0x65, 0x81, 0x4e, 0x80, 0x80, 0x52, 0x80,
  0x98, 0x72, 0x62, 0x6c, 0x80, 0x91, 0xa6, 0x67, 0x81, 0x93, 0x8f, 0x72,
  0x71, 0x69, 0x80, 0x80, 0x68, 0x80, 0x74, 0x6b, 0x66, 0xa3, 0x80, 0x7f,
  0x9e, 0x69, 0x40, 0x80, 0x31, 0x80, 0x00, 0x72, 0x69, 0x93, 0x61, 0x96,
  0x1f, 0x58, 0x68, 0x6f, 0x46, 0x59, 0x6f, 0xa0, 0x74, 0x80, 0x6f, 0x80,
  0xa8, 0x9d, 0x80, 0x73, 0x6f, 0x91, 0x73, 0x80, 0x97, 0x80, 0xa4, 0x5c,
  0x9e, 0x8e, 0x90, 0x74, 0xa0, 0x66, 0xbb, 0x8e, 0x91, 0x8d, 0x8c, 0x80,
  0x8f, 0x6a, 0x80, 0x80, 0x8e, 0x80, 0x80, 0x70, 0x87, 0x80, 0x80, 0x80,
  0x8c, 0x6e, 0x80, 0x74, 0x68, 0x6d, 0x76, 0x74, 0x79, 0x80, 0x80, 0x79,
  0x80, 0x77, 0x74, 0x91, 0x80, 0x75, 0x73, 0x80, 0x80, 0x80, 0x80, 0x80,
  0x80, 0x75, 0x87, 0x80, 0x77, 0x8a, 0x76, 0x71, 0x72, 0x76, 0x68, 0x6d,
  0x62, 0x78, 0x72, 0x91, 0x6f, 0x80, 0x7a, 0x80, 0x79, 0x80, 0x80, 0x80,
  0x73, 0x80, 0x76, 0x74, 0x80, 0x8d, 0x8d, 0x92, 0xa0, 0x79, 0x77, 0x80,
  0x80, 0x89, 0x88, 0x89, 0x80, 0x80, 0x95, 0x80, 0x7a, 0x78, 0x80, 0x8b,
  0x93, 0x8c, 0x8b, 0x87, 0x90, 0x80, 0x79, 0x79, 0x87, 0x80, 0x80, 0x75,
  0x80, 0x72, 0x8b, 0x88, 0x80, 0x64, 0x75, 0x79, 0x8f, 0x68, 0x68, 0x90,
  0x80, 0x6b, 0x6c, 0x5f, 0x80, 0x75, 0x80, 0x75, 0x8f, 0x5e, 0x80, 0x89,
  0x80, 0x66, 0x72, 0x74, 0x72, 0x80, 0x75, 0x75, 0x5b, 0x80, 0x80, 0x9b,
  0x90, 0x80, 0x55, 0x77, 0x62, 0x8b, 0x4a, 0x6e, 0x6b, 0x7f, 0x80, 0x7f,
  0x63, 0x80, 0x8e, 0x69, 0x5c, 0x80, 0x78, 0x8f, 0x90, 0x75, 0x80, 0x80,
  0x80, 0x80, 0x97, 0x8a, 0x80, 0x86, 0x80, 0x80, 0xa9, 0x80, 0x80, 0x80,
  0x87, 0x80, 0x80, 0x74, 0x80, 0x74, 0x80, 0x80, 0x80, 0x73, 0x79, 0x79,
  0x78, 0x80, 0x70, 0x80, 0x7e, 0x7f, 0x9c, 0x7f, 0x93, 0x71, 0x8f, 0x80,
  0x7f, 0x7f, 0x91, 0x70, 0x53, 0x80, 0x7f, 0x66, 0x67, 0x80, 0x7f, 0x6c,
  0x7f, 0x80, 0x80, 0x68, 0x8f, 0x8f, 0x80, 0x66, 0x60, 0x80, 0x9f, 0x8e,
  0x7f, 0x80, 0x7f, 0x9d, 0x8f, 0x80, 0x94, 0x80, 0x2a, 0x70, 0x2d, 0xab,
  0x58, 0x46, 0x4d, 0x63, 0x3e, 0xa3, 0x5b, 0x47, 0x80, 0x72, 0x74, 0x5f,
  0x71, 0x80, 0x6e, 0x6a, 0x5c, 0x8c, 0x8f, 0x80, 0x7f, 0x80, 0x7f, 0x91,
  0x80, 0x6f, 0x80, 0x80, 0x5b, 0x80, 0x52, 0x73, 0x80, 0x80, 0x80, 0x8e,
  0x6c, 0x80, 0x80, 0x8e, 0x80, 0x80, 0x80, 0x94, 0x8c, 0x8e, 0x8e, 0x80,
  0x80, 0x80, 0x8f, 0x77, 0x80, 0x8d, 0x8c, 0x80, 0x93, 0x6c, 0x80, 0x6f,
  0x80, 0x88, 0x80, 0x80, 0x8c, 0x5e, 0x80, 0x75, 0x80, 0x80, 0x78, 0x6d,
  0x67, 0x80, 0x80, 0x89, 0x88, 0x90, 0x77, 0x80, 0x8d, 0x8d, 0x80, 0x74,
  0x80, 0x89, 0x80, 0x67, 0x71, 0x80, 0x80, 0x80, 0x80, 0x69, 0x75, 0x69,
  0x6e, 0x6b, 0x73, 0x80, 0x80, 0x62, 0x5e, 0x73, 0x65, 0x80, 0x80, 0x8e,
  0x77, 0x80, 0x71, 0x80, 0x80, 0x80, 0x80, 0x80, 0x76, 0x72, 0x77, 0x80,
  0x6d, 0x80, 0x80, 0x8f, 0x80, 0x6d, 0x68, 0x80, 0x74, 0x80, 0x6a, 0x80,
  0x76, 0x70, 0x6d, 0x80, 0x88, 0x80, 0x70, 0x80, 0x80, 0x80, 0x80, 0x72,
  0x91, 0x8a, 0x80, 0x71, 0x92, 0x98, 0x8a, 0x77, 0x80, 0x80, 0x98, 0x77,
  0x90, 0x8c, 0x80, 0x90, 0x89, 0x77, 0x79, 0x8e, 0x8b, 0x91, 0x8c, 0x77,
  0x60, 0x69, 0x6b, 0x8d, 0x80, 0x8a, 0x8d, 0x69, 0x6b, 0x5f, 0x80, 0x80,
  0x72, 0x69, 0x6b, 0x75, 0x71, 0x65, 0x6d, 0x78, 0x76, 0x76, 0x77, 0x6b,
  0x65, 0x80, 0x71, 0x71, 0x80, 0x80, 0x70, 0x80, 0x69, 0x8c, 0x80, 0x70,
  0x73, 0x80, 0x75, 0x6c, 0x9a, 0x80, 0x87, 0x80, 0x80, 0x80, 0x80, 0x67,
  0x94, 0x87, 0x80, 0x80, 0x74, 0x80, 0x80, 0x77, 0x80, 0x77, 0x72, 0x80,
  0x62, 0x80, 0x80, 0x80, 0x80, 0x61, 0x61, 0x92, 0x80, 0x63, 0x70, 0xa1,
  0x80, 0x6d, 0x70, 0x5a, 0x72, 0x80, 0x6c, 0x8a, 0x6f, 0x71, 0x8a, 0x80,
  0x80, 0x64, 0x60, 0x80, 0x71, 0x80, 0x73, 0x6c, 0x55, 0x80, 0x80, 0x80,
  0x80, 0x80, 0x44, 0x68, 0x80, 0x80, 0x6a, 0x6e, 0x77, 0x80, 0x75, 0x73,
  0x72, 0x98, 0x80, 0x4b, 0x5c, 0x9c, 0x8d, 0x80, 0x8c, 0x75, 0x8f, 0x80,
  0x80, 0x63, 0x80, 0x80, 0x80, 0x80, 0x80, 0x6e, 0x8e, 0x76, 0x80, 0x80,
  0x80, 0x80, 0x80, 0x72, 0x80, 0x80, 0x8c, 0x9f, 0x80, 0x80, 0x97, 0x8d,
  0x89, 0x93, 0x8b, 0x80, 0x80, 0x80, 0x80, 0x9e, 0x80, 0x80, 0x80, 0x48,
  0x73, 0x80, 0x80, 0x50, 0x7f, 0x51, 0x7f, 0x76, 0x80, 0x3b, 0x61, 0x74,
  0xaa, 0x80, 0x72, 0x62, 0xa1, 0x8d, 0x8e, 0x6f, 0x8c, 0x70, 0x6e, 0x80,
  0x8b, 0x7f, 0x66, 0x6d, 0x80, 0x80, 0x80, 0x68, 0x42, 0x62, 0x80, 0x2b,
  0x29, 0x80, 0x80, 0x80, 0x80, 0x49, 0x68, 0x80, 0x6d, 0x65, 0x51, 0x90,
  0x80, 0x80, 0x80, 0x8b, 0x80, 0x91, 0x92, 0x94, 0x80, 0x80, 0x80, 0x80,
  0x80, 0x8c, 0x80, 0x80, 0x80, 0x80, 0x76, 0x80, 0x80, 0x80, 0x6b, 0x80,
  0x80, 0x80, 0x80, 0x8a, 0x8d, 0x80, 0x80, 0x80, 0x80, 0x80, 0x66, 0x80,
  0x4d, 0x9c, 0x66, 0x80, 0x80, 0x71, 0x80, 0x80, 0x73, 0x80, 0x80, 0x7f,
  0x73, 0x7f, 0x80, 0xa8, 0x8f, 0x7f, 0x80, 0x80, 0x61, 0xa3, 0x80, 0x63,
  0x67, 0x80, 0x80, 0x94, 0x93, 0x8e, 0x5d, 0x93, 0x8d, 0x80, 0x6f, 0x62,
  0x5e, 0x9b, 0x99, 0x7f, 0x80, 0x62, 0x96, 0x72, 0x7f, 0x13, 0x42, 0x6a,
  0xaa, 0x68, 0x58, 0x6b, 0x80, 0x54, 0x71, 0x80, 0x80, 0x66, 0x5c, 0x80,
  0x80, 0x73, 0x4d, 0x63, 0x80, 0x8e, 0x71, 0x6d, 0x62, 0x7f, 0xb4, 0x26,
  0x53, 0xac, 0x98, 0xa7, 0xab, 0x23, 0x63, 0x91, 0x80, 0x67, 0x64, 0xa0,
  0x90, 0x6a, 0x80, 0x90, 0x8d, 0x80, 0x80, 0x68, 0x80, 0x8d, 0x93, 0x80,
  0x80, 0x6d, 0x76, 0x68, 0x48, 0x80, 0x62, 0x5a, 0x66, 0x67, 0x6c, 0x80,
  0x70, 0x80, 0x95, 0x61, 0x61, 0xa1, 0x97, 0x71, 0x80, 0x76, 0x80, 0x80,
  0x62, 0x80, 0x6f, 0x8d, 0x80, 0x80, 0x80, 0x8e, 0x50, 0x80, 0x3e, 0x96,
  0x56, 0x52, 0x51, 0x6c, 0x58, 0xa3, 0x67, 0x75, 0x80, 0x90, 0x80, 0x6b,
  0x80, 0x8a, 0x6d, 0x8c, 0x80, 0x80, 0x80, 0x80, 0x8d, 0x80, 0x80, 0x98,
  0x80, 0x80, 0x80, 0x80, 0x63, 0x80, 0x80, 0x60, 0x6d, 0x80, 0x69, 0x8d,
  0x72, 0x80, 0x80, 0x80, 0x80, 0x80, 0x80, 0x96, 0x80, 0x8d, 0x80, 0x72,
  0x91, 0x80, 0x80, 0x7f, 0x80, 0x6f, 0x7f, 0x66, 0x80, 0x80, 0x6a, 0x5e,
  0x3b, 0x92, 0x80, 0x8c, 0x71, 0x7f, 0x6e, 0x64, 0x80, 0x80, 0x80, 0x70,
  0x72, 0x80, 0x80, 0x66, 0x7f, 0x70, 0x94, 0x8b, 0x99, 0x7f, 0x80, 0x61,
  0x76, 0x70, 0x80, 0x80, 0x67, 0x65, 0x3c, 0x80, 0x8d, 0x7f, 0x73, 0x90,
  0x80, 0x74, 0x73, 0x9b, 0x89, 0x6b, 0x74, 0x80, 0x80, 0x80, 0x7f, 0x80,
  0x8f, 0x80, 0x94, 0x80, 0x80, 0x8c, 0x91, 0x66, 0x8d, 0x80, 0x69, 0x64,
  0x51, 0x8b, 0x8f, 0x98, 0x90, 0x89, 0x6c, 0x77, 0x6d, 0xa9, 0x80, 0x69,
  0x75, 0x80, 0x6a, 0x80, 0x6c, 0x80, 0x81, 0x90, 0x74, 0x72, 0x73, 0x65,
  0x67, 0x80, 0x80, 0x80, 0x9c, 0x51, 0x80, 0x9b, 0x9b, 0x5b, 0x80, 0x4e,
  0x6d, 0x76, 0x77, 0x92, 0x81, 0x80, 0x80, 0x80, 0x80, 0x8f, 0x80, 0x80,
  0x80, 0x75, 0x75, 0x60, 0x76, 0x80, 0x77, 0x80, 0x56, 0x70, 0x8a, 0x63,
  0x69, 0x76, 0x80, 0xae, 0x90, 0x4e, 0x81, 0x75, 0x81, 0x74, 0x81, 0x70,
  0x80, 0x81, 0x70, 0x76, 0x95, 0x80, 0x80, 0x8d, 0x80, 0x8a, 0x80, 0x90,
  0x91, 0x80, 0x80, 0x90, 0x76, 0xad, 0x77, 0x80, 0x76, 0x5f, 0x5d, 0xa6,
  0x9a, 0x81, 0x99, 0x81, 0x99, 0x94, 0x90, 0x8d, 0x98, 0x81, 0x66, 0x80,
  0x67, 0x80, 0x68, 0x80, 0x75, 0x73, 0x6c, 0x80, 0x7f, 0x8d, 0x90, 0x80,
  0x7f, 0x7f, 0x90, 0x8b, 0x89, 0x72, 0x73, 0x80, 0x6b, 0x80, 0x73, 0x80,
  0x90, 0x80, 0x80, 0x80, 0x8a, 0x75, 0x80, 0x62, 0x8b, 0x6a, 0x71, 0x6d,
  0x6a, 0x70, 0x88, 0x94, 0x97, 0x7f, 0x95, 0x89, 0x90, 0x5f, 0x6e, 0x61,
  0x80, 0x8b, 0x76, 0x75, 0xb2, 0x8f, 0x94, 0x6b, 0x70, 0x74, 0x73, 0x80,
  0x74, 0x76, 0x70, 0x72, 0x70, 0x7f, 0x71, 0x7f, 0x6c, 0x80, 0x8a, 0x8e,
  0x8c, 0x7f, 0x80, 0x90, 0x7f, 0x6b, 0x71, 0x80, 0x74, 0x80, 0x66, 0x89,
  0x80, 0x8c, 0x8a, 0x80, 0x7f, 0x80, 0x73, 0x6f, 0x7f, 0x6a, 0x80, 0x80,
  0x92, 0x72, 0x7f, 0x80, 0x71, 0x6f, 0x7f, 0x66, 0x62, 0x93, 0x8b, 0x80,
  0x91, 0x80, 0x7f, 0x7f, 0x7f, 0x80, 0x75, 0x9e, 0x94, 0x68, 0x80, 0x90,
  0x56, 0x80, 0x80, 0x80, 0x69, 0x80, 0x6a, 0x80, 0x80, 0x80, 0x6c, 0x6c,
  0x8c, 0x5d, 0x57, 0x80, 0x6c, 0x80, 0xae, 0x68, 0x80, 0x71, 0x95, 0x66,
  0x65, 0x72, 0x74, 0x5e, 0x66, 0x98, 0x8b, 0xa0, 0x80, 0x80, 0x80, 0x73,
  0x6e, 0x96, 0x73, 0x80, 0x97, 0x55, 0x8f, 0x80, 0x80, 0x6e, 0x70, 0x67,
  0x80, 0x80, 0x7f, 0x80, 0x80, 0x80, 0x80, 0x80, 0x80, 0x69, 0x80, 0x6f,
  0x6b, 0x80, 0x72, 0x81, 0x72, 0x70, 0x78, 0x76, 0x80, 0x67, 0x92, 0x60,
  0x74, 0x81, 0x80, 0x80, 0x80, 0x66, 0x8e, 0x80, 0x72, 0x73, 0x80, 0x81,
  0x80, 0x6e, 0x80, 0x6e, 0x89, 0x6e, 0x77, 0x6c, 0x76, 0x72, 0x80, 0x75,
  0x6d, 0x76, 0x80, 0x72, 0x8d, 0x65, 0x80, 0x80, 0x80, 0x80, 0x73, 0x6e,
  0xa7, 0x80, 0x81, 0x6a, 0x80, 0x92, 0x94, 0x80, 0x80, 0x68, 0x8d, 0x90,
  0x89, 0x8a, 0x80, 0x8c, 0x89, 0x80, 0x80, 0x97, 0x81, 0x95, 0x98, 0x93,
  0x8e, 0x91, 0x80, 0x80, 0x80, 0x93, 0x8f, 0x92, 0x8e, 0xa5, 0x95, 0x80,
  0x8a, 0x74, 0x92, 0x80, 0x80, 0x8e, 0x93, 0x72, 0x7f, 0x80, 0x80, 0x8b,
  0x92, 0x7f, 0x8a, 0x7f, 0x7f, 0x6a, 0x96, 0x65, 0x74, 0x80, 0x90, 0x74,
  0x7f, 0x7f, 0x7f, 0x80, 0x7f, 0x70, 0x80, 0x92, 0x7f, 0x7f, 0x80, 0x5f,
  0x80, 0x5c, 0x7f, 0x5d, 0x77, 0x71, 0x5a, 0x59, 0x7e, 0x63, 0x5c, 0x31,
  0x74, 0x80, 0x6c, 0x80, 0x7f, 0x3a, 0x6a, 0x80, 0x7f, 0x7f, 0x80, 0x80,
  0x80, 0x80, 0x67, 0x94, 0x96, 0x80, 0x75, 0x80, 0x74, 0x95, 0x80, 0x93,
  0x8d, 0x80, 0x43, 0x74, 0x59, 0x80, 0x4d, 0x6d, 0x60, 0x80, 0x64, 0x80,
  0x80, 0x80, 0x8e, 0x80, 0x77, 0x80, 0x80, 0x80, 0x8c, 0x80, 0x00, 0x00,
  0x4a, 0xbc, 0xff, 0xff, 0x04, 0x00, 0x00, 0x00, 0x20, 0x0a, 0x00, 0x00,
  0x7f, 0x80, 0x80, 0x80, 0x80, 0x98, 0x7f, 0x80, 0x81, 0x9f, 0x81, 0x81,
  0x80, 0x81, 0x80, 0x80, 0x7f, 0x80, 0x80, 0x81, 0x80, 0x5c, 0x80, 0x7f,
  0x80, 0x81, 0x60, 0x7f, 0x80, 0x80, 0x81, 0x81, 0x59, 0x9c, 0x5f, 0xa7,
  0x60, 0x81, 0x80, 0x80, 0x81, 0x5b, 0x80, 0x58, 0xa6, 0xb8, 0x80, 0xa5,
  0x9d, 0x51, 0x80, 0x3a, 0xb5, 0x3d, 0x7f, 0x80, 0xa2, 0xa0, 0x9b, 0x7f,
  0x80, 0x80, 0x63, 0xa2, 0xa7, 0x5a, 0x7f, 0x80, 0xb5, 0x7f, 0x7f, 0x7f,
  0x61, 0x80, 0x99, 0x80, 0x80, 0x55, 0x67, 0x80, 0x80, 0x7f, 0x80, 0x81,
  0x80, 0x81, 0x80, 0x9f, 0x60, 0xa8, 0xc3, 0x48, 0x7f, 0x59, 0x56, 0x5b,
  0x80, 0x65, 0xae, 0x7f, 0x80, 0xad, 0xaa, 0xbf, 0x80, 0x39, 0x7f, 0x35,
  0x5c, 0x80, 0x80, 0x80, 0x81, 0x80, 0x81, 0x80, 0x81, 0x7f, 0x80, 0x81,
  0x80, 0x80, 0x80, 0x7f, 0x80, 0x80, 0x57, 0x80, 0x80, 0x80, 0x80, 0x80,
  0x66, 0x80, 0x9f, 0x5d, 0x80, 0x80, 0x46, 0x81, 0x80, 0x80, 0x80, 0x80,
  0xb8, 0x53, 0x7f, 0x56, 0x81, 0x61, 0x80, 0x80, 0x7f, 0x7f, 0x80, 0xac,
  0x80, 0xc3, 0x80, 0x62, 0x5a, 0x64, 0x80, 0x80, 0x9d, 0x81, 0x62, 0x81,
  0xb9, 0x80, 0x80, 0x81, 0x4b, 0x80, 0xd2, 0x7f, 0x81, 0x9d, 0x81, 0x80,
  0x97, 0x80, 0x81, 0x9d, 0x80, 0x81, 0xb6, 0x80, 0x68, 0x81, 0x57, 0x67,
  0xb5, 0x80, 0x81, 0x81, 0x81, 0x80, 0x81, 0x80, 0x82, 0x81, 0x80, 0x81,
  0xa6, 0x81, 0x7f, 0x82, 0x4d, 0x66, 0xc1, 0x80, 0x81, 0xa4, 0x80, 0x81,
  0xae, 0x7f, 0x80, 0x68, 0x80, 0x81, 0x99, 0x80, 0x4a, 0x81, 0x80, 0x7f,
  0x80, 0x7f, 0x80, 0x80, 0x9d, 0x60, 0x97, 0xa0, 0x5b, 0x80, 0x80, 0x81,
  0x7f, 0x7f, 0x60, 0x81, 0x61, 0x7f, 0x60, 0x80, 0x81, 0x63, 0x80, 0x80,
  0x80, 0x7f, 0x81, 0x81, 0x80, 0x81, 0x80, 0x9e, 0x66, 0x81, 0x5d, 0x7f,
  0x81, 0x80, 0x81, 0x80, 0x80, 0x81, 0x80, 0x81, 0x5c, 0x5d, 0x80, 0x80,
  0x80, 0x81, 0x97, 0x81, 0x80, 0x7f, 0x5d, 0x80, 0x80, 0x80, 0x81, 0x81,
  0x80, 0x80, 0x66, 0x80, 0x80, 0x81, 0x5f, 0x80, 0x80, 0x81, 0x98, 0x7f,
  0x5a, 0x98, 0x81, 0x69, 0x81, 0x9e, 0x80, 0x61, 0x81, 0x80, 0x9d, 0x80,
  0x63, 0xa3, 0x80, 0x81, 0x9b, 0x7f, 0x5c, 0x7f, 0x81, 0x6a, 0x81, 0xa2,
  0x80, 0x80, 0x80, 0x6b, 0x80, 0x80, 0xaa, 0x5e, 0x80, 0x80, 0x55, 0x95,
  0xa3, 0x81, 0x80, 0x80, 0x80, 0x80, 0x80, 0x80, 0x80, 0x80, 0x80, 0x80,
  0x80, 0x56, 0x80, 0xa0, 0x80, 0x80, 0xaa, 0x80, 0x68, 0x80, 0x80, 0x80,
  0x69, 0x80, 0x80, 0x96, 0x80, 0x63, 0x80, 0x64, 0x62, 0x98, 0x80, 0x80,
  0xa9, 0x80, 0x67, 0x5c, 0x9d, 0x80, 0x95, 0x98, 0x80, 0x99, 0x99, 0x94,
  0x80, 0x5d, 0x66, 0x80, 0x98, 0x80, 0x80, 0x80, 0x80, 0x5b, 0x80, 0x65,
  0x9d, 0x80, 0x80, 0x80, 0x80, 0x96, 0x7f, 0x5a, 0x80, 0x80, 0x80, 0xa0,
  0x55, 0x81, 0x80, 0x80, 0x64, 0x67, 0x80, 0x9a, 0x80, 0x65, 0x80, 0x7f,
  0x65, 0x4f, 0x80, 0x68, 0x97, 0xae, 0x33, 0x80, 0x80, 0x6b, 0x7f, 0x64,
  0x81, 0x81, 0x80, 0x94, 0x98, 0x80, 0x6a, 0x80, 0x80, 0x80, 0x99, 0x80,
  0x80, 0x80, 0x80, 0x80, 0x80, 0x7f, 0x80, 0x80, 0x80, 0x80, 0x80, 0x80,
  0x80, 0x80, 0x7f, 0x80, 0x80, 0x98, 0x80, 0x81, 0x80, 0x63, 0x80, 0x7f,
  0x81, 0x80, 0xa0, 0x66, 0x80, 0x7f, 0x61, 0x66, 0x95, 0x80, 0x94, 0xcd,
  0x2f, 0x81, 0x80, 0x80, 0x80, 0x7f, 0x80, 0x81, 0x80, 0xa1, 0x7f, 0x80,
  0xa2, 0x4c, 0x80, 0x7f, 0x4b, 0xc2, 0xa5, 0x61, 0x44, 0x5b, 0x80, 0x80,
  0x80, 0x81, 0x80, 0x81, 0x7f, 0x4d, 0x7f, 0x80, 0xb2, 0xc8, 0x80, 0x81,
  0xa0, 0x27, 0x58, 0x7f, 0x55, 0x80, 0x25, 0x80, 0x5c, 0x80, 0x80, 0x45,
  0x7f, 0xc1, 0xad, 0x7f, 0x80, 0x5f, 0x7f, 0x2b, 0x7f, 0xa1, 0xb3, 0x80,
  0x81, 0x80, 0x7f, 0x80, 0x7f, 0x7f, 0x7f, 0x57, 0x80, 0x80, 0x80, 0x80,
  0x7f, 0x80, 0x7f, 0x61, 0x4b, 0x80, 0x81, 0x5e, 0xb0, 0x80, 0x7f, 0x80,
  0xa4, 0x80, 0xa2, 0x80, 0x80, 0xad, 0x7f, 0x5b, 0x61, 0x7f, 0x41, 0x80,
  0x56, 0x5f, 0x44, 0x36, 0x80, 0x5d, 0x7f, 0xa3, 0x80, 0x80, 0x42, 0x80,
  0x7e, 0xb0, 0x4f, 0x7f, 0x80, 0x80, 0x82, 0x80, 0xaa, 0xbf, 0x80, 0x80,
  0x52, 0x7f, 0x80, 0x80, 0x7f, 0x80, 0x80, 0x5f, 0xb6, 0x80, 0x80, 0x80,
  0x83, 0x7f, 0xcf, 0x80, 0x80, 0x80, 0x80, 0x7f, 0x7f, 0x80, 0xa3, 0xad,
  0x80, 0x81, 0x80, 0x5d, 0x50, 0x80, 0x83, 0x80, 0x80, 0x80, 0x80, 0x80,
  0x80, 0x80, 0x80, 0x80, 0x7f, 0x81, 0x80, 0xf0, 0x80, 0x80, 0x80, 0x80,
  0x80, 0x9a, 0x80, 0x81, 0xb3, 0x80, 0x80, 0x80, 0x80, 0x81, 0x80, 0x80,
  0x65, 0x80, 0x81, 0x81, 0x80, 0x9a, 0x80, 0x80, 0x57, 0x81, 0x80, 0x7f,
  0x80, 0x80, 0x80, 0x80, 0xae, 0xb0, 0x60, 0x80, 0xac, 0x9e, 0xa9, 0x5a,
  0x80, 0x7f, 0x80, 0xa9, 0x55, 0x7f, 0x80, 0x80, 0x80, 0x63, 0x80, 0x5c,
  0x9c, 0x9a, 0x80, 0x5e, 0x80, 0x7f, 0x64, 0x7f, 0x80, 0x80, 0xa8, 0x62,
  0x81, 0x80, 0x61, 0x80, 0x80, 0x68, 0x66, 0x64, 0x80, 0x80, 0x80, 0x9b,
  0x80, 0x80, 0x63, 0x80, 0x67, 0x80, 0x66, 0x67, 0x9a, 0x80, 0xbc, 0xbc,
  0x68, 0x80, 0x80, 0x80, 0x80, 0x47, 0x80, 0x7f, 0x9c, 0x80, 0x63, 0x80,
  0x82, 0xab, 0x63, 0x5d, 0x35, 0x4c, 0x80, 0x80, 0x80, 0x80, 0x80, 0x9e,
  0x80, 0x81, 0x80, 0x66, 0xa4, 0x67, 0x80, 0x80, 0x80, 0x80, 0xa1, 0x80,
  0x7f, 0x80, 0x80, 0x63, 0x80, 0x80, 0x80, 0x81, 0x52, 0x80, 0x80, 0x80,
  0x80, 0x80, 0xac, 0x80, 0x80, 0xbc, 0x7f, 0x80, 0x5c, 0x9c, 0xa4, 0x62,
  0x80, 0x81, 0x9e, 0x80, 0x64, 0x80, 0x80, 0x80, 0x9e, 0x66, 0x46, 0x59,
  0x7f, 0x80, 0x80, 0x80, 0x81, 0xaf, 0x98, 0x80, 0x81, 0x82, 0x6a, 0x7e,
  0x81, 0x81, 0x80, 0x80, 0x96, 0x80, 0x82, 0x80, 0x81, 0x82, 0x80, 0xb7,
  0x5b, 0x7f, 0x81, 0x81, 0xba, 0x7e, 0x80, 0x81, 0x7f, 0x7f, 0x69, 0x7f,
  0x81, 0x50, 0xab, 0x82, 0x98, 0x5c, 0x80, 0x63, 0x80, 0x9d, 0x81, 0x9d,
  0x5a, 0x80, 0x80, 0x61, 0x9e, 0x81, 0x80, 0xaa, 0xba, 0x59, 0x5d, 0x80,
  0xad, 0x80, 0x81, 0x81, 0x81, 0x7f, 0x81, 0x81, 0x67, 0x80, 0x97, 0x7f,
  0x81, 0x9d, 0x81, 0x81, 0x80, 0xa4, 0x80, 0x80, 0x81, 0x80, 0x6b, 0x7f,
  0x81, 0x64, 0xc0, 0x80, 0x64, 0x7f, 0x80, 0x5a, 0xae, 0x4a, 0x98, 0x43,
  0x80, 0x7f, 0x80, 0x80, 0x80, 0xa1, 0x80, 0x80, 0x62, 0x5e, 0xa6, 0x80,
  0x50, 0xa6, 0x81, 0x9e, 0x67, 0xa0, 0x81, 0xa2, 0x80, 0x7f, 0x80, 0x7e,
  0x7f, 0x82, 0x81, 0x80, 0x80, 0x80, 0x80, 0x5c, 0x80, 0x7f, 0x81, 0xa6,
  0x81, 0x5b, 0x80, 0x68, 0x51, 0x7e, 0x7f, 0x5c, 0xca, 0x80, 0x81, 0xc0,
  0x7f, 0xc7, 0x80, 0x3c, 0x82, 0x54, 0x80, 0x81, 0x80, 0x7f, 0xb8, 0x7d,
  0x7e, 0x81, 0x4f, 0x80, 0x54, 0x67, 0x7e, 0x82, 0x62, 0x9e, 0x9a, 0x9e,
  0x81, 0x80, 0x80, 0x63, 0x80, 0x81, 0x81, 0x6c, 0x6c, 0x80, 0x66, 0x80,
  0x80, 0x81, 0x80, 0x80, 0x80, 0x81, 0x96, 0x80, 0x80, 0x63, 0x69, 0x81,
  0x81, 0x6d, 0x80, 0x80, 0x63, 0x81, 0x9b, 0x81, 0x80, 0x9b, 0x5c, 0x80,
  0x81, 0x98, 0x96, 0x80, 0x62, 0x81, 0xab, 0x81, 0x80, 0x80, 0x53, 0x6a,
  0xa0, 0x80, 0x6c, 0x80, 0x81, 0x6a, 0x80, 0x6b, 0x80, 0x68, 0x93, 0x81,
  0x6a, 0x80, 0x69, 0x5f, 0xa0, 0x80, 0x54, 0x81, 0xa4, 0x7f, 0x80, 0x67,
  0x80, 0x80, 0x62, 0x80, 0x80, 0x82, 0x63, 0x80, 0x80, 0x5a, 0x7f, 0x80,
  0x4d, 0x81, 0x7f, 0x80, 0x94, 0x80, 0x80, 0x94, 0x5d, 0x80, 0x80, 0x82,
  0x80, 0x80, 0x80, 0x80, 0x80, 0x80, 0x53, 0x81, 0x80, 0x80, 0xab, 0x64,
  0x80, 0x80, 0x81, 0x80, 0x80, 0x80, 0x69, 0x81, 0x7f, 0x80, 0x9d, 0x80,
  0x60, 0x80, 0x80, 0x7f, 0x80, 0x97, 0x61, 0x80, 0x81, 0x80, 0x80, 0x80,
  0x4e, 0x81, 0xa2, 0x80, 0x80, 0x80, 0x68, 0x80, 0x80, 0x80, 0x80, 0xa6,
  0x67, 0x4b, 0x81, 0x80, 0x80, 0x80, 0x5e, 0x80, 0x9d, 0x80, 0xa1, 0x80,
  0x5a, 0x80, 0x80, 0x56, 0x80, 0x80, 0x9e, 0x7f, 0x80, 0x53, 0x80, 0x46,
  0x81, 0x81, 0x5a, 0xc8, 0x80, 0x80, 0xbc, 0x80, 0x5a, 0x80, 0x7f, 0x81,
  0x7f, 0x4a, 0x5f, 0xc3, 0x83, 0x5e, 0xaa, 0x7f, 0x7f, 0x7e, 0x56, 0x82,
  0x80, 0x80, 0x25, 0xc3, 0x7f, 0xa3, 0x7f, 0x5b, 0x7f, 0x80, 0x81, 0x80,
  0x80, 0x7e, 0xb6, 0x7f, 0x80, 0xac, 0x54, 0xa5, 0xcd, 0x80, 0x80, 0x7f,
  0xaf, 0x37, 0x7f, 0x41, 0x80, 0x7e, 0x80, 0x82, 0x80, 0x7f, 0x55, 0x81,
  0x7f, 0xaf, 0x80, 0x80, 0x80, 0x51, 0x7d, 0x7f, 0x60, 0x7f, 0xcc, 0x7e,
  0xa0, 0x5a, 0x80, 0x7f, 0x1f, 0x82, 0x7e, 0x80, 0x3b, 0xa6, 0x7f, 0x80,
  0x57, 0x7f, 0x7e, 0x7e, 0x81, 0x7f, 0x7f, 0x7f, 0x81, 0x5d, 0x82, 0x80,
  0x3d, 0x80, 0x7f, 0x7f, 0x7f, 0x7f, 0x7f, 0xa3, 0x4e, 0x80, 0x80, 0x7f,
  0x80, 0x80, 0xab, 0x57, 0xab, 0x82, 0x4b, 0xab, 0x80, 0x7f, 0x7f, 0x80,
  0xf5, 0x7e, 0x7f, 0x5b, 0x80, 0x58, 0x7f, 0x7f, 0xac, 0xa6, 0x5a, 0xa8,
  0xa0, 0x81, 0x2d, 0x7f, 0x7f, 0x47, 0x50, 0x7e, 0x7f, 0x7f, 0xbe, 0x80,
  0x7e, 0x4a, 0x80, 0x7f, 0x56, 0x81, 0x7e, 0x57, 0x5c, 0xa7, 0x7f, 0x7f,
  0x80, 0x80, 0x80, 0xa4, 0x80, 0x81, 0x80, 0x80, 0x80, 0x4c, 0x53, 0xa1,
  0x62, 0xaf, 0x80, 0xba, 0x80, 0x5f, 0xab, 0x9d, 0x80, 0x60, 0x9e, 0x50,
  0x51, 0x7f, 0x46, 0x3c, 0x9d, 0x66, 0x19, 0x81, 0xdf, 0x3f, 0xa0, 0xb1,
  0x80, 0x7f, 0x80, 0x48, 0xbd, 0x81, 0x80, 0x80, 0x80, 0xa2, 0xb8, 0x81,
  0x7f, 0x80, 0x80, 0x54, 0x9b, 0x80, 0x49, 0x80, 0x81, 0xa8, 0x80, 0x80,
  0x7f, 0x80, 0x7e, 0x80, 0x51, 0xa1, 0x80, 0x80, 0x47, 0x80, 0x80, 0xb5,
  0x3c, 0x80, 0x80, 0x80, 0x80, 0x80, 0x57, 0x45, 0x7e, 0x4c, 0xc4, 0x7f,
  0x5a, 0xa5, 0xa1, 0x80, 0x28, 0x80, 0xa9, 0x80, 0x66, 0x53, 0x80, 0x7f,
  0x53, 0x63, 0x63, 0x81, 0xa9, 0x80, 0x5d, 0x9e, 0x80, 0x5d, 0x80, 0x41,
  0x7f, 0x5f, 0xb9, 0x81, 0x80, 0x80, 0x80, 0x80, 0x46, 0x9f, 0x7f, 0xb0,
  0x9f, 0x7f, 0x9b, 0x81, 0x80, 0xb3, 0x7f, 0x5f, 0x80, 0x81, 0x80, 0x80,
  0x80, 0x80, 0x7f, 0x80, 0x80, 0x80, 0x80, 0x7f, 0x81, 0x81, 0x80, 0x80,
  0xaf, 0x80, 0x80, 0x81, 0x62, 0xae, 0x80, 0x80, 0xad, 0x80, 0x63, 0x80,
  0xae, 0xab, 0x80, 0x65, 0x80, 0x80, 0x80, 0x7f, 0x7f, 0x7f, 0xb0, 0x80,
  0x7f, 0x3f, 0x7f, 0x80, 0x80, 0x7f, 0xb4, 0x80, 0x7f, 0x80, 0x80, 0x7f,
  0x80, 0x7f, 0x7f, 0x80, 0x80, 0x80, 0x7f, 0x80, 0x7f, 0x80, 0x80, 0x7f,
  0xb3, 0x80, 0x7f, 0x80, 0x5b, 0x80, 0x54, 0x80, 0x7f, 0xa8, 0x80, 0x56,
  0x51, 0x7f, 0x7e, 0x80, 0x7f, 0x80, 0x36, 0x80, 0x7d, 0x80, 0x3d, 0x5e,
  0x80, 0x7f, 0x7f, 0x80, 0xae, 0x80, 0x54, 0x80, 0x7f, 0x4b, 0x81, 0x7f,
  0x4d, 0x80, 0xaa, 0x80, 0x80, 0x80, 0x80, 0x7f, 0x7f, 0x49, 0x80, 0x59,
  0x7f, 0x80, 0x7e, 0xc0, 0x80, 0x7f, 0xa3, 0x80, 0x80, 0x80, 0x80, 0xb1,
  0x43, 0x33, 0x7f, 0x58, 0x18, 0x7f, 0x7f, 0x80, 0x7e, 0xe2, 0x52, 0x80,
  0xa1, 0x4a, 0x3a, 0x80, 0x01, 0x59, 0x48, 0x7f, 0xbc, 0x80, 0xb0, 0x80,
  0x4b, 0x80, 0x80, 0x80, 0x80, 0x7f, 0xae, 0x80, 0xa2, 0x81, 0x81, 0x80,
  0x80, 0x7f, 0x80, 0x80, 0xb2, 0x7f, 0x80, 0x5b, 0x80, 0x80, 0xa6, 0x80,
  0x7e, 0xcf, 0xbc, 0x80, 0x80, 0x80, 0xdc, 0x7d, 0x50, 0x80, 0x55, 0x7e,
  0xc5, 0x80, 0x48, 0xae, 0x50, 0x81, 0x7d, 0x80, 0x80, 0x80, 0x80, 0x5e,
  0x65, 0x80, 0xb5, 0x54, 0x56, 0x3a, 0x56, 0x80, 0x7f, 0x7f, 0x55, 0x62,
  0x7f, 0x60, 0x7f, 0x3b, 0x50, 0xb1, 0x7e, 0x80, 0x17, 0x7f, 0xa6, 0x80,
  0xb1, 0x80, 0x61, 0xa8, 0xd0, 0x81, 0x7f, 0x80, 0x5e, 0xa4, 0x7f, 0x62,
  0x63, 0x80, 0xc7, 0xa0, 0x57, 0x80, 0x7f, 0xa9, 0x9c, 0x7f, 0x62, 0x81,
  0x7f, 0xac, 0xb6, 0x80, 0x5e, 0xa4, 0x5b, 0x64, 0x7f, 0x58, 0x80, 0xb0,
  0x7e, 0x5d, 0x7f, 0x7f, 0x81, 0x4d, 0x80, 0x97, 0x7f, 0x7f, 0x7f, 0x7f,
  0xc5, 0xac, 0x50, 0x59, 0xbe, 0x95, 0x49, 0x61, 0x53, 0x7f, 0x55, 0x80,
  0x7f, 0x7f, 0x43, 0x9c, 0x7f, 0x5a, 0x55, 0x7f, 0x7e, 0xa1, 0x53, 0x7e,
  0x5c, 0x5b, 0x7f, 0x7f, 0x81, 0x5e, 0x62, 0x7f, 0x7f, 0x7e, 0x7f, 0x7f,
  0x7f, 0x7f, 0x3c, 0x80, 0x80, 0x9e, 0xc6, 0x80, 0x7f, 0x7f, 0x9d, 0x80,
  0x61, 0x7e, 0x80, 0x9d, 0xc9, 0x80, 0x7f, 0xab, 0xd2, 0x80, 0x80, 0x7d,
  0x4c, 0x7f, 0x9f, 0x98, 0x32, 0xc1, 0x9f, 0x7f, 0x51, 0x80, 0x45, 0x7e,
  0x55, 0x66, 0x51, 0x80, 0x81, 0x7f, 0xb9, 0x52, 0x5a, 0x9d, 0xb0, 0x80,
  0x62, 0x7f, 0x80, 0x80, 0xa1, 0x7f, 0x81, 0x5a, 0xb4, 0x80, 0x80, 0x83,
  0x7f, 0x7f, 0xc2, 0xca, 0x80, 0x80, 0xac, 0x80, 0x5e, 0x80, 0x52, 0xa5,
  0x81, 0x44, 0xab, 0xa6, 0x58, 0x82, 0x54, 0x7f, 0xa2, 0x81, 0x80, 0x80,
  0xcc, 0x80, 0x3d, 0xa6, 0x1e, 0x80, 0x81, 0x46, 0x81, 0x80, 0x7f, 0x83,
  0x80, 0x7f, 0x7f, 0x5b, 0x5e, 0x80, 0x80, 0x81, 0x80, 0xb9, 0x4f, 0x80,
  0xa7, 0x80, 0xa6, 0x80, 0x7f, 0x80, 0x7e, 0x80, 0x4e, 0x81, 0x5a, 0x7e,
  0x81, 0x7f, 0x62, 0x80, 0x80, 0x39, 0x80, 0x7f, 0x80, 0x80, 0x80, 0x80,
  0x7e, 0x80, 0x37, 0x81, 0x47, 0x7f, 0x80, 0x7f, 0x80, 0x80, 0x81, 0x80,
  0x80, 0x7f, 0x80, 0x81, 0x5e, 0x80, 0x9c, 0x80, 0x80, 0x80, 0x2f, 0x7f,
  0x80, 0x4b, 0x80, 0xa4, 0x81, 0x80, 0x80, 0xbb, 0x62, 0x81, 0x80, 0x81,
  0xac, 0x80, 0x60, 0x81, 0x80, 0xb3, 0x43, 0x80, 0x80, 0x81, 0xb2, 0x5f,
  0x80, 0x80, 0x62, 0x81, 0x81, 0x81, 0x9f, 0x7f, 0x81, 0x81, 0x80, 0x80,
  0x46, 0x7f, 0x80, 0x81, 0x80, 0x80, 0x80, 0x80, 0x81, 0xa8, 0x80, 0x5d,
  0x80, 0x80, 0x51, 0x81, 0x58, 0xa1, 0x81, 0x5f, 0x80, 0x81, 0xa9, 0x80,
  0x80, 0x80, 0x93, 0xa2, 0xab, 0x6d, 0x5f, 0x80, 0x80, 0x68, 0x68, 0x81,
  0x80, 0x80, 0x80, 0xa5, 0x80, 0xa3, 0x9f, 0x65, 0x80, 0x65, 0x63, 0x61,
  0x6b, 0x5e, 0x80, 0xae, 0xb1, 0x96, 0x92, 0x80, 0xb2, 0x25, 0x6e, 0x50,
  0x7f, 0x7f, 0x80, 0x7f, 0x80, 0x94, 0xa3, 0x80, 0x80, 0x80, 0x58, 0x62,
  0x7f, 0x80, 0x42, 0xc7, 0x7f, 0x80, 0x4c, 0x7f, 0x80, 0x9a, 0x80, 0x6b,
  0x65, 0x80, 0x80, 0x80, 0x61, 0x80, 0x80, 0x4c, 0x60, 0x80, 0x80, 0x7f,
  0x9a, 0x4d, 0x6a, 0x64, 0x5f, 0x9d, 0x65, 0x80, 0x5c, 0x80, 0xa8, 0x6e,
  0x6d, 0xc9, 0xaa, 0x5d, 0x53, 0x53, 0x7e, 0xba, 0x6b, 0x7f, 0x9b, 0x61,
  0x7e, 0x80, 0x80, 0x80, 0x44, 0x80, 0x6c, 0x3d, 0x4f, 0xb1, 0xb8, 0x80,
  0x7f, 0x7f, 0x80, 0x80, 0x80, 0x80, 0x7f, 0x80, 0x94, 0x80, 0x9a, 0x95,
  0x5f, 0x5c, 0x93, 0x80, 0xa2, 0x80, 0x7f, 0x80, 0x62, 0x80, 0x81, 0xb2,
  0x97, 0xad, 0x7f, 0x6d, 0x61, 0x5e, 0x80, 0x9d, 0x80, 0x80, 0x65, 0x93,
  0x9a, 0x7f, 0xa0, 0x9c, 0x80, 0x5f, 0x7f, 0x7f, 0x80, 0x9a, 0x6b, 0x99,
  0x9e, 0x7f, 0x80, 0x80, 0x98, 0x80, 0x80, 0x81, 0x81, 0x7f, 0x80, 0x7f,
  0x7f, 0x82, 0x81, 0x7f, 0x81, 0xa5, 0x7f, 0x81, 0x80, 0x7f, 0x80, 0xa1,
  0x7f, 0x5f, 0xaa, 0x7f, 0x5e, 0x7f, 0x7f, 0x59, 0xd5, 0xb6, 0x80, 0x99,
  0xa8, 0x82, 0x99, 0x48, 0x81, 0x5a, 0xa9, 0x80, 0x7f, 0x7f, 0x81, 0x7f,
  0x96, 0x80, 0x5c, 0x7f, 0x81, 0x61, 0x4b, 0x81, 0x7f, 0x7f, 0x81, 0x7f,
  0x66, 0x9e, 0x9f, 0x80, 0x80, 0x46, 0x7f, 0x80, 0x80, 0x66, 0x80, 0x80,
  0x7f, 0x67, 0x80, 0x7f, 0x80, 0x80, 0xae, 0x80, 0x80, 0x80, 0x4b, 0x81,
  0x97, 0x80, 0xac, 0x7f, 0xa7, 0x9d, 0xa0, 0xe5, 0x80, 0x4e, 0x7f, 0x7f,
  0xa9, 0xc4, 0x80, 0x7f, 0xa1, 0x81, 0x7e, 0x7f, 0x5a, 0x7f, 0x47, 0x62,
  0x9a, 0x81, 0x80, 0x9f, 0x9f, 0x7f, 0x81, 0x9c, 0x81, 0x80, 0x81, 0x80,
  0x80, 0xa0, 0x7f, 0x63, 0x80, 0x64, 0x80, 0x81, 0x80, 0x80, 0x81, 0x81,
  0x80, 0x5e, 0x80, 0x67, 0x81, 0x7f, 0x80, 0x80, 0x5e, 0x7f, 0xa5, 0x80,
  0x80, 0x80, 0x80, 0x80, 0x9a, 0x80, 0x68, 0x80, 0x81, 0x80, 0x69, 0x61,
  0x7f, 0x7f, 0x80, 0x80, 0x67, 0x81, 0x99, 0x81, 0x57, 0x80, 0x81, 0x80,
  0xa0, 0x7f, 0x98, 0x9d, 0x81, 0x7f, 0x9b, 0x80, 0x80, 0x98, 0x80, 0x80,
  0xa3, 0x80, 0x80, 0x65, 0x96, 0x98, 0x80, 0xa4, 0x80, 0x81, 0x9f, 0x7f,
  0x80, 0x80, 0x69, 0x80, 0x80, 0x81, 0x80, 0x80, 0xa2, 0x81, 0xa5, 0x9d,
  0x80, 0x80, 0x80, 0x80, 0xb4, 0x9b, 0x65, 0x7f, 0xb8, 0x80, 0xa4, 0x80,
  0x57, 0x80, 0xa0, 0x9f, 0xa2, 0x80, 0xbc, 0x80, 0x7f, 0x69, 0x80, 0x5b,
  0x82, 0x81, 0x55, 0x80, 0x80, 0x80, 0x80, 0x80, 0x80, 0x69, 0x80, 0x81,
  0x4e, 0x98, 0x7f, 0x61, 0x9d, 0x80, 0x81, 0x80, 0x80, 0x80, 0x80, 0x80,
  0x80, 0x80, 0x7f, 0x80, 0x80, 0x80, 0x80, 0x5d, 0x7f, 0x7f, 0x9a, 0xb4,
  0x81, 0x5e, 0x9e, 0x80, 0xae, 0x80, 0x37, 0x80, 0x7e, 0x80, 0x80, 0x80,
  0x80, 0x5a, 0x80, 0x5c, 0x69, 0x4f, 0x80, 0x80, 0x80, 0x80, 0x80, 0x80,
  0x80, 0x80, 0x9f, 0x80, 0x80, 0x80, 0x80, 0x5c, 0x67, 0x3d, 0x80, 0x47,
  0x7f, 0x80, 0x80, 0x80, 0x80, 0x80, 0x81, 0x60, 0x9b, 0x80, 0x80, 0x7f,
  0x63, 0x46, 0x80, 0x7f, 0x97, 0x80, 0x7f, 0x5b, 0xa0, 0x80, 0x80, 0x80,
  0x42, 0x80, 0x60, 0x81, 0x80, 0x7f, 0x66, 0x97, 0x80, 0x5c, 0x80, 0x5a,
  0x80, 0x80, 0x5c, 0x80, 0xa2, 0x9a, 0x7f, 0x64, 0x80, 0x9c, 0x7f, 0x68,
  0x80, 0x80, 0x80, 0x80, 0x80, 0x80, 0x80, 0x80, 0x80, 0x80, 0x5c, 0x80,
  0x55, 0x80, 0x5c, 0x80, 0x7f, 0x80, 0x80, 0x7f, 0x7f, 0x80, 0x80, 0x61,
  0x9c, 0xaf, 0x5a, 0x80, 0x80, 0x80, 0x7f, 0x80, 0x80, 0x63, 0x9f, 0x7f,
  0x7f, 0x7f, 0x80, 0x68, 0x80, 0x57, 0x69, 0x80, 0x64, 0xab, 0xae, 0xa2,
  0x80, 0x80, 0x80, 0x80, 0x80, 0x63, 0x80, 0x7f, 0x80, 0x80, 0x80, 0xa4,
  0x80, 0x80, 0xb0, 0x80, 0x56, 0x80, 0x4f, 0x80, 0x80, 0xb1, 0x80, 0x97,
  0x80, 0x7f, 0x80, 0x64, 0x80, 0x5e, 0x80, 0x9b, 0x65, 0x80, 0xb4, 0x80,
  0x80, 0x80, 0xa2, 0x4e, 0x98, 0x80, 0xa4, 0x7f, 0x80, 0x80, 0xa8, 0x80,
  0x81, 0x80, 0x68, 0xaa, 0xac, 0x80, 0x80, 0x80, 0xb5, 0x80, 0x80, 0x62,
  0x64, 0x67, 0x80, 0x80, 0x80, 0xc6, 0x81, 0x80, 0xa9, 0x80, 0x5d, 0x80,
  0x80, 0x64, 0x5a, 0x80, 0x80, 0x9f, 0x9b, 0x66, 0x80, 0x80, 0x80, 0x80,
  0x81, 0x68, 0x80, 0x80, 0xaf, 0x80, 0xa0, 0x99, 0xad, 0x5f, 0x80, 0x80,
  0x76, 0xc6, 0xff, 0xff, 0x04, 0x00, 0x00, 0x00, 0xc2, 0x0a, 0x00, 0x00,
  0x80, 0x7f, 0x93, 0x7f, 0x69, 0xa0, 0x80, 0x7f, 0x99, 0x93, 0xad, 0x7f,
  0xa9, 0xa6, 0x7f, 0x80, 0x6e, 0x9a, 0x62, 0x94, 0x66, 0x7f, 0xa5, 0x5e,
  0xa4, 0x95, 0x80, 0xc1, 0xa8, 0x7f, 0x95, 0x6c, 0xbf, 0x7f, 0x7f, 0x69,
  0x80, 0x60, 0x6c, 0x80, 0x5f, 0x7f, 0x80, 0x6f, 0x80, 0x95, 0x80, 0x7f,
  0x56, 0x80, 0x80, 0x67, 0x7f, 0x80, 0x7f, 0x69, 0x80, 0x6d, 0x7f, 0x7f,
  0x80, 0x80, 0x80, 0x7f, 0x80, 0x7f, 0x80, 0x6a, 0x6c, 0x7f, 0x80, 0x7f,
  0x93, 0x80, 0x7f, 0x68, 0x80, 0x7f, 0xa1, 0x80, 0x6e, 0x7f, 0xa2, 0x7f,
  0x66, 0x7e, 0x93, 0x80, 0x80, 0x7f, 0x6c, 0x6e, 0x7f, 0x80, 0x80, 0x6b,
  0x80, 0x80, 0x7f, 0x7f, 0x80, 0x6b, 0x80, 0x80, 0x6c, 0x90, 0x80, 0x80,
  0x67, 0x7f, 0x65, 0x80, 0x6c, 0x80, 0x61, 0x80, 0x80, 0x80, 0x59, 0x64,
  0x80, 0x6a, 0x98, 0x92, 0x55, 0x6c, 0x67, 0x80, 0x80, 0x67, 0x5d, 0x7f,
  0x66, 0x80, 0x3c, 0x59, 0x80, 0x9d, 0x6a, 0x9e, 0xa1, 0x80, 0x80, 0x80,
  0x5c, 0x80, 0x80, 0x80, 0x59, 0x7f, 0x9f, 0x9e, 0x6c, 0xba, 0x80, 0xaf,
  0x80, 0xde, 0x7f, 0x80, 0x80, 0x80, 0xa2, 0xb9, 0xc3, 0x5b, 0x7f, 0x81,
  0xbc, 0x4f, 0xb2, 0x3f, 0x80, 0x80, 0xac, 0x80, 0x57, 0xaf, 0x80, 0x51,
  0x43, 0x81, 0x80, 0x7e, 0x22, 0x9b, 0x42, 0x60, 0x81, 0x80, 0x80, 0x81,
  0x80, 0xa3, 0x63, 0x81, 0xc8, 0xb7, 0x68, 0x80, 0x80, 0x81, 0x5c, 0x5a,
  0x57, 0xa0, 0x7f, 0x66, 0x7f, 0x7f, 0x7f, 0xa5, 0x7f, 0x7f, 0x7f, 0x57,
  0x7e, 0x7e, 0xb1, 0x80, 0x50, 0x67, 0xa0, 0x7f, 0x80, 0x7f, 0x60, 0x80,
  0x64, 0xb1, 0x7f, 0x5f, 0x52, 0x7f, 0x7d, 0x80, 0x62, 0x63, 0xac, 0xa0,
  0x7f, 0xa6, 0x9e, 0x7f, 0x80, 0x80, 0x5a, 0x80, 0x80, 0x80, 0x7f, 0x7f,
  0x66, 0x80, 0x80, 0x57, 0x80, 0x80, 0x80, 0x7f, 0x7f, 0x5d, 0x9a, 0x7f,
  0x80, 0x80, 0x81, 0x7f, 0x7f, 0x63, 0x80, 0x80, 0x80, 0x7f, 0x80, 0x80,
  0x7f, 0x80, 0x5a, 0x5d, 0xa2, 0x80, 0x80, 0x81, 0x9d, 0x7e, 0xac, 0x81,
  0x80, 0x80, 0xa5, 0x7f, 0xa4, 0xb6, 0x5e, 0x80, 0x81, 0x80, 0x80, 0x64,
  0x80, 0xa4, 0x7f, 0x7f, 0x81, 0x9a, 0x91, 0x7f, 0x7f, 0x80, 0x80, 0x80,
  0x92, 0x6d, 0x54, 0x80, 0x80, 0x80, 0x68, 0x59, 0x94, 0x80, 0x7f, 0x7f,
  0x7f, 0x68, 0x80, 0x80, 0x58, 0x9b, 0x80, 0x80, 0x80, 0x5d, 0x66, 0x63,
  0x59, 0x9d, 0x4a, 0x7f, 0x7f, 0x7f, 0x7f, 0x57, 0x80, 0x7f, 0xab, 0x80,
  0x5c, 0x9c, 0x80, 0x80, 0x80, 0x5b, 0x9f, 0x7f, 0x7f, 0xbf, 0x7f, 0x80,
  0x80, 0x9f, 0x6c, 0x80, 0x80, 0x51, 0x80, 0x81, 0x95, 0x5f, 0x80, 0x80,
  0x99, 0x95, 0x80, 0x7f, 0x54, 0x7f, 0x80, 0x5a, 0x80, 0x81, 0x6c, 0x80,
  0x80, 0x6c, 0x64, 0x67, 0x80, 0x3d, 0x80, 0x7f, 0x5f, 0x55, 0x60, 0x80,
  0x65, 0x80, 0x94, 0x59, 0x69, 0x5e, 0x80, 0x80, 0x80, 0x80, 0x80, 0x80,
  0x81, 0x9c, 0x80, 0x80, 0x93, 0x80, 0x81, 0x80, 0x96, 0x80, 0x9d, 0x6d,
  0x80, 0x80, 0x9e, 0x80, 0x96, 0x6d, 0x81, 0x80, 0x80, 0x80, 0x80, 0x9c,
  0x80, 0x80, 0x9a, 0x9d, 0x80, 0x80, 0x80, 0x81, 0x80, 0x80, 0x81, 0x65,
  0x80, 0x6b, 0x80, 0x80, 0x81, 0x80, 0xa2, 0x80, 0x80, 0x80, 0x98, 0x99,
  0x81, 0x80, 0x80, 0x8f, 0x80, 0x6b, 0xa6, 0x9b, 0x7f, 0x6e, 0x7f, 0x62,
  0x6d, 0x70, 0x96, 0x6b, 0x80, 0x70, 0x80, 0x6d, 0x80, 0x80, 0x59, 0x91,
  0x80, 0x80, 0x66, 0x80, 0x6c, 0x64, 0x45, 0x67, 0x6a, 0x80, 0x60, 0x5f,
  0x5e, 0x5a, 0x80, 0x72, 0x94, 0x80, 0x80, 0x80, 0x64, 0x60, 0x80, 0x80,
  0x6d, 0x61, 0x80, 0x92, 0x69, 0x66, 0x98, 0x80, 0x70, 0x80, 0x8e, 0x80,
  0x5c, 0x80, 0x80, 0x7f, 0x80, 0x80, 0x92, 0x8f, 0x72, 0x80, 0x81, 0x80,
  0x80, 0x66, 0x80, 0x80, 0x80, 0x5b, 0x80, 0x91, 0x6f, 0x80, 0x80, 0x80,
  0x92, 0x7f, 0x80, 0x81, 0x6b, 0x80, 0x80, 0x80, 0x80, 0x80, 0x72, 0x80,
  0x80, 0x80, 0x80, 0x80, 0x80, 0x81, 0x80, 0x68, 0x81, 0x81, 0x80, 0x80,
  0x80, 0x93, 0x8e, 0x80, 0x90, 0x80, 0x9d, 0xad, 0x6e, 0x9a, 0x80, 0x9c,
  0x80, 0x6d, 0x80, 0x81, 0x80, 0x80, 0x94, 0x9b, 0x72, 0x98, 0xa3, 0x98,
  0xa9, 0x7f, 0x8e, 0x8e, 0xa3, 0xac, 0x80, 0x70, 0x81, 0x81, 0x80, 0x80,
  0x96, 0x81, 0x7f, 0x80, 0x80, 0x80, 0x80, 0x80, 0x80, 0x6a, 0x80, 0x80,
  0x51, 0x67, 0x9c, 0x80, 0x7f, 0x7f, 0x9b, 0x63, 0x80, 0xb9, 0xc0, 0x65,
  0x7f, 0x80, 0x7f, 0x80, 0x64, 0x9a, 0x7f, 0x7f, 0x80, 0xa4, 0x7f, 0x7f,
  0xa0, 0x5b, 0x4b, 0x49, 0x7f, 0x4b, 0x7f, 0x5c, 0xb0, 0x80, 0x7f, 0x7f,
  0x7f, 0x80, 0x80, 0x9a, 0x9b, 0x60, 0x80, 0xa2, 0xc4, 0xa4, 0x80, 0x80,
  0x7f, 0x5b, 0x99, 0x49, 0x67, 0x80, 0x61, 0x80, 0x80, 0xa2, 0x64, 0x80,
  0x99, 0x7f, 0x55, 0x80, 0x80, 0x7f, 0x5f, 0x80, 0x80, 0x80, 0x80, 0x80,
  0x9e, 0x80, 0x80, 0x57, 0x5f, 0x7f, 0x46, 0x62, 0x48, 0x80, 0x80, 0x80,
  0x80, 0x80, 0xb3, 0x80, 0x80, 0xad, 0x80, 0x80, 0x48, 0x64, 0x7f, 0x80,
  0x98, 0x4b, 0x80, 0x80, 0x5f, 0x81, 0x80, 0x80, 0x64, 0x80, 0x80, 0xa4,
  0x81, 0x80, 0x7f, 0x7f, 0x7f, 0xa3, 0x7f, 0x7f, 0x99, 0x80, 0x80, 0x9e,
  0x5d, 0x9e, 0x63, 0x80, 0x7f, 0x81, 0x61, 0x80, 0xa5, 0x9b, 0x80, 0x80,
  0x80, 0x67, 0x7f, 0x80, 0x80, 0x80, 0x80, 0x62, 0x80, 0x80, 0x80, 0x80,
  0x80, 0x7f, 0x5f, 0x7f, 0x80, 0x9b, 0x64, 0x9c, 0x99, 0x80, 0x7f, 0x80,
  0x69, 0x80, 0x94, 0x80, 0x80, 0x9b, 0x6f, 0x93, 0x80, 0x9b, 0x7f, 0x94,
  0x80, 0x7f, 0x92, 0x7f, 0x91, 0x6e, 0x92, 0xb4, 0x80, 0x80, 0xa9, 0x72,
  0xa6, 0x96, 0xa1, 0x7f, 0xa1, 0xa1, 0x7f, 0x7f, 0x7f, 0x7f, 0x80, 0x80,
  0xa6, 0x80, 0x71, 0xa7, 0x71, 0x8f, 0x80, 0x80, 0x90, 0x94, 0x7f, 0x7f,
  0x80, 0x80, 0x80, 0x80, 0x80, 0x55, 0x80, 0x6c, 0x62, 0x80, 0x67, 0x97,
  0x67, 0x80, 0x80, 0x80, 0x80, 0x80, 0x80, 0x66, 0x80, 0x80, 0x5c, 0x80,
  0x58, 0x5d, 0x57, 0x4f, 0x80, 0x55, 0x80, 0x60, 0x71, 0x80, 0x80, 0x80,
  0x69, 0x92, 0x80, 0x61, 0x80, 0x46, 0x4c, 0x62, 0x5b, 0x80, 0x40, 0x70,
  0x70, 0x65, 0x80, 0x7f, 0x7f, 0x80, 0x70, 0x80, 0x7f, 0x80, 0x91, 0x91,
  0xa4, 0x99, 0x8f, 0x94, 0x90, 0x80, 0x98, 0x80, 0x7f, 0x7f, 0x6b, 0x80,
  0x8e, 0x80, 0x80, 0x80, 0x91, 0x71, 0x80, 0x80, 0x80, 0x80, 0x9b, 0x80,
  0x80, 0x7f, 0x7f, 0x71, 0x97, 0x9e, 0x80, 0x80, 0x6d, 0x5d, 0x80, 0x80,
  0x80, 0x60, 0x80, 0x80, 0x7f, 0x80, 0xc5, 0x81, 0x80, 0x80, 0xa9, 0x80,
  0x80, 0xa7, 0x6c, 0x80, 0x80, 0xab, 0x80, 0x80, 0x5f, 0x92, 0xa7, 0xa0,
  0x56, 0x80, 0x6a, 0x80, 0x80, 0x7f, 0xa6, 0x80, 0x7f, 0x80, 0x80, 0x99,
  0x80, 0x5e, 0x95, 0x97, 0x52, 0x4e, 0x64, 0x80, 0x64, 0x80, 0x9b, 0x6d,
  0x47, 0x6a, 0x80, 0x6e, 0x66, 0x81, 0x80, 0x67, 0x80, 0x80, 0x80, 0x80,
  0x60, 0x80, 0x7f, 0x80, 0x7f, 0x97, 0x93, 0x9e, 0x7f, 0x95, 0x80, 0x99,
  0x80, 0x80, 0x99, 0x80, 0x80, 0x5a, 0x80, 0x80, 0x80, 0x7f, 0x80, 0x7f,
  0x80, 0x80, 0x80, 0x96, 0x65, 0xaa, 0x80, 0x80, 0x6a, 0x66, 0x80, 0x60,
  0x80, 0x81, 0x5f, 0x80, 0x7f, 0x80, 0x68, 0x80, 0x80, 0x80, 0x5d, 0x80,
  0x51, 0x81, 0x6e, 0x80, 0x80, 0x80, 0x80, 0x7f, 0x80, 0x7f, 0x69, 0x6b,
  0x7f, 0x80, 0xae, 0x66, 0x51, 0x81, 0xa6, 0x80, 0x80, 0x80, 0x80, 0x81,
  0x64, 0x80, 0x7f, 0x80, 0x80, 0x62, 0x80, 0x94, 0x80, 0x65, 0x81, 0xb7,
  0x6b, 0xa7, 0xa0, 0x80, 0x81, 0x4e, 0x80, 0x7f, 0x80, 0x80, 0x6e, 0x80,
  0x80, 0x58, 0x80, 0x7f, 0x80, 0x80, 0x80, 0x80, 0x7f, 0x80, 0x7f, 0x80,
  0x80, 0x66, 0x7f, 0x7f, 0x7f, 0x80, 0x6d, 0x7f, 0x80, 0x80, 0x80, 0x80,
  0x80, 0x80, 0x80, 0x80, 0x94, 0x80, 0x58, 0x56, 0x7f, 0x98, 0x62, 0x5f,
  0x80, 0x6a, 0x80, 0x60, 0x80, 0x80, 0x80, 0x80, 0x63, 0x80, 0x96, 0x80,
  0x80, 0x80, 0x80, 0x66, 0x59, 0x80, 0x7f, 0x7f, 0xa3, 0x55, 0x80, 0x9c,
  0x7f, 0xab, 0xac, 0x80, 0x7f, 0x7f, 0xa3, 0x7f, 0x80, 0xa3, 0x93, 0x48,
  0xac, 0x7f, 0x80, 0x5c, 0x7f, 0x9b, 0x68, 0xad, 0x7f, 0x60, 0x4a, 0x7f,
  0x96, 0x9c, 0x50, 0x7f, 0x64, 0x80, 0x60, 0x93, 0x80, 0x7f, 0x7f, 0x47,
  0x6c, 0x80, 0x7f, 0x80, 0x5d, 0x80, 0x80, 0x5c, 0x64, 0x98, 0x80, 0x9c,
  0x6b, 0x80, 0x7f, 0x7f, 0x7f, 0x80, 0x80, 0x6a, 0x7f, 0x7f, 0x7f, 0x80,
  0x7f, 0x7f, 0x5d, 0x98, 0x7f, 0x80, 0x64, 0x80, 0x7f, 0x80, 0xa2, 0x80,
  0x5f, 0x6c, 0x7f, 0x7f, 0xaa, 0x63, 0x7f, 0x7f, 0x6c, 0x66, 0x9b, 0x80,
  0x80, 0x5f, 0x63, 0x5b, 0x80, 0x68, 0x80, 0x80, 0x80, 0x80, 0x6b, 0x62,
  0x61, 0x80, 0x56, 0x97, 0x6a, 0x67, 0x80, 0x80, 0x80, 0x80, 0x81, 0x80,
  0x80, 0x80, 0x7f, 0x81, 0x80, 0x5f, 0x80, 0x81, 0x7f, 0x66, 0x80, 0x80,
  0xb5, 0x80, 0xc1, 0xa9, 0x7f, 0xb9, 0x80, 0x59, 0x80, 0x94, 0x54, 0xc4,
  0x81, 0x95, 0x80, 0x80, 0x96, 0x7f, 0x80, 0x9f, 0xa7, 0x7f, 0x80, 0x80,
  0xa7, 0x80, 0x7f, 0x99, 0x81, 0x81, 0x80, 0x80, 0x80, 0x81, 0x7f, 0x64,
  0x81, 0x65, 0x7f, 0x64, 0x80, 0x80, 0x80, 0x80, 0x98, 0x80, 0xa0, 0x58,
  0x66, 0x6a, 0x80, 0x80, 0x58, 0xc7, 0x81, 0x80, 0x61, 0x80, 0x52, 0x81,
  0x95, 0x80, 0x96, 0x81, 0x7f, 0x80, 0x81, 0x80, 0x7f, 0x6a, 0x80, 0x67,
  0x69, 0x68, 0x80, 0x7f, 0x80, 0x7f, 0xa6, 0x7f, 0x7f, 0x9f, 0x80, 0x80,
  0x7f, 0x7f, 0x80, 0x80, 0x6c, 0x7f, 0x65, 0x80, 0x80, 0x93, 0x80, 0x9e,
  0x67, 0x7f, 0x80, 0x80, 0x6a, 0x7f, 0x80, 0x53, 0x7f, 0x61, 0x7f, 0x4b,
  0x5f, 0x63, 0x80, 0x7f, 0x7f, 0x64, 0x80, 0x80, 0x80, 0x66, 0x7f, 0x7f,
  0x54, 0x80, 0x69, 0x80, 0x53, 0x80, 0x65, 0x7f, 0x80, 0x80, 0x80, 0x6a,
  0xac, 0x80, 0x55, 0x6e, 0x5f, 0x67, 0x6b, 0x51, 0x6b, 0x4f, 0x68, 0x80,
  0x80, 0x80, 0x80, 0x6e, 0x6d, 0x92, 0x80, 0x7f, 0x80, 0x7f, 0x65, 0x65,
  0x7f, 0xb2, 0x5f, 0x7f, 0x7f, 0x6c, 0x7f, 0x67, 0x80, 0x80, 0x65, 0x6b,
  0x6b, 0x80, 0x7f, 0x7f, 0x80, 0x5c, 0x5d, 0x7f, 0x7f, 0x7f, 0x6d, 0x80,
  0x80, 0x7f, 0x6d, 0xb2, 0x80, 0x5b, 0x80, 0x68, 0x5f, 0x80, 0x5c, 0x5b,
  0x60, 0x80, 0x7f, 0x80, 0x80, 0x99, 0x6c, 0x80, 0x7f, 0x80, 0x7e, 0x80,
  0x7f, 0x6d, 0x7f, 0x7f, 0xa8, 0x6a, 0x80, 0x6b, 0x6c, 0x7f, 0x7f, 0x5b,
  0x80, 0x5f, 0x80, 0x7f, 0x80, 0xa4, 0x67, 0x80, 0x80, 0x7f, 0x7f, 0x7f,
  0x4a, 0x7f, 0x7f, 0x60, 0x80, 0x66, 0xa0, 0x80, 0x6c, 0x80, 0x7f, 0x80,
  0x80, 0x69, 0x5d, 0x80, 0x80, 0xa4, 0x6c, 0x69, 0x66, 0x93, 0x80, 0x7f,
  0x80, 0x7f, 0x80, 0x7f, 0x80, 0x93, 0x92, 0x7e, 0x7f, 0x80, 0x98, 0x6b,
  0x7f, 0x80, 0x80, 0x80, 0x58, 0x80, 0x80, 0x80, 0x90, 0x80, 0xa3, 0x80,
  0x7f, 0x7f, 0x80, 0x6a, 0x7f, 0x80, 0x5b, 0x7f, 0x68, 0x63, 0x6e, 0x80,
  0x80, 0x80, 0x7f, 0x73, 0x60, 0x68, 0x80, 0x7f, 0x7f, 0x70, 0x70, 0x70,
  0x9b, 0x80, 0x80, 0x80, 0x68, 0x80, 0x4e, 0x66, 0x80, 0x90, 0x80, 0x5c,
  0x80, 0xa8, 0x80, 0x80, 0x9a, 0x80, 0x80, 0x80, 0x80, 0x80, 0x80, 0x80,
  0x6f, 0x80, 0x80, 0x7f, 0x6b, 0x80, 0x6e, 0x80, 0x8d, 0x67, 0x80, 0x80,
  0x6c, 0x6e, 0x80, 0x80, 0x80, 0x80, 0x80, 0x80, 0x72, 0x80, 0x80, 0x90,
  0x80, 0x7f, 0x7f, 0x80, 0x80, 0x80, 0x99, 0x80, 0x6a, 0x80, 0x80, 0x6c,
  0x71, 0x7f, 0x75, 0x80, 0x80, 0x94, 0x7f, 0x80, 0x80, 0x80, 0x75, 0x8b,
  0x80, 0x80, 0x80, 0x80, 0x80, 0x8b, 0x80, 0x80, 0x80, 0x80, 0x80, 0x80,
  0x8e, 0x73, 0x80, 0x80, 0x80, 0x80, 0x93, 0x80, 0x80, 0x80, 0x80, 0x80,
  0x80, 0x80, 0x6d, 0x93, 0x94, 0x8a, 0x6c, 0x80, 0x80, 0x80, 0x6a, 0x80,
  0x95, 0x6e, 0x6e, 0x6a, 0x80, 0x80, 0x80, 0x5f, 0x92, 0x8b, 0x70, 0x71,
  0x80, 0x80, 0x80, 0x80, 0x80, 0x80, 0x80, 0x91, 0xa2, 0x80, 0x80, 0x80,
  0x74, 0x80, 0x80, 0x65, 0x80, 0x80, 0x90, 0x81, 0x80, 0x80, 0x68, 0x80,
  0x80, 0x68, 0x80, 0x69, 0x8c, 0x80, 0x6e, 0x62, 0x80, 0x80, 0x92, 0x80,
  0x80, 0x80, 0x80, 0x7f, 0x6a, 0x8c, 0x8c, 0x90, 0x80, 0x80, 0x6d, 0x72,
  0x80, 0x80, 0x9a, 0x9d, 0x71, 0x80, 0x72, 0x91, 0x93, 0x98, 0x80, 0x80,
  0x6b, 0x91, 0x80, 0x7f, 0x90, 0x94, 0x5b, 0x80, 0x67, 0x80, 0x80, 0x80,
  0x80, 0x74, 0x80, 0x80, 0x64, 0x80, 0x71, 0x91, 0x80, 0x6d, 0x68, 0x7f,
  0x80, 0x80, 0x80, 0x80, 0x80, 0x72, 0x7f, 0x80, 0x80, 0x92, 0x8d, 0x80,
  0x80, 0x74, 0x6e, 0x80, 0x7f, 0x9d, 0x8b, 0x69, 0x80, 0x80, 0x80, 0x9a,
  0x9a, 0x80, 0x92, 0x80, 0x9a, 0x80, 0x7f, 0x9f, 0x90, 0x6a, 0x8f, 0x63,
  0x80, 0x80, 0x80, 0x80, 0x6d, 0x80, 0x80, 0x6e, 0x80, 0x73, 0x90, 0x8d,
  0x74, 0x6f, 0x80, 0x80, 0x75, 0x80, 0x90, 0x80, 0x6c, 0x6f, 0x8c, 0x80,
  0x8d, 0x80, 0x80, 0x80, 0x80, 0x63, 0x80, 0x8c, 0x90, 0x80, 0x6c, 0x80,
  0x80, 0x6e, 0x95, 0x80, 0x80, 0x80, 0x80, 0x80, 0x74, 0x70, 0x9e, 0x80,
  0xcf, 0x7f, 0xa6, 0x80, 0x7f, 0x7f, 0x7f, 0x7f, 0x80, 0xa2, 0x7f, 0x7f,
  0xb4, 0x80, 0x55, 0x7e, 0xc8, 0x7e, 0x7f, 0x7e, 0x80, 0x7e, 0x7e, 0x7f,
  0x96, 0x5d, 0x7f, 0x7e, 0x7f, 0x7f, 0x7f, 0x7f, 0x7e, 0x7f, 0x4f, 0x1d,
  0x7e, 0x80, 0x7f, 0x7e, 0x61, 0x60, 0x97, 0xaa, 0x9e, 0xb0, 0x66, 0x7f,
  0xa1, 0x7e, 0x0c, 0xe5, 0xd0, 0x7f, 0x9d, 0xbc, 0x80, 0x67, 0x80, 0x80,
  0x5f, 0x80, 0x80, 0x80, 0x80, 0x80, 0x7f, 0xb0, 0x9b, 0x7f, 0x7f, 0x80,
  0x99, 0xa1, 0x66, 0x98, 0x7f, 0x7f, 0xa4, 0x5a, 0xa0, 0x80, 0x61, 0x7f,
  0x7e, 0x5b, 0x02, 0x7f, 0x67, 0x7f, 0xc2, 0x61, 0x7f, 0x7f, 0xaa, 0x9f,
  0x7f, 0x7f, 0x7f, 0x7f, 0x7f, 0x37, 0x81, 0xa9, 0x7f, 0x80, 0xa0, 0x80,
  0x80, 0x80, 0x80, 0x7f, 0x7f, 0x7f, 0x96, 0x80, 0x80, 0x80, 0x7f, 0x5b,
  0x9e, 0x7f, 0x80, 0x7f, 0x7f, 0xa2, 0x80, 0x7f, 0x7f, 0x7f, 0x49, 0x80,
  0x62, 0x7f, 0x7f, 0x7f, 0x80, 0x80, 0x80, 0x80, 0x69, 0x7f, 0xa1, 0x7f,
  0x7f, 0x80, 0x62, 0x7f, 0x7f, 0x7f, 0x80, 0x80, 0x7f, 0x80, 0x80, 0x81,
  0x80, 0x80, 0x80, 0x80, 0x66, 0x68, 0x81, 0x6b, 0x63, 0x92, 0x80, 0x6a,
  0x64, 0x80, 0x60, 0x93, 0xbf, 0x63, 0x80, 0x80, 0xa7, 0x49, 0x80, 0xd9,
  0xfe, 0x7f, 0x80, 0x93, 0xaa, 0x80, 0x7f, 0x7f, 0x62, 0x80, 0x80, 0x80,
  0x99, 0x80, 0x7f, 0x6d, 0x5a, 0x80, 0x7f, 0x5a, 0x80, 0x4d, 0xba, 0x80,
  0x7f, 0x6d, 0x80, 0x7f, 0x80, 0x67, 0x7f, 0x80, 0x67, 0x81, 0x81, 0x92,
  0x80, 0x80, 0x80, 0x80, 0x80, 0x7f, 0x7f, 0x80, 0x7f, 0x63, 0x57, 0x7f,
  0x80, 0x51, 0x80, 0x5d, 0x61, 0x80, 0x61, 0x7f, 0x65, 0x6d, 0x7f, 0x80,
  0x80, 0x7f, 0x7f, 0x80, 0x80, 0x80, 0x80, 0x80, 0x81, 0x98, 0x5f, 0x7f,
  0x80, 0x80, 0x64, 0x80, 0x67, 0x80, 0x7f, 0x80, 0x80, 0x64, 0x80, 0xa4,
  0x97, 0x80, 0x80, 0x95, 0x94, 0x80, 0x80, 0x80, 0x80, 0x80, 0x41, 0xa3,
  0x99, 0x80, 0x5e, 0x95, 0x80, 0x3c, 0x39, 0x80, 0xa1, 0x80, 0x68, 0x69,
  0x80, 0x80, 0x9d, 0x80, 0x9c, 0x80, 0x80, 0x81, 0x80, 0x80, 0xa3, 0xa1,
  0x80, 0x80, 0x7f, 0x96, 0x81, 0x6b, 0x62, 0x7f, 0x69, 0x7f, 0x63, 0x7f,
  0x69, 0x7f, 0x7f, 0x6b, 0x5a, 0x47, 0x7f, 0x7f, 0x7e, 0x7f, 0x6b, 0x53,
  0x98, 0x63, 0x99, 0x7f, 0x55, 0x7f, 0x45, 0x69, 0x91, 0x80, 0x7f, 0x51,
  0x80, 0xac, 0x5d, 0x67, 0x7f, 0x63, 0x65, 0x97, 0x9f, 0x7f, 0x66, 0x7f,
  0x63, 0x80, 0x7f, 0x9a, 0x80, 0x80, 0x4a, 0x80, 0x7f, 0x6f, 0x80, 0x61,
  0x65, 0x63, 0x80, 0x5e, 0x93, 0x80, 0x6c, 0x57, 0x57, 0x80, 0x80, 0x7f,
  0x80, 0x91, 0x58, 0xb4, 0x61, 0x7f, 0x80, 0x65, 0x80, 0x68, 0x80, 0x98,
  0x80, 0x68, 0x64, 0x80, 0xac, 0x59, 0x7f, 0x94, 0x80, 0x6b, 0x7f, 0x94,
  0x80, 0x6c, 0x80, 0x80, 0x80, 0x80, 0x7f, 0x81, 0x81, 0x7f, 0x96, 0x80,
  0x98, 0x81, 0xad, 0x6b, 0x7f, 0x95, 0x9a, 0x96, 0x98, 0x9d, 0xb8, 0x7f,
  0x80, 0x80, 0x7f, 0x94, 0x7f, 0x95, 0x6c, 0x81, 0x7f, 0x7f, 0x97, 0x80,
  0xbc, 0x80, 0x80, 0x80, 0x7f, 0x7f, 0x80, 0x54, 0xb4, 0x6a, 0x80, 0x5a,
  0x81, 0x7f, 0x7f, 0x80, 0x81, 0x7f, 0x80, 0x80, 0x92, 0x7f, 0x80, 0x80,
  0x80, 0x6f, 0x5c, 0xa0, 0x63, 0xa9, 0x96, 0xab, 0x9d, 0x80, 0x7f, 0x80,
  0x7f, 0xb2, 0x9a, 0x7f, 0x80, 0x80, 0x7f, 0x7f, 0x7f, 0x80, 0x80, 0xab,
  0x80, 0x7f, 0x80, 0x95, 0x7f, 0x5c, 0x41, 0x64, 0x7f, 0x63, 0x64, 0x95,
  0x6a, 0x59, 0x80, 0x80, 0xb2, 0x95, 0x80, 0x6b, 0x65, 0x80, 0x94, 0xa3,
  0x58, 0x7f, 0x80, 0x9d, 0x80, 0x53, 0xa9, 0x80, 0x9f, 0x80, 0x80, 0x5d,
  0x9a, 0x41, 0x64, 0x7e, 0x62, 0x80, 0x5c, 0x80, 0x65, 0x6b, 0x81, 0x7f,
  0x80, 0x6a, 0x80, 0x80, 0x68, 0x80, 0x68, 0x3e, 0x3e, 0x00, 0x80, 0x5f,
  0x80, 0x38, 0x5f, 0x67, 0x80, 0x64, 0x80, 0xa2, 0x81, 0x5e, 0x80, 0x6b,
  0x80, 0x7f, 0x80, 0x64, 0x6a, 0x81, 0x80, 0x80, 0x4f, 0x80, 0x7f, 0x7f,
  0x63, 0x7f, 0x7f, 0x7f, 0x59, 0xb2, 0x7e, 0x67, 0x50, 0xa0, 0x7f, 0xaf,
  0x80, 0xaa, 0x80, 0x80, 0x7f, 0x80, 0x7f, 0x9d, 0x80, 0x47, 0x65, 0x7e,
  0xa2, 0xa5, 0x80, 0x94, 0x80, 0x6b, 0xa4, 0x80, 0x5c, 0x80, 0x80, 0x7f,
  0x94, 0x5e, 0x80, 0xb0, 0x7f, 0x7f, 0x7f, 0x95, 0x98, 0x80, 0x9e, 0x81,
  0x80, 0x5a, 0x9f, 0x80, 0xa5, 0x80, 0x80, 0x7f, 0x80, 0x7f, 0x7f, 0xa5,
  0x7f, 0x80, 0x80, 0x97, 0x80, 0x9b, 0x56, 0x80, 0x80, 0x80, 0x80, 0x63,
  0x7f, 0x80, 0x7f, 0x4d, 0x7f, 0x80, 0x80, 0x5a, 0x80, 0x80, 0x80, 0x80,
  0x5b, 0xad, 0x66, 0x95, 0x80, 0x80, 0x80, 0x80, 0x80, 0x80, 0x5c, 0x80,
  0x80, 0x80, 0x80, 0x37, 0x80, 0x80, 0x40, 0x56, 0x80, 0x96, 0x7f, 0xa7,
  0x7f, 0x64, 0x46, 0x95, 0x80, 0x96, 0x65, 0x80, 0x80, 0x9e, 0x80, 0x80,
  0x80, 0x6b, 0x80, 0x62, 0x80, 0xa5, 0x80, 0x80, 0x6a, 0x96, 0x95, 0x80,
  0x80, 0x80, 0xd5, 0x80, 0xb3, 0x97, 0x80, 0x95, 0x7f, 0x80, 0x80, 0x80,
  0x80, 0x80, 0x80, 0x66, 0x80, 0x80, 0x50, 0x62, 0x80, 0x61, 0x48, 0x80,
  0x96, 0x80, 0x80, 0x80, 0x67, 0x80, 0x80, 0x80, 0x80, 0x61, 0x57, 0x9d,
  0x62, 0x80, 0x80, 0x80, 0x80, 0x80, 0x80, 0x59, 0x98, 0x80, 0x98, 0x80,
  0x80, 0x67, 0xac, 0x65, 0x80, 0xb2, 0x80, 0xa2, 0x80, 0x80, 0x80, 0xa4,
  0x80, 0x80, 0x80, 0x80, 0x97, 0x69, 0x7f, 0x80, 0x80, 0x7f, 0x67, 0x68,
  0x80, 0x80, 0x7f, 0x7f, 0x7f, 0x80, 0x80, 0x80, 0x91, 0x7f, 0x80, 0x6b,
  0x7f, 0x7f, 0x5c, 0x97, 0x5c, 0x97, 0x80, 0x5c, 0x94, 0x7f, 0x7f, 0x60,
  0x4b, 0x58, 0x7f, 0x80, 0x80, 0x5b, 0x80, 0x62, 0x9d, 0x6c, 0x96, 0x9c,
  0x62, 0x93, 0x5e, 0x5c, 0x99, 0x94, 0x9a, 0x5d, 0x80, 0x80, 0x7f, 0x7f,
  0x7f, 0x80, 0x80, 0x5b, 0x80, 0x93, 0x80, 0x7f, 0x97, 0x80, 0x80, 0x80,
  0x7f, 0x93, 0x80, 0x95, 0x97, 0x68, 0x9c, 0x6d, 0x80, 0x6d, 0x80, 0x96,
  0x6a, 0x80, 0x5b, 0x56, 0x6a, 0x6a, 0x9f, 0x96, 0x67, 0x80, 0x7f, 0x68,
  0x7f, 0x80, 0x80, 0x80, 0x80, 0x5b, 0x6a, 0x80, 0x80, 0xb2, 0x64, 0x94,
  0x6a, 0x7f, 0x80, 0x80, 0x81, 0x80, 0x80, 0x67, 0x80, 0x80, 0x6d, 0x80,
  0x80, 0x80, 0x80, 0x6e, 0x80, 0x98, 0x80, 0x9a, 0x80, 0x92, 0x80, 0x97,
  0x80, 0x80, 0x80, 0x7f, 0x80, 0x67, 0x66, 0x80, 0x80, 0x80, 0x9f, 0x80,
  0x80, 0x80, 0x5f, 0x80, 0x80, 0x80, 0x80, 0x80, 0x80, 0x6b, 0x80, 0x80,
  0x80, 0x80, 0x80, 0x6d, 0x80, 0x80, 0x00, 0x00, 0x46, 0xd1, 0xff, 0xff,
  0x04, 0x00, 0x00, 0x00, 0x48, 0x00, 0x00, 0x00, 0x7e, 0x9d, 0x6b, 0xbf,
  0xa6, 0x70, 0x80, 0x80, 0xad, 0x81, 0x6a, 0x7f, 0xad, 0x3d, 0x9f, 0xa1,
  0x5e, 0x61, 0x45, 0xb6, 0x84, 0x81, 0x9c, 0xa1, 0x3d, 0x4e, 0x36, 0x67,
  0xc1, 0xc2, 0xe3, 0xbc, 0xff, 0x81, 0xa1, 0x58, 0x81, 0x80, 0xa6, 0xb1,
  0x58, 0x82, 0x9e, 0x83, 0xb3, 0x9d, 0x7e, 0xa4, 0x5b, 0x90, 0xc4, 0x7e,
  0x8e, 0x82, 0x9a, 0x81, 0x5b, 0x3b, 0x8d, 0xce, 0xd8, 0x69, 0xae, 0x9b,
  0xc0, 0x7e, 0x80, 0x63, 0x56, 0x54, 0x5b, 0x5c, 0x9a, 0xd1, 0xff, 0xff,
  0x04, 0x00, 0x00, 0x00, 0x90, 0x09, 0x00, 0x00, 0x80, 0xa7, 0x81, 0x5b,
  0xa0, 0x80, 0x81, 0x81, 0x80, 0xa5, 0x58, 0x80, 0x80, 0x80, 0xac, 0x81,
  0x81, 0xa5, 0x81, 0x80, 0x81, 0x80, 0x81, 0x80, 0x4a, 0x80, 0x33, 0x80,
  0x4b, 0x80, 0xa6, 0x81, 0x80, 0xb2, 0x81, 0x80, 0x81, 0x80, 0x81, 0x51,
  0x80, 0x55, 0x4f, 0x81, 0x55, 0x80, 0x62, 0x81, 0x80, 0x80, 0x5d, 0x60,
  0x7f, 0x58, 0x80, 0x80, 0x5b, 0xc4, 0x80, 0x81, 0x80, 0x80, 0x7f, 0x80,
  0x80, 0x81, 0x5f, 0x80, 0x7f, 0x7f, 0x80, 0x9e, 0x45, 0xb6, 0x50, 0x81,
  0x51, 0x80, 0x7f, 0x80, 0x80, 0xa1, 0x80, 0x80, 0x55, 0x7f, 0xa7, 0x80,
  0x80, 0x52, 0x5f, 0x81, 0x53, 0x80, 0x80, 0x5f, 0x80, 0x80, 0xa4, 0x80,
  0x80, 0x80, 0x80, 0x80, 0x7f, 0x80, 0x80, 0x80, 0x80, 0x80, 0x80, 0x80,
  0xa1, 0x80, 0x80, 0x80, 0x80, 0x80, 0x80, 0xb7, 0xa1, 0xa6, 0x7f, 0x80,
  0x80, 0x80, 0x80, 0x80, 0x80, 0x80, 0x80, 0x80, 0x80, 0x80, 0x5a, 0x80,
  0x80, 0x80, 0x80, 0x9f, 0x80, 0x80, 0x80, 0x80, 0x80, 0x94, 0x80, 0x80,
  0x80, 0x80, 0x80, 0x80, 0x80, 0x80, 0x80, 0x80, 0x80, 0x80, 0x80, 0x80,
  0x51, 0x80, 0x80, 0x80, 0x80, 0x5f, 0x80, 0x64, 0x6a, 0x80, 0x80, 0x69,
  0x64, 0x66, 0x54, 0x80, 0x80, 0x80, 0x80, 0x80, 0x80, 0x5c, 0x80, 0x80,
  0x80, 0x9a, 0x80, 0x80, 0x68, 0x66, 0x9b, 0x80, 0x66, 0x80, 0x80, 0x96,
  0x80, 0x80, 0x80, 0x80, 0x6b, 0x80, 0x51, 0x80, 0x57, 0x69, 0x80, 0x80,
  0x4a, 0x65, 0x80, 0x9c, 0x80, 0x5b, 0x80, 0x54, 0x67, 0x80, 0x5a, 0x80,
  0x53, 0x59, 0x55, 0x80, 0x67, 0x80, 0x80, 0x98, 0x80, 0x5b, 0x80, 0x80,
  0x5b, 0x80, 0x67, 0x80, 0x56, 0x5a, 0x80, 0x80, 0x80, 0x9a, 0x80, 0x80,
  0x80, 0x80, 0xa2, 0x95, 0x97, 0x80, 0x80, 0x80, 0x80, 0x80, 0x80, 0x9b,
  0x67, 0x80, 0x80, 0x80, 0x80, 0x80, 0x80, 0x80, 0x80, 0x80, 0x61, 0x6c,
  0x80, 0x6a, 0x80, 0x80, 0x80, 0x80, 0x80, 0x80, 0x80, 0x7f, 0x80, 0x80,
  0x80, 0x80, 0x80, 0x80, 0x80, 0x80, 0x80, 0x80, 0x80, 0x80, 0xad, 0x6f,
  0x7f, 0x80, 0x80, 0x6e, 0xa3, 0x80, 0x80, 0x80, 0x80, 0x92, 0xb7, 0x80,
  0x80, 0x65, 0x7f, 0x80, 0x80, 0x80, 0x80, 0x6d, 0x80, 0x68, 0x80, 0x6f,
  0x80, 0x80, 0x9c, 0x6a, 0x80, 0x70, 0x6d, 0x80, 0x80, 0x80, 0x80, 0x6c,
  0x80, 0x80, 0x92, 0x80, 0xa4, 0x80, 0x80, 0x80, 0x80, 0x6d, 0x61, 0x80,
  0x90, 0x80, 0x80, 0x63, 0x80, 0x80, 0x65, 0x66, 0x80, 0x92, 0x80, 0x96,
  0x80, 0x6a, 0x59, 0x80, 0x80, 0x95, 0x80, 0x51, 0x5d, 0x80, 0x54, 0x66,
  0x66, 0x90, 0x80, 0x80, 0x80, 0x80, 0x49, 0x80, 0x80, 0x80, 0x80, 0x66,
  0x68, 0x80, 0x67, 0x60, 0x6b, 0x80, 0x80, 0x80, 0x90, 0x80, 0x7f, 0x80,
  0x80, 0x80, 0x80, 0x80, 0x80, 0x94, 0x80, 0x80, 0x80, 0x80, 0x80, 0x91,
  0x6b, 0x7f, 0x7f, 0x80, 0x80, 0x80, 0x80, 0x80, 0x60, 0x95, 0x80, 0x7f,
  0x80, 0x80, 0x80, 0x91, 0x80, 0x80, 0x69, 0x80, 0x80, 0x67, 0x80, 0x91,
  0x80, 0x80, 0x80, 0x80, 0x80, 0x80, 0x80, 0x8f, 0x58, 0x80, 0x4f, 0x80,
  0x80, 0x7f, 0x80, 0x80, 0xb7, 0x80, 0xbb, 0x80, 0x80, 0x43, 0x80, 0x80,
  0x80, 0x80, 0x80, 0x80, 0x80, 0xce, 0x80, 0x5e, 0x80, 0x80, 0x7f, 0x80,
  0x80, 0x81, 0xdb, 0x80, 0x3a, 0x80, 0x80, 0x80, 0x80, 0x7f, 0x80, 0x80,
  0x80, 0x80, 0x80, 0x80, 0x80, 0x59, 0xb9, 0x80, 0x80, 0x80, 0x80, 0x80,
  0x80, 0x7f, 0x80, 0x80, 0xb9, 0x80, 0x80, 0x80, 0x80, 0x80, 0x80, 0x80,
  0xf2, 0x5d, 0x80, 0x80, 0x48, 0xca, 0x7f, 0x80, 0x80, 0x80, 0x30, 0x80,
  0x3e, 0x7f, 0xb7, 0x4a, 0x7f, 0x7f, 0x80, 0x80, 0x80, 0x7f, 0x59, 0xa3,
  0x80, 0x80, 0x59, 0x80, 0x80, 0x7f, 0xa4, 0x80, 0x7f, 0x80, 0x80, 0x80,
  0x80, 0x3d, 0xa2, 0x80, 0x80, 0x80, 0x80, 0x80, 0x80, 0x80, 0x80, 0xa6,
  0xe6, 0x80, 0x80, 0x80, 0x55, 0x7f, 0x80, 0xc7, 0x80, 0x80, 0x57, 0x80,
  0x54, 0x7e, 0x53, 0x80, 0x7f, 0x80, 0x5d, 0x80, 0x80, 0x7f, 0x7f, 0xa6,
  0x7f, 0x80, 0x80, 0xbb, 0x5a, 0x7f, 0x80, 0x80, 0x7f, 0x80, 0x9e, 0x80,
  0x7f, 0x7f, 0x80, 0x61, 0x80, 0x9e, 0x7f, 0x80, 0x80, 0x80, 0x80, 0x7f,
  0x7f, 0x80, 0x81, 0x9e, 0xac, 0x58, 0x7f, 0x7f, 0x80, 0xac, 0x80, 0x51,
  0x80, 0x80, 0x80, 0xae, 0x7f, 0xa6, 0xb9, 0xa1, 0x7f, 0x7f, 0x80, 0x7f,
  0x80, 0x80, 0x7f, 0x81, 0xa6, 0x7f, 0x80, 0x7f, 0x5d, 0x80, 0x80, 0xb1,
  0x80, 0x7f, 0x80, 0x58, 0x62, 0xba, 0x3b, 0x7f, 0x7f, 0x7f, 0x5b, 0x7f,
  0x58, 0x80, 0x53, 0xa2, 0xca, 0x53, 0x80, 0x80, 0x60, 0xc3, 0x55, 0x7f,
  0x7f, 0x5e, 0x53, 0xb6, 0x7f, 0x80, 0x80, 0x7f, 0x80, 0x7f, 0x80, 0xa6,
  0x7f, 0x80, 0x7e, 0x9d, 0x4c, 0x7f, 0x80, 0x7f, 0x4e, 0x7f, 0x7f, 0x80,
  0x7f, 0x7e, 0x7f, 0x7f, 0x7f, 0x80, 0x5d, 0x7e, 0x7e, 0x54, 0x80, 0x7f,
  0x57, 0x7f, 0x7f, 0x80, 0x7f, 0x7e, 0x9b, 0x7f, 0x7f, 0x80, 0xa3, 0x9e,
  0x7e, 0x4a, 0x80, 0x7f, 0x7f, 0x7f, 0x61, 0x7f, 0x7f, 0x7e, 0x7e, 0x7f,
  0x7f, 0x80, 0xa2, 0x7f, 0x7e, 0x62, 0x80, 0x7f, 0x64, 0x9a, 0x7f, 0x57,
  0xaa, 0x5e, 0x7f, 0x7f, 0x7f, 0x80, 0x52, 0x7f, 0x5e, 0x80, 0x7f, 0x7f,
  0x4d, 0x7f, 0x7f, 0x80, 0x7f, 0x62, 0x65, 0x7f, 0x7f, 0x80, 0x65, 0x7f,
  0x64, 0x65, 0x7f, 0x7f, 0x65, 0x7f, 0x7f, 0x80, 0x7f, 0x7f, 0x7e, 0x80,
  0x7f, 0x80, 0x63, 0x7f, 0x7f, 0x80, 0x7f, 0x7f, 0x81, 0x80, 0x80, 0x58,
  0x81, 0xb1, 0x80, 0x81, 0x7f, 0x80, 0x2f, 0x80, 0x4d, 0x80, 0x63, 0x81,
  0x81, 0x80, 0x7f, 0x64, 0x81, 0xa4, 0x80, 0x62, 0x80, 0x80, 0x55, 0x7f,
  0x55, 0x80, 0x80, 0x81, 0x81, 0x9c, 0x7f, 0x81, 0x81, 0x9d, 0x7f, 0x80,
  0x80, 0x61, 0x5f, 0x7f, 0x80, 0x81, 0x80, 0x81, 0x9c, 0x80, 0x81, 0x81,
  0x80, 0x82, 0x5e, 0x81, 0x81, 0x80, 0x81, 0x64, 0x81, 0xcf, 0x5b, 0x81,
  0x81, 0x80, 0x81, 0x81, 0x80, 0x82, 0x65, 0x80, 0x5f, 0x80, 0x81, 0x7f,
  0x81, 0x81, 0x7f, 0x81, 0x81, 0x80, 0x81, 0x81, 0x80, 0x83, 0x80, 0x80,
  0x81, 0x80, 0x81, 0x80, 0x82, 0xa0, 0x7f, 0x66, 0xb9, 0x7f, 0x80, 0x7f,
  0x4a, 0xbd, 0x7e, 0x7f, 0x7f, 0x7f, 0x7f, 0x7f, 0x7f, 0x7e, 0x80, 0x58,
  0x7f, 0x2e, 0x51, 0x7f, 0x80, 0x7e, 0x7e, 0x80, 0x7f, 0x7f, 0xbc, 0x7f,
  0x80, 0xc0, 0x7f, 0x56, 0x7f, 0x7f, 0x53, 0x7f, 0x54, 0x80, 0xbb, 0x80,
  0x7f, 0x7f, 0xad, 0x7f, 0x80, 0x7f, 0x5a, 0x80, 0xb7, 0x7f, 0x80, 0x80,
  0x82, 0x80, 0x7f, 0x80, 0x80, 0x80, 0x81, 0x7f, 0x80, 0xc3, 0x80, 0x5d,
  0x7f, 0x7e, 0x51, 0x80, 0xbe, 0x7f, 0x7f, 0x80, 0x52, 0xa7, 0xbe, 0x7e,
  0x7f, 0xc2, 0xc2, 0x81, 0x55, 0x7e, 0x3a, 0x59, 0x81, 0x4d, 0x7f, 0xc8,
  0x80, 0xbd, 0x80, 0x7f, 0x80, 0x80, 0xff, 0x81, 0x80, 0x81, 0x81, 0x7f,
  0x81, 0x80, 0x81, 0x81, 0x81, 0x80, 0x82, 0x81, 0xaf, 0x7f, 0x80, 0x81,
  0x7f, 0x48, 0x81, 0x7f, 0xb1, 0x80, 0x80, 0x80, 0x50, 0xb0, 0x81, 0x80,
  0x2f, 0xba, 0xaa, 0xac, 0x80, 0x80, 0x81, 0x80, 0x81, 0x55, 0x81, 0x80,
  0x80, 0xe5, 0x3c, 0x81, 0x57, 0x7f, 0xba, 0xd0, 0x7f, 0x7f, 0x57, 0x80,
  0xb3, 0x7f, 0x7f, 0x7f, 0x7f, 0xb0, 0x80, 0x7f, 0x5d, 0x7f, 0x7f, 0xa1,
  0x80, 0x7f, 0x37, 0x80, 0x80, 0x7f, 0x7f, 0x7f, 0x7e, 0x7f, 0x80, 0x7f,
  0x5c, 0x7f, 0x5d, 0x80, 0x80, 0x80, 0x29, 0x80, 0x80, 0x7f, 0x7f, 0x80,
  0x7f, 0x80, 0x53, 0x7f, 0x80, 0x80, 0x22, 0x80, 0x80, 0x80, 0x43, 0x80,
  0x82, 0x81, 0x7f, 0xa6, 0x7f, 0xa3, 0x81, 0x7f, 0x81, 0x7f, 0x80, 0x81,
  0x80, 0x7f, 0x4a, 0x80, 0x60, 0xbb, 0x7f, 0xb2, 0xa7, 0x7f, 0xb4, 0x7f,
  0x81, 0x7f, 0xad, 0x5f, 0x5f, 0x4f, 0x12, 0x80, 0x82, 0x82, 0x81, 0x81,
  0xbd, 0x52, 0x81, 0x5a, 0x81, 0x80, 0x81, 0x81, 0x81, 0x7f, 0x82, 0x82,
  0x81, 0x82, 0x80, 0x81, 0x80, 0x80, 0x81, 0x7f, 0x81, 0x81, 0x80, 0x81,
  0xce, 0x7f, 0x82, 0x82, 0x80, 0x82, 0x80, 0x81, 0x52, 0x7f, 0x81, 0x7f,
  0x81, 0x80, 0xa8, 0x80, 0x81, 0x7f, 0x35, 0x81, 0x81, 0x83, 0x60, 0xa7,
  0x58, 0x80, 0x82, 0x5a, 0x82, 0xbb, 0x80, 0x81, 0x80, 0x80, 0x93, 0x80,
  0x93, 0x7f, 0x80, 0x80, 0x80, 0x80, 0x7f, 0x80, 0x80, 0x80, 0x96, 0x80,
  0x80, 0x80, 0x80, 0x80, 0xa1, 0x7f, 0x80, 0x70, 0x60, 0x80, 0x60, 0x80,
  0x69, 0x80, 0x9d, 0x90, 0x80, 0x80, 0x80, 0x80, 0x80, 0x96, 0x6f, 0x80,
  0x80, 0x80, 0x7f, 0x80, 0x7f, 0x80, 0x80, 0x92, 0x80, 0x67, 0x80, 0x80,
  0x80, 0x80, 0x80, 0x80, 0x5a, 0x80, 0x56, 0x64, 0x5e, 0x80, 0x93, 0x80,
  0x80, 0x67, 0x80, 0x69, 0x9b, 0x80, 0x80, 0x80, 0x3b, 0x80, 0x47, 0x5a,
  0x3d, 0x80, 0x9b, 0x80, 0x80, 0x80, 0x80, 0x80, 0x80, 0x80, 0x80, 0x6e,
  0x4c, 0x68, 0x67, 0x5d, 0x64, 0x80, 0x80, 0x80, 0x80, 0x80, 0x80, 0x80,
  0x80, 0x80, 0x80, 0x92, 0x80, 0x80, 0x80, 0x80, 0x80, 0x80, 0x80, 0x80,
  0x80, 0x80, 0x80, 0x80, 0x80, 0x80, 0x80, 0x80, 0x6e, 0x80, 0x6f, 0x67,
  0x68, 0x80, 0x80, 0x80, 0x80, 0x80, 0x80, 0x80, 0x71, 0x81, 0x80, 0x80,
  0x5e, 0x80, 0x80, 0x80, 0x80, 0x80, 0x80, 0x80, 0x7f, 0x7f, 0x7f, 0x7f,
  0x7f, 0x7f, 0x7f, 0x7f, 0x5a, 0x80, 0x7f, 0x65, 0x64, 0x7f, 0x80, 0x7f,
  0xa5, 0x7f, 0x98, 0x80, 0x60, 0x5c, 0x7f, 0x9b, 0x7f, 0x7f, 0x7f, 0x80,
  0x80, 0x7f, 0x7f, 0x7f, 0x7f, 0x80, 0xa0, 0x80, 0x7f, 0x7f, 0x80, 0xb4,
  0x5e, 0x80, 0x9b, 0x80, 0x80, 0x7f, 0x7f, 0x7f, 0x58, 0x80, 0x7f, 0x80,
  0x81, 0x80, 0x7f, 0x5e, 0x64, 0x61, 0x60, 0x62, 0x80, 0x80, 0x80, 0x80,
  0x65, 0x7f, 0x7f, 0x68, 0x80, 0x80, 0x9a, 0x65, 0xd4, 0x64, 0xbd, 0x9d,
  0xc6, 0x80, 0x80, 0x80, 0x80, 0x7f, 0x7f, 0x80, 0x80, 0x80, 0x7f, 0x7f,
  0xbd, 0x9e, 0xbe, 0xc0, 0xd6, 0x7f, 0x80, 0x80, 0xa3, 0x80, 0x80, 0x7f,
  0x80, 0x80, 0x80, 0x63, 0x80, 0x80, 0x81, 0x80, 0x80, 0x80, 0x80, 0x80,
  0x80, 0x98, 0x80, 0xa2, 0x80, 0xb3, 0x80, 0x5e, 0x4f, 0x80, 0x80, 0x5c,
  0x80, 0xb8, 0x80, 0x80, 0x80, 0x9d, 0x65, 0x80, 0x80, 0x80, 0x80, 0x80,
  0x53, 0x80, 0x80, 0x5d, 0x80, 0x80, 0x80, 0x80, 0x80, 0x80, 0x80, 0x80,
  0x80, 0x80, 0x80, 0x80, 0x80, 0x8a, 0x80, 0x80, 0x80, 0x80, 0x80, 0x80,
  0x80, 0x80, 0x80, 0x80, 0x80, 0x80, 0x80, 0x8e, 0x80, 0x93, 0x80, 0x80,
  0x8b, 0x80, 0x80, 0x80, 0x80, 0x80, 0x80, 0x80, 0x92, 0x73, 0x80, 0x90,
  0x80, 0x80, 0x80, 0x80, 0x8b, 0x80, 0x8c, 0x92, 0x80, 0x74, 0x80, 0x80,
  0x80, 0x8b, 0x80, 0x80, 0x80, 0x80, 0x80, 0x71, 0x80, 0x80, 0x8b, 0x80,
  0x74, 0x75, 0x67, 0x80, 0x80, 0x80, 0x80, 0x8a, 0x80, 0x80, 0x80, 0x6e,
  0x80, 0x80, 0x80, 0x8a, 0x67, 0x80, 0x80, 0x6e, 0x8a, 0x74, 0x8a, 0x80,
  0x80, 0x80, 0x80, 0x70, 0x80, 0x6d, 0x80, 0x93, 0x80, 0x72, 0x80, 0x80,
  0x80, 0x80, 0x74, 0x80, 0x80, 0x80, 0x80, 0x73, 0x80, 0x80, 0x8d, 0x80,
  0x80, 0x72, 0x6d, 0x80, 0x80, 0x80, 0x72, 0x80, 0x6a, 0x80, 0x72, 0x72,
  0x80, 0x80, 0x80, 0x80, 0x6e, 0x6e, 0x72, 0x80, 0x80, 0x80, 0x80, 0x80,
  0x71, 0x80, 0x74, 0x80, 0x74, 0x72, 0x80, 0x80, 0x7f, 0x64, 0x80, 0x80,
  0x80, 0x80, 0x9b, 0x80, 0x80, 0x80, 0x81, 0x7f, 0x81, 0x7f, 0x69, 0x80,
  0xd3, 0x67, 0xa4, 0xae, 0x80, 0xd9, 0x80, 0x7f, 0x60, 0x7f, 0x80, 0x7f,
  0x5c, 0x7f, 0x80, 0x80, 0x60, 0x7f, 0x80, 0x5b, 0x99, 0x5b, 0x7f, 0x80,
  0x68, 0x80, 0x81, 0x7f, 0x61, 0x80, 0xa8, 0x81, 0x7f, 0x58, 0x80, 0x80,
  0x81, 0x62, 0x80, 0x80, 0xa1, 0x80, 0x80, 0x7f, 0xa6, 0x7e, 0x80, 0x81,
  0x9d, 0x7f, 0x80, 0x7f, 0x81, 0x69, 0x7f, 0x80, 0x9a, 0x7f, 0xd9, 0x7f,
  0xcc, 0xfa, 0x80, 0xa1, 0x60, 0xa8, 0x80, 0x54, 0xad, 0x51, 0x7f, 0x80,
  0x66, 0xa8, 0x81, 0x7f, 0x80, 0x7f, 0x81, 0x9d, 0x50, 0x7f, 0x7f, 0x80,
  0x80, 0x80, 0x7f, 0x7f, 0x98, 0x80, 0x80, 0x7f, 0x7f, 0x80, 0x80, 0x97,
  0x45, 0x7f, 0x7f, 0x64, 0x80, 0x4c, 0x7f, 0x7f, 0x7f, 0x98, 0x80, 0x7f,
  0x7f, 0x4d, 0x64, 0x80, 0x58, 0x7f, 0x7f, 0x80, 0x7f, 0x80, 0x80, 0x80,
  0x5b, 0x7f, 0x65, 0x7f, 0x80, 0x80, 0x80, 0x80, 0x80, 0x84, 0xad, 0xb5,
  0x82, 0x81, 0x84, 0x82, 0x83, 0x81, 0x83, 0x84, 0x82, 0x80, 0x48, 0x59,
  0x80, 0x83, 0x83, 0x81, 0x82, 0x46, 0x84, 0x81, 0x83, 0x81, 0x83, 0x83,
  0xbf, 0x80, 0x32, 0x4d, 0x80, 0x83, 0x82, 0x81, 0x82, 0x42, 0x84, 0x81,
  0x83, 0xb1, 0x83, 0x83, 0xb4, 0x80, 0x41, 0x5b, 0x3a, 0x81, 0x4d, 0x7f,
  0x80, 0x7e, 0x82, 0x80, 0x83, 0x81, 0x80, 0x83, 0x80, 0x80, 0x80, 0x80,
  0x26, 0x57, 0x24, 0x80, 0xb3, 0x36, 0x82, 0x7f, 0x83, 0x81, 0x80, 0x83,
  0x80, 0x42, 0x4a, 0xad, 0x29, 0x82, 0x81, 0x80, 0x7e, 0x3e, 0xaa, 0x80,
  0xb5, 0x81, 0x80, 0x84, 0x80, 0x4b, 0x43, 0xbc, 0x7f, 0x81, 0x7f, 0x7f,
  0x7f, 0x7d, 0x7f, 0x7f, 0xde, 0x80, 0xb9, 0xbc, 0xad, 0x7f, 0x7f, 0x7e,
  0x53, 0x81, 0x7f, 0xb1, 0x7f, 0x7e, 0x7f, 0x7e, 0xaf, 0x80, 0xc1, 0xae,
  0xb7, 0x52, 0x7f, 0x7e, 0x7e, 0x81, 0x7f, 0x7f, 0x7f, 0x7e, 0x7f, 0x7e,
  0xc3, 0x80, 0xb3, 0xc6, 0x7f, 0x52, 0x7f, 0x7e, 0x80, 0x80, 0x80, 0x80,
  0x80, 0x80, 0x80, 0x80, 0x80, 0x80, 0x80, 0x80, 0x80, 0x80, 0x80, 0x80,
  0x93, 0x7f, 0x80, 0x80, 0x80, 0x80, 0x99, 0x80, 0x80, 0x80, 0x80, 0x80,
  0x80, 0x80, 0x97, 0x80, 0x80, 0x80, 0x80, 0x80, 0x80, 0x80, 0x80, 0x80,
  0x91, 0x80, 0x80, 0x80, 0x80, 0x80, 0x80, 0x80, 0x80, 0x80, 0x80, 0x80,
  0x80, 0x80, 0x80, 0x6f, 0x5a, 0x80, 0x70, 0x80, 0x66, 0x80, 0x80, 0x80,
  0x80, 0x80, 0x80, 0x80, 0x91, 0x69, 0x80, 0x80, 0x4c, 0x80, 0x5d, 0x56,
  0x59, 0x80, 0x80, 0x98, 0x80, 0x80, 0x6f, 0x80, 0x80, 0x80, 0x80, 0x80,
  0x68, 0x80, 0x80, 0x5d, 0x80, 0x80, 0x80, 0x80, 0x80, 0x80, 0x90, 0x80,
  0x80, 0x80, 0x7f, 0x6b, 0x80, 0x80, 0x80, 0x80, 0x69, 0x6d, 0x80, 0x80,
  0x6e, 0x80, 0x80, 0x80, 0x80, 0x80, 0x80, 0x67, 0x62, 0x80, 0x5f, 0x80,
  0x69, 0x69, 0x6d, 0x96, 0x80, 0x61, 0x80, 0x80, 0x80, 0x80, 0x6f, 0x5e,
  0x6b, 0x80, 0x6a, 0x80, 0x66, 0x6c, 0x80, 0x80, 0x81, 0x80, 0x95, 0x80,
  0x80, 0x80, 0x80, 0x80, 0x80, 0x80, 0x58, 0x81, 0x80, 0x81, 0x7f, 0x80,
  0x81, 0x80, 0x80, 0x80, 0xa1, 0x81, 0x80, 0x54, 0x57, 0x80, 0x44, 0x80,
  0x4d, 0x81, 0x80, 0xa1, 0x80, 0x80, 0x80, 0x80, 0x80, 0x80, 0x80, 0x80,
  0x81, 0x80, 0x62, 0x80, 0x5a, 0x81, 0x80, 0x80, 0x80, 0x80, 0x7f, 0x80,
  0x80, 0x80, 0x80, 0x65, 0x80, 0x80, 0x80, 0x81, 0x6b, 0x81, 0x5c, 0x80,
  0x80, 0x80, 0x7f, 0x80, 0x80, 0x7f, 0x98, 0x55, 0x6a, 0x80, 0x58, 0x80,
  0x45, 0x81, 0x62, 0x80, 0x80, 0x80, 0x7f, 0x80, 0x80, 0x80, 0x80, 0x69,
  0x80, 0x80, 0x5d, 0x80, 0x64, 0x80, 0x6a, 0xa6, 0x80, 0x80, 0x7f, 0x80,
  0x80, 0x80, 0x80, 0x80, 0x80, 0x80, 0x80, 0x81, 0x80, 0x80, 0x7f, 0x80,
  0x80, 0x81, 0x80, 0x80, 0x9b, 0x95, 0x99, 0x80, 0x63, 0x80, 0x68, 0x81,
  0x80, 0x99, 0x80, 0x80, 0x80, 0x80, 0x80, 0x80, 0x80, 0x68, 0xa0, 0x80,
  0x80, 0x80, 0x66, 0x81, 0x64, 0x80, 0x97, 0x80, 0x7f, 0x7f, 0x7e, 0x7f,
  0x80, 0x7f, 0x7f, 0x7f, 0x80, 0x80, 0x7f, 0x5e, 0x7f, 0x7e, 0x80, 0x80,
  0x3f, 0x7f, 0x7f, 0x5e, 0x80, 0x42, 0x7f, 0x7f, 0x7f, 0x5d, 0xa0, 0x7f,
  0x7f, 0x55, 0x80, 0xa2, 0x7f, 0x80, 0x7f, 0xa1, 0x80, 0x7f, 0xa1, 0x7f,
  0x53, 0x7f, 0x80, 0x7f, 0x7f, 0x7f, 0x80, 0x80, 0x7f, 0x7f, 0x7e, 0xb3,
  0x80, 0x5e, 0x7e, 0x80, 0x7f, 0x7f, 0x80, 0x55, 0x80, 0xb8, 0x80, 0x80,
  0x80, 0xa5, 0xa3, 0xa8, 0x7f, 0xcd, 0x7e, 0xa0, 0x7e, 0x7f, 0xe9, 0xaa,
  0x7f, 0x7f, 0xb1, 0x80, 0x5b, 0x7f, 0x7f, 0x80, 0x81, 0x80, 0x7f, 0x80,
  0xb9, 0xa5, 0x42, 0x7f, 0x80, 0x80, 0xaa, 0x81, 0x7f, 0x5a, 0x80, 0x80,
  0x80, 0x4b, 0x80, 0x80, 0x7f, 0x80, 0x81, 0x7f, 0x80, 0x58, 0x80, 0x80,
  0xcd, 0x7f, 0x80, 0xb5, 0x7f, 0x80, 0x7f, 0x80, 0x7f, 0xa7, 0x80, 0x7f,
  0x80, 0xb8, 0xac, 0x80, 0x36, 0x7f, 0x3d, 0x80, 0x80, 0x80, 0x5d, 0x5e,
  0x7f, 0x80, 0x81, 0x7f, 0x81, 0x80, 0x80, 0x81, 0x80, 0x82, 0x83, 0x80,
  0x55, 0x80, 0xad, 0x7f, 0x5a, 0x80, 0x80, 0x81, 0x81, 0x80, 0x7f, 0x7f,
  0xac, 0xa8, 0x82, 0x80, 0x58, 0x81, 0xb1, 0xb2, 0x81, 0x81, 0xab, 0x82,
  0x81, 0x59, 0xdb, 0x55, 0x7f, 0xc7, 0x81, 0x59, 0x5a, 0x81, 0xbf, 0xc7,
  0x82, 0x80, 0x80, 0x82, 0x81, 0x80, 0xb4, 0x80, 0x81, 0x81, 0x83, 0x81,
  0x57, 0x81, 0xa2, 0x80, 0x81, 0x80, 0x80, 0x80, 0x5e, 0x81, 0x80, 0x53,
  0xb3, 0x82, 0x82, 0x81, 0x80, 0x81, 0xb5, 0xc4, 0x80, 0x81, 0x80, 0x81,
  0xa6, 0x82, 0xbc, 0x80, 0x80, 0x81, 0x80, 0x80, 0x4b, 0x81, 0x80, 0xc7,
  0x80, 0x5e, 0x80, 0xb9, 0xb1, 0x81, 0x80, 0x80, 0x80, 0x80, 0x81, 0x81,
  0x80, 0x80, 0x7f, 0x80, 0x80, 0x80, 0x80, 0x80, 0x5b, 0x81, 0x80, 0x80,
  0x80, 0x80, 0x51, 0x80, 0x80, 0x80, 0x80, 0xa0, 0x81, 0x56, 0xa6, 0x80,
  0x80, 0x82, 0x80, 0x80, 0x80, 0x81, 0x80, 0x80, 0x58, 0x80, 0xa9, 0x7f,
  0x80, 0x80, 0x80, 0x81, 0xa8, 0x81, 0x80, 0x81, 0x36, 0xdb, 0xff, 0xff,
  0x04, 0x00, 0x00, 0x00, 0xc0, 0x06, 0x00, 0x00, 0x80, 0x81, 0x80, 0x7f,
  0xa4, 0x81, 0x80, 0x80, 0x80, 0x80, 0x5d, 0x7f, 0x7f, 0xb4, 0xab, 0x2d,
  0x4f, 0x81, 0x7f, 0x7f, 0x81, 0x81, 0x80, 0x80, 0x80, 0x80, 0x7f, 0x7f,
  0x80, 0xa3, 0x84, 0x54, 0x42, 0x81, 0x7f, 0x7f, 0x82, 0x81, 0x9f, 0x80,
  0x80, 0x80, 0x7f, 0x7f, 0x80, 0xbe, 0x84, 0x81, 0x60, 0x80, 0x80, 0x56,
  0x86, 0xa7, 0x80, 0x80, 0x55, 0x7f, 0x5d, 0x7f, 0x80, 0xa8, 0x81, 0x37,
  0x43, 0x80, 0x80, 0x80, 0x86, 0x7f, 0x80, 0x80, 0x7f, 0x7f, 0x7f, 0x7f,
  0x80, 0xa8, 0x81, 0x62, 0x45, 0x80, 0x80, 0x80, 0x85, 0x7f, 0x80, 0x81,
  0x61, 0x7f, 0x7f, 0x7f, 0x7f, 0xa9, 0x81, 0x80, 0x80, 0x80, 0x80, 0x58,
  0x81, 0x7f, 0x80, 0x80, 0x54, 0x7f, 0x56, 0x80, 0x7f, 0x80, 0x81, 0x56,
  0x51, 0x80, 0x7f, 0x80, 0x81, 0x7f, 0x80, 0x80, 0x7f, 0x7f, 0x7f, 0x80,
  0x7f, 0x80, 0x81, 0x80, 0x54, 0x80, 0x7f, 0x80, 0x81, 0x7f, 0x80, 0x80,
  0x7f, 0x7f, 0x7f, 0x80, 0x7f, 0x80, 0x81, 0x80, 0x80, 0x80, 0x80, 0x80,
  0x56, 0x80, 0x80, 0xa0, 0x80, 0x80, 0x80, 0x80, 0xaf, 0x80, 0x60, 0x80,
  0x80, 0x80, 0x80, 0x80, 0x80, 0x80, 0x80, 0x80, 0x80, 0x80, 0x80, 0x80,
  0x80, 0x80, 0x5e, 0x80, 0x80, 0x80, 0x80, 0x80, 0x80, 0x80, 0x80, 0x80,
  0x80, 0x80, 0x80, 0x80, 0xe2, 0x80, 0x80, 0xa7, 0x80, 0xa2, 0x80, 0x80,
  0x7f, 0x80, 0x80, 0x80, 0x43, 0x50, 0x80, 0x80, 0x80, 0x5d, 0x80, 0x80,
  0x80, 0x80, 0x80, 0xa3, 0x7f, 0x80, 0x80, 0x80, 0x55, 0x42, 0x80, 0x80,
  0xb3, 0x80, 0xae, 0x80, 0x80, 0x80, 0x80, 0x80, 0x7f, 0x80, 0x80, 0x80,
  0x80, 0x5c, 0x80, 0x80, 0x80, 0x80, 0x7f, 0x80, 0x80, 0x80, 0x80, 0x9f,
  0x7f, 0x80, 0x80, 0x80, 0x80, 0x46, 0x80, 0x80, 0x80, 0x80, 0xb6, 0x80,
  0x80, 0x80, 0x80, 0x80, 0x7f, 0x80, 0x80, 0x80, 0x80, 0x50, 0x80, 0x80,
  0x80, 0x80, 0xa8, 0x80, 0x80, 0x80, 0x80, 0x80, 0x7f, 0x80, 0x80, 0x80,
  0x80, 0x80, 0x80, 0x80, 0x80, 0x80, 0x80, 0x80, 0x80, 0x5d, 0x64, 0x80,
  0x51, 0x80, 0x63, 0x80, 0x80, 0x80, 0x80, 0x80, 0x80, 0x80, 0x80, 0x80,
  0x7f, 0x80, 0x80, 0x80, 0x80, 0x80, 0x80, 0x80, 0x80, 0x80, 0x80, 0x80,
  0x80, 0x80, 0x80, 0x80, 0x7f, 0x80, 0xa7, 0x80, 0x80, 0x80, 0x80, 0x80,
  0x80, 0x58, 0x80, 0x80, 0x80, 0x80, 0x80, 0x80, 0x80, 0x80, 0x80, 0x80,
  0x49, 0x80, 0x80, 0x80, 0x80, 0x80, 0x80, 0x80, 0x80, 0x80, 0x80, 0x80,
  0x80, 0x80, 0x80, 0x80, 0x5e, 0x80, 0x80, 0x80, 0x80, 0x67, 0x80, 0x80,
  0x80, 0x80, 0x80, 0x80, 0x67, 0x80, 0x7f, 0x80, 0x7f, 0x80, 0x80, 0x60,
  0x80, 0x61, 0x80, 0x80, 0x80, 0x80, 0x80, 0x7f, 0x80, 0x80, 0x7f, 0x80,
  0x4b, 0x80, 0x66, 0x80, 0x80, 0x80, 0x80, 0x80, 0x80, 0x80, 0x80, 0x80,
  0x80, 0x80, 0x7f, 0x80, 0x7f, 0x80, 0x80, 0x80, 0x80, 0x80, 0x80, 0x9b,
  0x80, 0x80, 0x80, 0x80, 0x80, 0x80, 0x7f, 0x66, 0x9a, 0x80, 0x80, 0x80,
  0x80, 0x80, 0x80, 0x80, 0x80, 0x80, 0x80, 0x80, 0x80, 0x80, 0x80, 0x7f,
  0x7f, 0x7f, 0x80, 0x80, 0x80, 0x80, 0x80, 0x80, 0x80, 0x7f, 0x53, 0x80,
  0x80, 0x80, 0x80, 0x7f, 0x7f, 0x7f, 0x80, 0x7f, 0x80, 0x80, 0x80, 0x80,
  0x80, 0x80, 0x80, 0x80, 0x80, 0x7f, 0x80, 0x7f, 0x7f, 0x7f, 0x80, 0x80,
  0x80, 0x80, 0x80, 0x80, 0xaf, 0x80, 0x80, 0x7f, 0xc5, 0x80, 0x80, 0x7f,
  0x7f, 0x7f, 0x80, 0x7e, 0x7e, 0x80, 0x7f, 0x83, 0x80, 0x7f, 0x80, 0xc1,
  0x80, 0x7f, 0x7f, 0x80, 0x7f, 0x7e, 0x80, 0x7f, 0x7f, 0x80, 0x7f, 0x83,
  0x81, 0x7f, 0x80, 0xaa, 0xb6, 0xaa, 0x7f, 0x80, 0x7f, 0x7f, 0x80, 0x80,
  0x7f, 0x80, 0x81, 0x82, 0x81, 0x52, 0x80, 0xb2, 0x7f, 0x80, 0x81, 0x80,
  0x81, 0x7f, 0x80, 0x80, 0x81, 0xd1, 0x7f, 0x80, 0x81, 0x48, 0x80, 0x01,
  0x55, 0x7f, 0x80, 0x7f, 0x81, 0x80, 0x80, 0x52, 0x81, 0xab, 0x7f, 0x80,
  0x80, 0x54, 0x80, 0x1b, 0x39, 0x80, 0x53, 0x80, 0x81, 0x80, 0x80, 0x3a,
  0x81, 0xad, 0x7f, 0x80, 0x81, 0x4c, 0x80, 0x4f, 0x80, 0x81, 0x80, 0x80,
  0x83, 0x82, 0x80, 0x81, 0x80, 0x80, 0x7e, 0x7f, 0x80, 0x80, 0x80, 0x80,
  0x7f, 0x82, 0x80, 0x80, 0x82, 0x80, 0x40, 0x80, 0xa7, 0x80, 0x80, 0x80,
  0x80, 0x80, 0x80, 0x81, 0x80, 0x81, 0x80, 0xa9, 0x83, 0x81, 0x4a, 0x80,
  0x80, 0xac, 0x80, 0x7f, 0x80, 0x80, 0x80, 0x81, 0xa7, 0x57, 0x80, 0x81,
  0x88, 0x80, 0x7f, 0x80, 0x7f, 0x55, 0x7f, 0x80, 0x80, 0x7f, 0x84, 0x80,
  0x7f, 0x80, 0x81, 0x80, 0x87, 0x80, 0x57, 0x80, 0x7f, 0x7f, 0x4f, 0x80,
  0x7f, 0x7f, 0xcb, 0x59, 0x7f, 0x80, 0x81, 0xc4, 0x87, 0x81, 0x38, 0x80,
  0x57, 0x80, 0x7f, 0x7f, 0xa6, 0x55, 0xaf, 0x7f, 0x80, 0x80, 0x80, 0x80,
  0x82, 0x80, 0x80, 0x80, 0x80, 0x7f, 0x80, 0x80, 0x80, 0x80, 0x81, 0x80,
  0xbf, 0x80, 0x80, 0x80, 0x83, 0xa8, 0x80, 0x5a, 0x7f, 0x7f, 0x80, 0x80,
  0x80, 0x80, 0x80, 0x80, 0x80, 0x80, 0x80, 0x80, 0x83, 0x80, 0x80, 0x80,
  0x80, 0x7f, 0x7f, 0x80, 0x80, 0x4e, 0x80, 0xb0, 0x80, 0x80, 0x80, 0x80,
  0x80, 0x80, 0x80, 0x80, 0x80, 0x80, 0x80, 0x80, 0x80, 0x80, 0x80, 0x80,
  0x80, 0x80, 0x80, 0x80, 0x80, 0x80, 0x80, 0x80, 0x80, 0x80, 0x80, 0x80,
  0x80, 0x80, 0x80, 0x80, 0x80, 0x80, 0x80, 0x80, 0x80, 0x6d, 0x80, 0x80,
  0x80, 0x80, 0x80, 0x80, 0x80, 0x80, 0x80, 0x94, 0x80, 0x80, 0x80, 0x80,
  0x80, 0x80, 0x68, 0x80, 0x80, 0x80, 0x80, 0x80, 0x80, 0x80, 0x80, 0x80,
  0x80, 0x80, 0x80, 0x80, 0x80, 0x67, 0x5c, 0x80, 0x80, 0xb9, 0x80, 0x80,
  0x80, 0x80, 0x64, 0x80, 0x80, 0x6d, 0x80, 0xa2, 0x6d, 0x61, 0x51, 0x80,
  0x80, 0x98, 0x80, 0x80, 0x80, 0x80, 0x60, 0x80, 0x80, 0x80, 0x80, 0x6d,
  0x80, 0x80, 0x67, 0x80, 0x80, 0x80, 0x80, 0x80, 0x80, 0x80, 0x80, 0x80,
  0x95, 0x80, 0x80, 0x80, 0x80, 0x80, 0x62, 0x80, 0x80, 0x98, 0x80, 0x80,
  0x80, 0x80, 0x80, 0x80, 0x80, 0x6b, 0x80, 0x80, 0x80, 0x80, 0x5e, 0x80,
  0x80, 0xb1, 0x80, 0x80, 0x80, 0x80, 0x80, 0x80, 0xb5, 0x80, 0x80, 0x5b,
  0x80, 0x80, 0x80, 0x80, 0x58, 0xa9, 0x80, 0x80, 0x80, 0x80, 0x80, 0x56,
  0x7f, 0x80, 0x80, 0x80, 0x80, 0x80, 0x80, 0xa8, 0x80, 0xd3, 0x80, 0x80,
  0x80, 0x80, 0x7f, 0x80, 0x80, 0x80, 0x80, 0x80, 0x80, 0x80, 0x80, 0x80,
  0x48, 0xb0, 0x80, 0x80, 0x80, 0x80, 0xad, 0x80, 0x80, 0x7f, 0x80, 0x80,
  0x7e, 0x80, 0x80, 0x80, 0x80, 0x80, 0x5b, 0x80, 0x80, 0x80, 0x7f, 0x7f,
  0x80, 0x7f, 0x54, 0x80, 0x7e, 0x80, 0x80, 0xad, 0x58, 0x7f, 0x80, 0x80,
  0x80, 0x80, 0x7f, 0x80, 0x80, 0x7f, 0x80, 0x52, 0x7f, 0x80, 0x80, 0xa4,
  0x56, 0x49, 0x80, 0x80, 0x80, 0x80, 0x7f, 0x80, 0x57, 0x80, 0x80, 0x80,
  0x7e, 0x80, 0x80, 0x80, 0x5c, 0x80, 0x80, 0x80, 0x80, 0x81, 0x80, 0x3e,
  0x35, 0x80, 0x80, 0x80, 0x7e, 0x80, 0x80, 0x80, 0x80, 0x80, 0x81, 0x80,
  0xb3, 0x80, 0x80, 0x5c, 0x41, 0xbf, 0x80, 0x80, 0x7f, 0x80, 0x80, 0x80,
  0x53, 0x80, 0x81, 0x80, 0x81, 0x80, 0x80, 0x80, 0x80, 0x7f, 0x80, 0x80,
  0x7e, 0x7f, 0x80, 0x80, 0x5f, 0x80, 0x81, 0x80, 0x80, 0x80, 0x7f, 0x3d,
  0x61, 0x7f, 0x80, 0x80, 0x7e, 0x7f, 0x80, 0x80, 0x60, 0x63, 0x80, 0x80,
  0x80, 0x62, 0x7f, 0x80, 0x61, 0x9e, 0x80, 0x80, 0x99, 0x7f, 0x80, 0x80,
  0x5a, 0x80, 0x80, 0x80, 0xa0, 0x80, 0x7f, 0x7f, 0x81, 0x80, 0x80, 0x80,
  0x7d, 0x80, 0x80, 0x80, 0x64, 0x80, 0x81, 0x81, 0xba, 0x80, 0x80, 0x3b,
  0x5e, 0x80, 0x80, 0x80, 0x7d, 0x60, 0x80, 0x80, 0x80, 0x80, 0x81, 0x81,
  0xaa, 0x80, 0x80, 0x64, 0x5a, 0x80, 0x7f, 0x80, 0x7d, 0x80, 0x80, 0x80,
  0x80, 0x60, 0x81, 0x81, 0xa5, 0x80, 0x80, 0x7f, 0x80, 0x64, 0x81, 0x80,
  0x80, 0x80, 0x80, 0x80, 0x81, 0x80, 0x80, 0x80, 0xa2, 0x80, 0x80, 0x37,
  0x58, 0x80, 0x81, 0x80, 0x7f, 0x80, 0x80, 0x80, 0x81, 0x80, 0x80, 0x80,
  0x9f, 0x80, 0xa6, 0x5c, 0x59, 0x80, 0x81, 0x80, 0x7f, 0x80, 0x5e, 0x80,
  0x81, 0x81, 0x80, 0x80, 0x80, 0x80, 0x7f, 0x80, 0x81, 0x80, 0x80, 0x81,
  0x5c, 0x80, 0x81, 0x80, 0x80, 0x80, 0xb0, 0x82, 0x82, 0x80, 0x7f, 0x82,
  0x82, 0x80, 0x80, 0x82, 0x5a, 0x80, 0x81, 0x80, 0x80, 0x80, 0x81, 0x82,
  0x81, 0x81, 0x7e, 0x82, 0x82, 0x81, 0x80, 0x82, 0x5b, 0x80, 0x81, 0x80,
  0x80, 0x80, 0x81, 0x81, 0x81, 0x81, 0x7e, 0x81, 0x81, 0x81, 0x83, 0x81,
  0x82, 0x80, 0x81, 0x7f, 0x80, 0x80, 0x81, 0x81, 0x83, 0x80, 0x7e, 0x82,
  0x84, 0x80, 0x82, 0x46, 0x83, 0xb9, 0x81, 0x7f, 0x81, 0x80, 0x81, 0x81,
  0x83, 0x80, 0x7e, 0x81, 0x84, 0x7f, 0x81, 0x47, 0x5a, 0xb0, 0x81, 0x80,
  0x81, 0x80, 0x82, 0x82, 0x83, 0x7f, 0x7e, 0x80, 0x80, 0x81, 0x82, 0x80,
  0x47, 0x81, 0x81, 0x7f, 0x80, 0x80, 0x80, 0x80, 0x81, 0x80, 0x80, 0x81,
  0x81, 0x81, 0x83, 0x59, 0x56, 0xc3, 0x81, 0x7f, 0x81, 0x80, 0x7f, 0x80,
  0x81, 0x80, 0x80, 0x81, 0x81, 0x80, 0x85, 0x4a, 0x4b, 0x81, 0x81, 0x80,
  0x82, 0x81, 0x7f, 0xac, 0x82, 0x80, 0x4f, 0x81, 0x81, 0x80, 0x80, 0x22,
  0x7f, 0x7f, 0x80, 0x80, 0x80, 0x14, 0x81, 0x80, 0x81, 0x80, 0x80, 0x80,
  0x81, 0x7f, 0x80, 0x3b, 0x7f, 0x7e, 0x80, 0x80, 0x80, 0x3e, 0x81, 0x80,
  0x81, 0x80, 0x43, 0x80, 0x81, 0xba, 0x80, 0x45, 0x7f, 0x80, 0x80, 0x80,
  0x80, 0x2b, 0x82, 0x81, 0x80, 0x80, 0x80, 0x80, 0x81, 0x80, 0x81, 0x80,
  0x7d, 0x80, 0x80, 0x7f, 0x80, 0xc7, 0x81, 0x81, 0x81, 0xe4, 0x80, 0x80,
  0x81, 0x80, 0x82, 0x80, 0x7d, 0x7f, 0x80, 0x7f, 0x4a, 0xcd, 0x80, 0x80,
  0x81, 0x80, 0x7f, 0x81, 0x82, 0x80, 0xbc, 0x80, 0x7d, 0x80, 0x80, 0x80,
  0x80, 0x80, 0x81, 0x80, 0x81, 0x80, 0x80, 0x81, 0x80, 0x80, 0x81, 0x3e,
  0x7e, 0x80, 0x80, 0x7f, 0x80, 0x80, 0x80, 0x80, 0x80, 0x7f, 0x7f, 0x80,
  0x81, 0x80, 0x81, 0x36, 0x7f, 0xc1, 0x81, 0x7f, 0x81, 0x80, 0x80, 0x80,
  0x81, 0x7f, 0x7f, 0x80, 0x80, 0x80, 0x81, 0x80, 0x7f, 0x80, 0x81, 0x80,
  0xbe, 0x80, 0x80, 0x80, 0x81, 0x7f, 0x80, 0x80, 0x80, 0x80, 0x80, 0x80,
  0x80, 0x80, 0x80, 0x80, 0x80, 0x80, 0x80, 0x80, 0x80, 0x4e, 0x80, 0x80,
  0x68, 0x80, 0x80, 0x80, 0x80, 0x80, 0x80, 0x80, 0x80, 0x80, 0x80, 0x80,
  0x80, 0x54, 0x80, 0x80, 0x80, 0x80, 0x80, 0x63, 0x7f, 0x80, 0x80, 0x80,
  0x80, 0x80, 0x80, 0x80, 0x80, 0x4d, 0x80, 0x9b, 0x80, 0x7f, 0x80, 0x80,
  0x7f, 0x80, 0x80, 0x80, 0x80, 0x80, 0x65, 0x80, 0x80, 0x5a, 0x80, 0x80,
  0x80, 0x80, 0x80, 0x80, 0x66, 0x68, 0x80, 0x80, 0x80, 0xa2, 0x5c, 0x80,
  0x80, 0x52, 0x80, 0xb2, 0x80, 0x80, 0x80, 0x80, 0x7e, 0x80, 0x64, 0x80,
  0x63, 0x80, 0x80, 0x80, 0x80, 0x52, 0x80, 0xb7, 0x80, 0x80, 0x80, 0x80,
  0x7f, 0x80, 0x80, 0x80, 0x80, 0x80, 0x80, 0x80, 0x80, 0x80, 0x80, 0x65,
  0x62, 0x80, 0x80, 0x80, 0x7f, 0x80, 0x80, 0x80, 0x80, 0x80, 0x80, 0x80,
  0x80, 0x80, 0x80, 0x80, 0x80, 0x80, 0x80, 0x80, 0x7f, 0x80, 0x80, 0x80,
  0x80, 0x98, 0x80, 0x80, 0x9d, 0x80, 0x80, 0x80, 0x7f, 0x7e, 0x80, 0x7f,
  0x7e, 0x7f, 0x80, 0x7f, 0xb8, 0x80, 0x80, 0x80, 0x7f, 0x80, 0x7f, 0x7d,
  0x7f, 0x7e, 0x80, 0x7f, 0x7e, 0x80, 0x80, 0x80, 0x80, 0x80, 0x7f, 0x80,
  0x7f, 0x80, 0x7f, 0x7d, 0x7f, 0x7f, 0x80, 0xb5, 0x7f, 0x53, 0x80, 0x80,
  0x80, 0x80, 0x7f, 0x80, 0x7f, 0x80, 0x7f, 0x49, 0x7f, 0x7f, 0x7e, 0x7f,
  0x79, 0x7f, 0x59, 0x7f, 0x80, 0x80, 0x7f, 0x80, 0x7f, 0xad, 0xa9, 0x57,
  0x7e, 0x7f, 0x7e, 0x7e, 0x7a, 0x7f, 0x4d, 0x7f, 0x7f, 0x80, 0x80, 0x80,
  0x7e, 0x81, 0x7e, 0x7e, 0x7f, 0x7f, 0x7e, 0x50, 0x7a, 0x7d, 0x4f, 0x7f,
  0xb7, 0x48, 0x7f, 0x80, 0x7f, 0x80, 0x53, 0x7d, 0x7f, 0x80, 0x7f, 0x80,
  0x7c, 0x80, 0x7f, 0x80, 0x80, 0x81, 0x80, 0x80, 0x80, 0x81, 0x80, 0x7f,
  0xc4, 0x81, 0x7e, 0x80, 0x79, 0xaf, 0x7f, 0x80, 0xbc, 0x41, 0x80, 0x7f,
  0x56, 0x82, 0x7e, 0x7f, 0x80, 0x7f, 0x7c, 0x7f, 0x78, 0x7f, 0x7f, 0x80,
  0xbd, 0x4c, 0x80, 0x80, 0x80, 0x82, 0xa9, 0xb3, 0x02, 0xe2, 0xff, 0xff,
  0x04, 0x00, 0x00, 0x00, 0x40, 0x00, 0x00, 0x00, 0x3e, 0xfb, 0xff, 0xff,
  0x83, 0xf9, 0xff, 0xff, 0x2e, 0xfe, 0xff, 0xff, 0xb5, 0xfc, 0xff, 0xff,
  0x37, 0xfb, 0xff, 0xff, 0xd4, 0xf3, 0xff, 0xff, 0xee, 0x0c, 0x00, 0x00,
  0x56, 0xfc, 0xff, 0xff, 0x20, 0xfd, 0xff, 0xff, 0xae, 0xfc, 0xff, 0xff,
  0x5c, 0x02, 0x00, 0x00, 0x8b, 0x00, 0x00, 0x00, 0x61, 0xfe, 0xff, 0xff,
  0x2e, 0xf2, 0xff, 0xff, 0x00, 0xf6, 0xff, 0xff, 0xf1, 0xf8, 0xff, 0xff,
  0x4e, 0xe2, 0xff, 0xff, 0x04, 0x00, 0x00, 0x00, 0x10, 0x00, 0x00, 0x00,
  0x00, 0x00, 0x00, 0x00, 0x03, 0x00, 0x00, 0x00, 0x02, 0x00, 0x00, 0x00,
  0x01, 0x00, 0x00, 0x00, 0x6a, 0xe2, 0xff, 0xff, 0x04, 0x00, 0x00, 0x00,
  0x30, 0x00, 0x00, 0x00, 0xf2, 0xff, 0xff, 0xff, 0x4a, 0xf9, 0xff, 0xff,
  0xe7, 0xfa, 0xff, 0xff, 0xae, 0xfa, 0xff, 0xff, 0x13, 0xfd, 0xff, 0xff,
  0xbd, 0xfd, 0xff, 0xff, 0xa0, 0xfd, 0xff, 0xff, 0x70, 0xfe, 0xff, 0xff,
  0xb1, 0xfe, 0xff, 0xff, 0xaf, 0xfa, 0xff, 0xff, 0xcb, 0xfc, 0xff, 0xff,
  0x30, 0xfa, 0xff, 0xff, 0xa6, 0xe2, 0xff, 0xff, 0x04, 0x00, 0x00, 0x00,
  0x5a, 0x00, 0x00, 0x00, 0xf0, 0x32, 0x53, 0x6f, 0x80, 0x88, 0x78, 0x81,
  0x81, 0x8b, 0x41, 0x91, 0xa4, 0x39, 0x95, 0x9c, 0x57, 0x91, 0x90, 0x91,
  0x5d, 0x94, 0x94, 0x60, 0x8a, 0x88, 0x76, 0x4f, 0x89, 0x93, 0x4b, 0x8e,
  0xa7, 0x6b, 0x88, 0x90, 0x42, 0xff, 0x2c, 0x81, 0x81, 0x74, 0x81, 0x81,
  0x7c, 0x96, 0x61, 0x57, 0xab, 0x63, 0x5a, 0xa5, 0x72, 0x6b, 0x92, 0x75,
  0x69, 0x9c, 0x77, 0x6a, 0x8e, 0x7a, 0x71, 0x85, 0x84, 0x6e, 0x8d, 0x87,
  0x62, 0x5a, 0x39, 0xeb, 0xa7, 0x80, 0x38, 0xb2, 0x80, 0x42, 0x44, 0x8b,
  0xa5, 0x5d, 0x54, 0xb0, 0x61, 0x57, 0xbe, 0x7d, 0x64, 0x9a, 0x00, 0x00,
  0x0e, 0xe3, 0xff, 0xff, 0x04, 0x00, 0x00, 0x00, 0x48, 0x00, 0x00, 0x00,
  0x78, 0x08, 0x00, 0x00, 0x60, 0xff, 0xff, 0xff, 0x39, 0x0b, 0x00, 0x00,
  0x44, 0x02, 0x00, 0x00, 0x67, 0x0c, 0x00, 0x00, 0xad, 0x09, 0x00, 0x00,
  0x23, 0x0a, 0x00, 0x00, 0xb8, 0x0e, 0x00, 0x00, 0x3a, 0x05, 0x00, 0x00,
  0xaf, 0x13, 0x00, 0x00, 0x49, 0x0f, 0x00, 0x00, 0x85, 0x09, 0x00, 0x00,
  0x1c, 0x00, 0x00, 0x00, 0x55, 0x07, 0x00, 0x00, 0x7f, 0x0a, 0x00, 0x00,
  0x37, 0x10, 0x00, 0x00, 0xcf, 0x07, 0x00, 0x00, 0x6f, 0x0e, 0x00, 0x00,
  0x62, 0xe3, 0xff, 0xff, 0x04, 0x00, 0x00, 0x00, 0x40, 0x00, 0x00, 0x00,
  0xf6, 0xf9, 0xff, 0xff, 0x87, 0xf9, 0xff, 0xff, 0xb4, 0xf7, 0xff, 0xff,
  0x59, 0xf7, 0xff, 0xff, 0x21, 0xf1, 0xff, 0xff, 0x69, 0xfa, 0xff, 0xff,
  0xfb, 0xf5, 0xff, 0xff, 0x06, 0xfc, 0xff, 0xff, 0xb4, 0xf3, 0xff, 0xff,
  0xa6, 0xf4, 0xff, 0xff, 0xbd, 0xfa, 0xff, 0xff, 0x8e, 0xf4, 0xff, 0xff,
  0xb8, 0xf8, 0xff, 0xff, 0x6a, 0xf7, 0xff, 0xff, 0x8c, 0xfe, 0xff, 0xff,
  0xbe, 0xf9, 0xff, 0xff, 0xae, 0xe3, 0xff, 0xff, 0x04, 0x00, 0x00, 0x00,
  0x60, 0x04, 0x00, 0x00, 0x66, 0x76, 0x59, 0x8b, 0x80, 0x76, 0x4e, 0x62,
  0x74, 0x66, 0x9b, 0x95, 0x7f, 0x58, 0x71, 0x7f, 0x5d, 0x9e, 0x80, 0x80,
  0x51, 0x6f, 0x8d, 0x53, 0xa4, 0x80, 0x80, 0x5e, 0x80, 0x76, 0x69, 0xa6,
  0x71, 0x80, 0x51, 0x5a, 0x88, 0x63, 0xab, 0x7a, 0x80, 0x2e, 0x61, 0x79,
  0x75, 0x95, 0x80, 0x80, 0x47, 0x70, 0x72, 0x76, 0x91, 0x88, 0x80, 0x66,
  0x6b, 0x61, 0x71, 0x97, 0x8c, 0x74, 0x7a, 0x7a, 0x46, 0x7a, 0x80, 0x92,
  0x7a, 0x89, 0x6e, 0x80, 0x66, 0x91, 0x7b, 0x80, 0x5f, 0x6d, 0x79, 0x72,
  0x9d, 0x84, 0x80, 0x5c, 0x67, 0x80, 0x78, 0x9a, 0x87, 0x80, 0x6c, 0x70,
  0x80, 0x6f, 0x99, 0x80, 0x80, 0x71, 0x70, 0x7f, 0x73, 0x97, 0x80, 0x7f,
  0x67, 0x7e, 0x3e, 0xf1, 0x44, 0x8f, 0x7f, 0xd5, 0x7f, 0x64, 0xd9, 0x1e,
  0x7f, 0x7e, 0xe9, 0x8d, 0x66, 0xc9, 0x5a, 0x8a, 0x7f, 0xd8, 0x74, 0x5d,
  0xac, 0x44, 0x7f, 0x80, 0xf2, 0x5a, 0x6a, 0x9f, 0x53, 0x6d, 0x7e, 0xff,
  0x94, 0x6a, 0xa4, 0x67, 0x84, 0x80, 0x77, 0x8e, 0x6a, 0x90, 0x70, 0x85,
  0x80, 0x69, 0x77, 0x7a, 0x8d, 0x6f, 0x86, 0x80, 0x5c, 0x80, 0x73, 0x89,
  0x7c, 0x90, 0x76, 0x68, 0x8e, 0x60, 0x80, 0x72, 0x99, 0x76, 0x71, 0x73,
  0x85, 0x60, 0xa7, 0x80, 0x75, 0x7b, 0x64, 0x73, 0x7b, 0x97, 0x6e, 0x79,
  0x91, 0x55, 0x80, 0x6e, 0x8a, 0x6f, 0x80, 0x87, 0x67, 0x8b, 0x7a, 0x79,
  0x6f, 0x80, 0xa1, 0x6b, 0x80, 0x80, 0x79, 0x67, 0x8a, 0xad, 0x90, 0x6a,
  0x9d, 0x62, 0x8b, 0x80, 0x80, 0x99, 0x66, 0x8f, 0x5e, 0x97, 0x7b, 0x74,
  0x92, 0x68, 0x94, 0x67, 0x90, 0x80, 0x6e, 0x86, 0x69, 0x78, 0x6c, 0x89,
  0x80, 0x6e, 0x81, 0x67, 0x72, 0x6c, 0x70, 0x7b, 0x66, 0x70, 0x91, 0x6b,
  0x95, 0x7a, 0x89, 0x66, 0x5c, 0x92, 0x6c, 0xac, 0x6f, 0x80, 0x78, 0x5d,
  0x8d, 0x6e, 0xa5, 0x69, 0x89, 0x90, 0x60, 0x90, 0x73, 0x8b, 0x67, 0x87,
  0xa5, 0x64, 0x80, 0x79, 0x80, 0x6f, 0x80, 0xad, 0x80, 0x7c, 0x80, 0x80,
  0x7b, 0x7a, 0x80, 0x84, 0x80, 0x76, 0x7a, 0x76, 0xa6, 0x8a, 0x7a, 0x79,
  0x66, 0x6f, 0x97, 0xa9, 0x80, 0x70, 0x80, 0x7a, 0x66, 0x91, 0x65, 0x74,
  0x64, 0x84, 0x8a, 0x70, 0x6b, 0x5e, 0x80, 0x68, 0x73, 0x8f, 0x80, 0x80,
  0x53, 0x7d, 0x7b, 0x73, 0xa0, 0x89, 0x6e, 0x57, 0x80, 0x78, 0x6c, 0x84,
  0x8e, 0x65, 0x90, 0x88, 0x92, 0x6e, 0x67, 0x90, 0x84, 0xae, 0x80, 0x8a,
  0x6b, 0x63, 0x75, 0x8d, 0x8e, 0x80, 0x7d, 0x85, 0x80, 0x7b, 0x77, 0x85,
  0x80, 0x7b, 0x7a, 0x76, 0x8e, 0x90, 0xaf, 0x85, 0x84, 0x83, 0xa4, 0x66,
  0x80, 0x15, 0x6e, 0x72, 0x80, 0x64, 0x8d, 0x59, 0x8e, 0x92, 0x85, 0x73,
  0x80, 0x87, 0x99, 0xa8, 0x7a, 0x80, 0x73, 0x79, 0x8c, 0x8a, 0xa6, 0x80,
  0x80, 0x84, 0x98, 0x67, 0x75, 0x28, 0x70, 0x73, 0x80, 0x56, 0x95, 0x6b,
  0xb4, 0x98, 0x88, 0x70, 0x95, 0x77, 0x9b, 0x84, 0x6d, 0x78, 0x84, 0x80,
  0x78, 0x6d, 0x64, 0x8d, 0x7b, 0x86, 0x86, 0x80, 0x74, 0x68, 0x85, 0x79,
  0x72, 0x6d, 0x7a, 0x8f, 0xa4, 0x76, 0x89, 0x87, 0x91, 0x7d, 0x74, 0x62,
  0x80, 0x76, 0x72, 0x6c, 0x80, 0x87, 0xa5, 0x80, 0x88, 0x85, 0x8d, 0x80,
  0x79, 0x67, 0x80, 0x77, 0x6e, 0x77, 0x79, 0x8e, 0x95, 0x77, 0x88, 0x8b,
  0x93, 0x80, 0x6c, 0x63, 0x88, 0x77, 0x70, 0x6d, 0x7b, 0x85, 0x96, 0x7c,
  0x8c, 0x8a, 0x89, 0x85, 0x77, 0x64, 0x83, 0x75, 0x7a, 0x77, 0x80, 0x85,
  0x92, 0x84, 0x77, 0x74, 0x87, 0x78, 0x89, 0x84, 0x7a, 0x89, 0x88, 0x72,
  0x92, 0x6d, 0x7a, 0x86, 0x74, 0x6c, 0x91, 0x69, 0x92, 0x80, 0x74, 0x8f,
  0x89, 0x6d, 0x94, 0x6d, 0x80, 0x8f, 0x79, 0x7a, 0x8e, 0x76, 0x8a, 0x7b,
  0x7a, 0x87, 0x86, 0x79, 0x8a, 0x6e, 0x7a, 0x89, 0x70, 0x63, 0x8b, 0x67,
  0x90, 0x80, 0x74, 0x8a, 0x8b, 0x6f, 0x90, 0x68, 0x80, 0x87, 0x78, 0x74,
  0x8d, 0x6b, 0x96, 0x80, 0x72, 0x80, 0x7c, 0x76, 0x8c, 0x74, 0x82, 0x8d,
  0x8b, 0x82, 0x79, 0x98, 0x74, 0x7b, 0x87, 0x79, 0x87, 0x86, 0x65, 0x80,
  0x7d, 0x74, 0x73, 0x6d, 0x8c, 0x80, 0x90, 0x86, 0x7c, 0x8f, 0x85, 0x6b,
  0x93, 0x74, 0x7c, 0x85, 0x77, 0x83, 0x8f, 0x75, 0x80, 0x7d, 0x80, 0x7a,
  0x73, 0x84, 0x8b, 0x87, 0x80, 0x80, 0x89, 0x8b, 0x72, 0x80, 0x69, 0x7e,
  0x8c, 0x70, 0x7d, 0x95, 0x6b, 0x89, 0x7d, 0x76, 0x79, 0x68, 0x74, 0x86,
  0x8a, 0x84, 0x80, 0x88, 0x8c, 0x76, 0x80, 0x71, 0x7c, 0x83, 0x73, 0x68,
  0x8d, 0x79, 0x83, 0x80, 0x80, 0x80, 0x7b, 0x70, 0x96, 0x80, 0x7e, 0x83,
  0x83, 0x8b, 0x80, 0x70, 0x6c, 0x80, 0x86, 0x76, 0x80, 0x8e, 0x77, 0x8b,
  0x80, 0x7c, 0x7b, 0x69, 0x75, 0x83, 0x85, 0x80, 0x7a, 0x7b, 0x65, 0x75,
  0x9f, 0x85, 0x77, 0x83, 0x8d, 0x89, 0x79, 0x7b, 0x7a, 0x80, 0x7c, 0x83,
  0x92, 0x90, 0x64, 0x6c, 0x89, 0x84, 0x75, 0x79, 0x89, 0x7a, 0x80, 0x7c,
  0x80, 0x79, 0x6b, 0x7a, 0x91, 0x98, 0x7a, 0x78, 0x72, 0x80, 0x92, 0x75,
  0x85, 0x82, 0x80, 0x80, 0x67, 0x70, 0xa1, 0x8c, 0x78, 0x79, 0x8a, 0x7a,
  0x72, 0x80, 0x70, 0x7d, 0x80, 0x80, 0x98, 0x86, 0x6e, 0x6a, 0x86, 0x80,
  0x77, 0x70, 0x8b, 0x7b, 0x7b, 0x79, 0x84, 0x74, 0x7b, 0x8c, 0x80, 0x7d,
  0x80, 0x8a, 0x6e, 0x6c, 0x76, 0x9d, 0x8c, 0x76, 0x83, 0x85, 0x6f, 0x79,
  0x86, 0x87, 0x7b, 0x75, 0x8c, 0x83, 0x80, 0x74, 0x75, 0x83, 0x80, 0x79,
  0x95, 0x84, 0x74, 0x6c, 0x83, 0x87, 0x70, 0x67, 0x74, 0x9e, 0x8b, 0x77,
  0x85, 0x80, 0x68, 0x7a, 0x8b, 0x84, 0x79, 0x78, 0x8a, 0x80, 0x83, 0x70,
  0x77, 0x83, 0x75, 0x75, 0x97, 0x89, 0x71, 0x71, 0x89, 0x84, 0x6e, 0x7a,
  0x83, 0x83, 0x7c, 0x7a, 0x95, 0x7b, 0x6e, 0x6c, 0x83, 0x89, 0x79, 0x6e,
  0x93, 0x70, 0x89, 0x6c, 0x8d, 0x80, 0x71, 0x8b, 0x70, 0x8d, 0x7d, 0x7c,
  0x85, 0x78, 0x71, 0x92, 0x7d, 0x7b, 0x6e, 0x80, 0x88, 0x66, 0x84, 0x80,
  0x80, 0x71, 0x7d, 0x98, 0x69, 0x6e, 0x6f, 0x94, 0x86, 0x7a, 0x87, 0x7c,
  0x68, 0x7d, 0x84, 0x84, 0x7b, 0x78, 0x8a, 0x6e, 0x84, 0x74, 0x84, 0x80,
  0x80, 0x8a, 0x76, 0x8a, 0x72, 0x79, 0x86, 0x80, 0x69, 0x91, 0x7c, 0x77,
  0x6a, 0x85, 0x80, 0x73, 0x7c, 0x74, 0x86, 0x7d, 0x7d, 0x80, 0x71, 0x97,
  0x84, 0x80, 0x75, 0x80, 0x83, 0x7a, 0x75, 0x74, 0x78, 0x7a, 0x7b, 0x7b,
  0x77, 0x74, 0x83, 0x80, 0x72, 0x80, 0x80, 0x6b, 0x78, 0x7c, 0x79, 0x6b,
  0x85, 0x8a, 0x9d, 0x6e, 0x90, 0x74, 0x88, 0x80, 0x7c, 0x91, 0x66, 0x8f,
  0x72, 0x92, 0x80, 0x79, 0x87, 0x78, 0x88, 0x80, 0x7a, 0x80, 0x85, 0x61,
  0x8b, 0x77, 0x80, 0x76, 0x80, 0x80, 0x61, 0x9d, 0x76, 0x86, 0x6b, 0x84,
  0x7b, 0x74, 0x8c, 0x78, 0x92, 0x69, 0x80, 0x8d, 0x67, 0x8b, 0x6c, 0xac,
  0x76, 0x7a, 0xa0, 0x71, 0x70, 0x80, 0x8e, 0x80, 0x78, 0x80, 0x85, 0x69,
  0x8f, 0x78, 0x8c, 0x80, 0x78, 0x98, 0x75, 0x87, 0x76, 0x9f, 0x7c, 0x66,
  0x5b, 0x75, 0x59, 0xa7, 0x78, 0x80, 0x93, 0x5d, 0x73, 0x80, 0x8d, 0x76,
  0x80, 0x99, 0x94, 0x64, 0x80, 0x80, 0x80, 0x7a, 0x85, 0x96, 0x6d, 0x9e,
  0x6a, 0x91, 0x80, 0x75, 0xa5, 0x77, 0x7b, 0x74, 0x94, 0x80, 0x68, 0x97,
  0x63, 0x9f, 0x63, 0x88, 0x80, 0x71, 0x80, 0x70, 0x80, 0x6a, 0x89, 0x80,
  0x65, 0x73, 0x88, 0x80, 0x77, 0x71, 0x80, 0x8b, 0x5b, 0x9f, 0x65, 0x9b,
  0x62, 0x80, 0x87, 0x61, 0x85, 0x7a, 0x84, 0x6a, 0x7c, 0xa3, 0x90, 0x62,
  0x9c, 0x66, 0x8a, 0x80, 0x7b, 0x8d, 0x5b, 0x86, 0x63, 0x8d, 0x80, 0x70,
  0x80, 0x6c, 0x80, 0x71, 0x8d, 0x80, 0x6e, 0x80, 0x67, 0x80, 0x73, 0x8e,
  0x80, 0x74, 0x80, 0x5b, 0x7c, 0x6d, 0x80, 0x80, 0x79, 0x65, 0x8f, 0x57,
  0x96, 0x74, 0x80, 0x8e, 0x59, 0x8e, 0x6d, 0xaf, 0x6b, 0x80, 0x8f, 0x59,
  0x91, 0x6c, 0x9f, 0x71, 0x80, 0x80, 0x6f, 0x90, 0x77, 0x8a, 0x67, 0x80,
  0xa1, 0x62, 0x6f, 0x7a, 0x85, 0x69, 0x80, 0xb6, 0x1a, 0xe8, 0xff, 0xff,
  0x04, 0x00, 0x00, 0x00, 0x44, 0x00, 0x00, 0x00, 0xdc, 0x05, 0x00, 0x00,
  0x78, 0x0c, 0x00, 0x00, 0x8e, 0x0e, 0x00, 0x00, 0xab, 0xfb, 0xff, 0xff,
  0xe6, 0x00, 0x00, 0x00, 0x3b, 0x08, 0x00, 0x00, 0x9d, 0xf5, 0xff, 0xff,
  0xa0, 0x08, 0x00, 0x00, 0x57, 0x13, 0x00, 0x00, 0x07, 0xf0, 0xff, 0xff,
  0x4d, 0x0b, 0x00, 0x00, 0x07, 0xf3, 0xff, 0xff, 0xa9, 0xf3, 0xff, 0xff,
  0x96, 0x09, 0x00, 0x00, 0x0d, 0x09, 0x00, 0x00, 0xe4, 0xf1, 0xff, 0xff,
  0xcb, 0xd5, 0xff, 0xff, 0x6a, 0xe8, 0xff, 0xff, 0x04, 0x00, 0x00, 0x00,
  0x18, 0x00, 0x00, 0x00, 0xca, 0xfe, 0xff, 0xff, 0x0d, 0xff, 0xff, 0xff,
  0x02, 0x00, 0x00, 0x00, 0xd5, 0xfe, 0xff, 0xff, 0x6d, 0x01, 0x00, 0x00,
  0x7d, 0xff, 0xff, 0xff, 0x8e, 0xe8, 0xff, 0xff, 0x04, 0x00, 0x00, 0x00,
  0x08, 0x00, 0x00, 0x00, 0x01, 0x00, 0x00, 0x00, 0x06, 0x00, 0x00, 0x00,
  0xa2, 0xe8, 0xff, 0xff, 0x04, 0x00, 0x00, 0x00, 0x29, 0x0a, 0x00, 0x00,
  0x96, 0x63, 0x80, 0x5f, 0x69, 0x80, 0x9e, 0x9a, 0x81, 0x6d, 0x82, 0x55,
  0x80, 0x80, 0x67, 0x80, 0x6a, 0x81, 0x80, 0x80, 0x6c, 0x81, 0x80, 0x80,
  0x80, 0x9d, 0x81, 0x81, 0x6e, 0x6b, 0x80, 0x81, 0x80, 0x55, 0x81, 0x80,
  0x80, 0x81, 0x81, 0x80, 0x80, 0x81, 0x81, 0x81, 0x81, 0x80, 0x80, 0x80,
  0xa5, 0x80, 0x80, 0x6d, 0x62, 0x81, 0x81, 0x80, 0x7f, 0x80, 0x80, 0x81,
  0x80, 0x81, 0xa9, 0xa7, 0x80, 0x41, 0x96, 0xc5, 0x52, 0x5d, 0x81, 0x81,
  0x58, 0x5f, 0x5a, 0x60, 0x81, 0x65, 0x81, 0x80, 0x96, 0x80, 0x62, 0x80,
  0xbf, 0x59, 0x81, 0x81, 0x81, 0x5e, 0x57, 0x4f, 0x6d, 0x81, 0x80, 0x81,
  0x80, 0x81, 0xa8, 0x39, 0x81, 0x95, 0x80, 0x80, 0x6d, 0x80, 0xb3, 0xa2,
  0x9c, 0x80, 0x62, 0x81, 0xa1, 0x64, 0x57, 0x5e, 0xb7, 0x6d, 0x57, 0x93,
  0x80, 0x80, 0x80, 0xad, 0x94, 0x80, 0x80, 0x80, 0x81, 0x81, 0x6d, 0x80,
  0x57, 0xa2, 0x6b, 0x34, 0x9c, 0xa6, 0x80, 0x60, 0x9a, 0x9f, 0xad, 0x80,
  0x6c, 0x9a, 0x81, 0x94, 0x5e, 0x67, 0xb2, 0x59, 0x4e, 0x80, 0x80, 0x80,
  0x94, 0x80, 0x80, 0x80, 0x80, 0x80, 0x80, 0x80, 0x80, 0x80, 0x7f, 0x80,
  0x80, 0x80, 0x7f, 0x67, 0x80, 0x80, 0x80, 0x80, 0x80, 0x6c, 0x80, 0x6a,
  0x7f, 0x65, 0x80, 0x99, 0x67, 0x80, 0x93, 0x7f, 0x80, 0x7f, 0x80, 0x65,
  0x80, 0x99, 0x5d, 0x97, 0x66, 0x90, 0x63, 0x6b, 0x80, 0x5e, 0x80, 0x92,
  0x80, 0x7f, 0x80, 0x68, 0x7f, 0x80, 0x80, 0x80, 0x80, 0x80, 0x6c, 0x80,
  0x7f, 0x64, 0x95, 0x80, 0x42, 0x91, 0x7f, 0x7f, 0x7f, 0x7f, 0x7f, 0x7f,
  0x9e, 0x7f, 0x97, 0x5b, 0x80, 0x7f, 0x80, 0x7f, 0x62, 0x2b, 0x99, 0xae,
  0x94, 0x7f, 0x7f, 0xa1, 0xa8, 0x80, 0x7f, 0x7f, 0x46, 0x97, 0x7f, 0x4c,
  0x98, 0x4c, 0x39, 0x63, 0x80, 0x80, 0x80, 0x6d, 0x5e, 0x80, 0x80, 0x80,
  0x80, 0x80, 0x80, 0x80, 0x9f, 0x4e, 0x94, 0xa7, 0x80, 0x5c, 0x5d, 0x80,
  0x6e, 0x80, 0x58, 0x80, 0x80, 0x80, 0x80, 0x66, 0x69, 0x97, 0x59, 0x9b,
  0xa0, 0x66, 0x5d, 0x5a, 0x6b, 0x6d, 0x80, 0x4a, 0x80, 0x98, 0x68, 0x69,
  0x80, 0x80, 0x80, 0x4c, 0xa5, 0x9c, 0x86, 0x80, 0x80, 0x80, 0x80, 0x87,
  0x80, 0x80, 0x80, 0x80, 0x80, 0x80, 0x80, 0x80, 0x79, 0x80, 0x80, 0x79,
  0x80, 0x87, 0x80, 0x80, 0x72, 0x78, 0x89, 0x80, 0x68, 0x80, 0x80, 0x80,
